5F
8D
5B
E4
1B
29
8E
CC
7F
B3
18
C9
A5
28
89
EC
B6
41
56
03
BE
C4
51
E4
7C
EA
3C
4D
02
D7
9A
33
BB
14
C5
37
4C
B2
33
8E
7E
BC
CE
87
6C
62
82
88
99
B4
A1
8F
45
5C
2A
9B
CF
49
B0
41
D3
12
E3
79
04
7B
10
14
E0
FF
2C
EB
6B
56
68
03
76
CD
F8
13
42
E6
1C
0E
C9
48
0F
BC
C1
93
32
89
A0
C7
CC
AF
82
9B
66
2D
AE
AD
92
07
59
09
39
9F
27
FD
4E
EE
5D
E5
6B
C4
3B
18
79
69
E6
DA
18
88
A1
31
24
9B
53
6A
F0
1F
2D
EA
47
C6
C8
68
9A
39
D5
CF
AB
0C
8E
F3
39
0A
38
9C
3B
C0
76
47
86
9E
FB
C2
58
25
FA
A7
D8
1B
4F
4F
04
A3
B7
88
24
1E
4D
8F
E1
0A
60
F1
C9
71
8C
76
58
42
B5
5F
69
CC
31
D8
5F
92
B6
CE
DB
0D
CA
48
33
D7
19
31
5D
A3
C9
00
81
2D
9D
11
B6
B8
53
F3
56
45
E5
C8
29
7F
F0
BE
12
34
8A
AA
EB
10
43
AA
48
94
94
52
F3
D3
74
09
6A
C2
BE
19
AE
E1
30
0D
31
AE
CB
C0
2F
F3
CC
27
14
C8
DA
AC
8E
4B
52
B8
EA
72
19
02
2D
5F
40
85
6E
56
68
2B
9F
28
C0
32
29
2B
C7
07
A1
02
54
0F
0B
2A
40
4B
81
6D
A5
17
24
F7
AA
A3
29
22
AA
02
A2
F8
3A
4A
E0
E4
32
8B
65
CF
5A
5F
C3
9D
AC
7C
F3
A8
FC
38
12
2F
F2
A0
D8
3F
29
26
C4
0B
CC
77
0A
F0
47
F6
C7
41
F2
DC
59
5C
AF
14
3A
33
C9
6B
E3
C3
A2
95
96
7E
B7
4C
FC
84
71
63
02
B7
77
29
99
82
15
06
04
AE
50
9C
5C
07
4E
45
01
1E
D6
32
5B
56
AF
F2
74
3B
3E
1E
FB
77
98
AC
EC
4F
15
E1
C7
E3
E2
C4
85
CE
DE
50
F1
02
A3
5B
E7
F4
14
EA
0B
6B
26
D5
2D
05
55
BC
30
1B
01
5D
32
E4
8A
40
56
6B
9F
74
28
1B
82
DE
97
41
53
51
94
20
73
AB
15
83
C1
7B
57
CE
F7
78
17
E7
1A
6F
E0
E3
6D
D2
B5
87
EF
0E
84
51
D9
24
D2
CA
C1
75
96
C1
99
CE
E8
27
EC
E0
F6
20
CE
94
4F
5B
B7
DC
1C
93
B1
26
C0
28
BE
C6
FB
BD
FC
CE
F4
80
C0
1A
01
51
33
60
39
2A
65
94
0A
F9
D5
36
71
E9
25
1C
DE
68
45
AB
AC
BD
2B
37
B4
BC
16
C2
7D
F7
83
E3
FB
7C
7C
A2
EB
60
29
3E
46
FD
15
8A
92
5A
AD
E3
9F
3F
D5
08
8D
61
FA
FA
07
A8
E8
5B
1E
C5
F9
E4
F3
96
96
6B
0A
94
74
32
6E
FE
FF
79
CC
1C
53
B9
9F
4A
CE
89
11
F5
CA
1C
AA
FE
BA
CE
34
02
78
42
13
22
A5
94
50
05
A2
AF
D7
94
89
C3
BF
8F
CD
D3
6F
13
58
5E
F5
0B
0C
D7
32
14
34
3C
2E
08
18
88
33
4D
67
5B
0E
35
A7
72
92
58
6B
4C
F0
3D
BC
B8
99
5A
A9
66
09
DA
49
4A
BA
52
33
0B
BB
7A
D4
3E
60
76
FC
A9
CA
2E
EF
4D
DD
E0
F3
AE
2B
7E
D0
F2
D3
53
C7
94
56
8E
61
30
AA
9C
35
B0
84
BB
44
76
BE
7B
10
B1
71
74
62
C0
0B
1B
2E
E2
E9
B3
7A
69
4D
C7
77
00
29
E7
22
6A
C4
15
73
A8
52
1D
BD
43
F2
A4
29
17
41
16
44
AD
65
20
87
B5
8E
BD
63
C4
95
31
09
04
CD
C2
3C
46
E7
03
DE
D2
93
B3
70
3F
83
21
01
FC
FE
16
B0
ED
B1
3F
70
E3
79
85
65
85
2D
11
6B
BD
D8
5A
C2
33
1F
89
69
82
9A
1F
11
5D
BC
FC
43
70
C6
C4
A4
BE
82
49
FC
3B
F7
6C
2F
73
72
F8
D1
C3
B6
40
B2
0C
BC
51
62
D1
E8
34
0E
97
C3
67
2D
19
C6
F6
F0
32
67
C8
CC
1D
DD
89
13
5E
0F
98
D8
E8
10
51
55
FF
06
A7
E0
C8
C2
34
05
E4
D4
40
3D
03
E3
89
37
02
33
77
57
0B
42
3C
10
3D
42
C1
35
F8
5D
BD
D4
48
55
37
CF
BC
38
D1
C7
DE
07
5F
BE
83
BB
71
21
14
BD
08
6B
5C
A8
1B
2E
9E
F6
F7
C5
E5
BE
7D
BA
52
78
A7
73
43
B5
52
4C
2D
87
BC
8C
79
14
DC
8C
09
BD
05
04
49
2F
C5
DB
A5
C1
28
45
E2
10
03
7A
9D
69
69
74
B2
6A
23
0E
45
F0
18
5B
47
BE
5E
2E
1F
C1
96
4D
E1
9F
05
75
D8
55
66
E4
99
52
28
19
38
76
29
7D
CA
3D
F2
7F
3D
B4
DE
62
07
C2
B9
56
87
7B
47
C9
DA
57
A8
65
2B
51
9A
34
99
FA
A4
A1
32
6F
02
91
8E
6C
8E
39
DE
0E
D8
80
B0
43
EA
60
9B
90
4B
C0
66
CD
48
A4
10
5F
48
75
5C
7E
7A
A5
B1
9E
51
40
72
57
08
50
40
DD
76
14
84
71
E0
46
05
85
C3
23
09
15
48
3E
9B
22
F7
A9
3D
20
19
9F
B9
87
96
28
02
10
D0
9F
1D
66
0C
80
43
D5
FD
A7
0E
15
23
C1
2E
EE
E3
78
FD
71
CC
66
09
D3
35
16
98
00
4C
05
D2
9C
93
9C
FB
FC
EB
7D
3F
E2
52
ED
FA
24
D2
9C
C0
C2
0D
8C
91
10
E0
9B
14
38
49
C1
E9
B3
BB
B4
5E
BC
86
C9
91
8B
D1
49
47
A1
A7
6A
3B
B7
BA
1F
81
BB
00
60
11
64
56
D6
D2
1C
33
55
63
A8
66
3A
C9
0C
BC
62
74
32
09
62
D6
43
FE
02
79
03
C8
07
99
E1
E0
7C
98
D8
B8
69
FA
8E
0F
00
A3
92
3B
D7
67
B7
C7
98
17
CB
14
2D
24
EB
AD
6D
37
89
92
44
EC
32
0B
3E
1D
4C
27
96
0B
BA
3F
E0
27
69
E0
7E
AC
A1
1D
66
8F
3B
A0
0B
91
61
8C
FB
30
9F
3D
E8
A9
88
63
8E
50
49
4C
4F
2C
34
E6
6E
DE
61
7D
FA
78
41
CD
D6
B3
77
17
EB
15
1A
4A
13
03
2F
47
14
61
48
23
7A
32
E8
B7
B6
A7
05
47
39
0C
7C
D5
35
57
CE
6B
72
F1
10
66
FB
E8
AC
DA
00
9F
28
02
72
93
55
D9
1C
C7
C3
B6
E1
54
56
7E
97
64
56
AA
A6
78
9D
C2
51
63
3B
ED
C0
5F
38
1B
6D
CE
6A
25
B4
91
8F
F6
E0
D9
BF
54
FA
FB
EE
EA
73
56
43
66
D1
61
6E
AC
F9
2B
D8
E3
5C
B9
F6
B3
A1
6E
98
3A
B5
07
24
33
FC
7A
35
94
54
AD
92
79
EB
08
18
40
89
CA
9B
D2
22
AE
E6
43
84
90
CE
2C
EE
B7
BA
10
C0
7A
A4
B5
F9
A0
A2
C8
0B
57
98
03
AA
AC
73
96
8D
DC
01
EF
78
D6
7F
12
14
06
60
30
02
01
82
C9
4F
0D
2E
4C
DB
29
9C
4B
0C
C7
37
1F
D8
97
38
85
50
CC
BC
D8
F4
90
0B
3D
01
83
47
47
CC
16
EF
6C
04
93
82
80
FB
B4
D0
A4
1B
76
B4
B8
F7
EA
91
0C
6C
D1
72
77
45
D9
F9
8E
C7
3B
A6
98
1F
39
D6
F9
BF
D9
4D
11
E9
74
40
E3
64
F6
6E
26
C6
D5
70
41
00
28
72
C7
12
90
A4
F4
E9
99
7C
26
9F
BB
2B
CB
87
ED
88
B7
05
C1
FC
47
FA
75
EE
6A
6A
3A
53
C8
BE
10
52
4C
83
6F
E9
75
51
86
BC
49
47
2B
95
28
F1
39
4A
BC
EF
B5
F5
C1
D0
25
A0
B7
90
B3
FC
47
3E
F4
88
6B
D7
94
D1
66
C6
CC
D3
6F
67
17
D8
21
CF
B3
AE
81
BE
78
4E
1C
30
0B
07
BD
C3
4B
9B
CE
4F
C4
D6
DE
9F
CD
51
9A
1B
09
BB
04
D3
73
A6
FC
FE
B4
B1
DF
9D
97
12
18
72
DD
AB
53
4F
1A
DC
AE
13
89
21
1E
86
06
EE
10
DF
F9
DC
A6
D3
40
36
AB
50
C0
CE
DC
88
0C
00
6A
91
BB
8D
86
9C
B8
C6
D5
59
08
34
DD
4B
8D
35
85
CC
50
B0
5C
27
5A
F0
42
0F
B4
DF
C3
6A
B8
8B
AA
D2
B3
BE
91
44
EC
DE
A5
C3
E3
5E
D3
DF
FB
5D
77
07
1A
8A
B7
34
AA
5B
25
41
CB
2E
10
31
72
64
E5
7F
58
84
04
CC
63
CE
B7
84
FA
F8
39
25
FC
E2
CD
5B
B4
E3
CC
4D
96
49
5C
93
B9
38
BC
C1
6D
D2
5E
BA
91
98
03
D1
15
1A
3D
12
84
2D
25
27
06
4C
18
AD
38
02
DA
EB
F7
CB
81
2C
0D
66
A5
BD
CA
3E
AD
3E
09
7C
2A
41
CD
47
7F
AB
FD
ED
40
C5
4F
0F
A9
FF
08
82
F6
BD
EB
04
42
88
17
2A
29
5A
C1
35
D6
52
8A
60
51
A2
BB
3F
75
85
C4
E2
83
23
B9
23
8D
ED
29
36
EE
ED
A5
67
B5
86
66
D2
85
32
B7
E7
4C
DB
5B
35
4D
97
4C
76
DA
28
58
37
D2
5E
19
BB
63
CE
87
A5
45
72
44
22
39
67
6C
54
11
22
B0
61
A5
8A
DD
94
7E
7B
68
68
6B
46
19
FD
B0
35
B2
72
EF
0A
B2
7B
21
EF
51
78
00
88
11
50
B4
B8
E2
26
55
55
F2
B0
54
42
2B
5D
3F
FB
C4
94
91
55
F5
C4
00
23
F8
63
D2
BD
72
56
3C
71
EB
FF
F0
21
B9
6B
CD
44
C0
BF
15
89
E7
F5
AE
8D
00
C3
44
87
99
58
B3
6C
C0
D9
A1
A6
73
64
F7
CE
4C
7E
4F
51
F9
D3
14
FD
ED
50
B9
6D
CC
D6
8E
48
F0
D7
18
38
03
1A
67
6B
2A
56
75
82
11
4F
6C
9E
0B
C8
C9
8E
5A
FC
55
FD
2E
C1
CF
8F
EF
51
EA
0F
5C
93
94
6B
42
29
75
74
84
6D
39
55
B8
DB
FC
62
39
D7
2D
0F
0C
68
4B
57
81
1E
1B
20
0D
01
9E
74
7E
D2
36
49
9D
49
ED
C9
62
D0
09
B1
48
5D
6A
C3
A8
D7
56
29
7A
98
49
3E
68
EF
52
3B
CF
3A
DE
26
8C
93
EF
5C
2C
DD
4A
BC
D1
B2
02
A3
12
85
C0
21
AB
C4
C7
AD
35
40
AE
9F
30
C1
87
DC
2B
A9
5E
5D
AA
8D
3A
66
59
C2
9B
AE
7E
61
3C
7E
64
3B
8F
31
1E
82
9E
4B
EF
21
F1
C9
06
08
3B
94
E0
4A
73
59
37
F3
42
D4
8D
C4
B1
0D
8F
57
84
7D
C7
1F
FC
BC
2F
90
7E
5B
68
8E
24
03
7A
27
59
CF
FC
9C
24
CC
5F
F5
00
F5
A9
23
43
AD
00
1C
92
F1
77
F3
A5
5D
E7
22
2C
06
F9
68
C3
F6
E6
64
A0
5B
DC
31
DE
40
A1
E2
A2
20
F1
0D
06
09
39
79
0F
8D
E6
F3
DA
96
06
22
40
E6
36
02
D5
8C
49
5B
3B
CD
25
CF
C0
C9
B0
59
5F
91
02
31
E1
55
81
21
8F
9C
B3
40
13
DB
B5
15
31
A4
52
A0
01
B9
04
C6
0D
60
7A
06
8E
CB
3F
D8
DA
CE
F3
78
2B
D1
39
CC
99
8A
B7
17
D4
81
04
69
49
51
FC
23
B2
FA
C9
AB
DD
0E
B2
D4
1E
B0
74
E4
F0
6F
BC
0A
60
9B
4A
6D
76
0E
7E
6B
DB
D4
C6
5A
CC
33
C0
B0
9B
51
0F
BE
61
A2
C7
FD
C6
2D
B7
2B
B7
CB
BB
02
30
FD
E5
47
24
AB
C5
6C
14
13
64
7B
FA
B9
E5
9A
C1
01
60
FA
5F
2A
24
B8
D1
1A
C1
8E
4A
19
58
DD
B9
1D
2A
9C
82
06
98
AA
AB
2A
B4
4A
2D
AB
5E
2A
F1
4D
15
D9
E5
84
B5
EC
0D
66
98
C0
AD
AE
8E
E6
E9
3A
0F
8A
89
79
71
AC
17
67
F7
C6
F4
87
81
E4
97
48
2F
1B
0F
F4
65
B5
73
8C
B3
0E
27
6E
E1
70
EA
1A
F5
59
F5
3C
8E
42
95
91
D1
4B
4E
38
9F
1F
3A
3B
6C
77
E3
34
98
E9
09
0B
15
E3
25
62
4B
2F
A6
3B
D4
A6
C4
14
A2
11
D6
21
C6
39
7F
66
B0
39
09
A6
C1
7C
AF
C4
79
94
11
73
EA
79
A2
79
A6
8E
EF
E4
2A
F4
8E
09
0D
0F
F9
A8
5E
F2
5C
61
BB
AC
BD
96
A0
12
8F
E6
C7
8F
00
20
8D
E0
03
49
D8
77
C9
CD
7E
96
21
FF
FD
87
05
38
4B
36
5B
20
BD
72
47
5E
DF
EE
EF
CA
62
71
BA
E0
9F
DF
F5
5C
93
5D
CF
6A
AC
E9
15
F2
01
4F
00
B8
44
96
09
96
82
D5
98
5B
3E
EB
08
7C
B3
BD
8B
F3
78
4A
0D
28
7D
E3
50
1B
2B
9A
F0
F0
38
AA
5D
85
BB
29
FC
5C
BD
58
25
D7
B8
B0
38
E2
55
8C
E5
9D
F0
1D
CD
6C
C8
F4
42
3F
01
5B
9B
7F
E9
4B
DE
61
B3
CF
39
D6
90
5B
84
08
95
1C
2D
C6
EA
18
CE
EF
59
52
C4
54
2D
2C
4E
AE
F2
25
1A
C7
10
37
6B
B3
9B
C1
7A
C5
83
B0
E0
A0
19
E1
43
BF
09
64
94
11
15
93
3B
25
48
B8
5C
25
58
F4
26
43
9C
AF
E9
AD
B1
3E
1D
BD
33
14
6F
61
3A
B9
A7
99
F4
57
BD
D7
68
40
69
54
73
8D
6B
CA
77
89
3D
E0
14
C0
DF
B6
2C
91
C3
F8
13
95
95
E9
26
A9
DD
B0
B3
5C
42
01
18
B6
F8
0A
C8
9D
3E
1B
60
61
5C
FE
34
F6
B0
07
D4
DD
C1
CF
35
C1
C2
BF
54
52
7F
44
14
6B
57
11
A0
9D
83
DF
C6
86
9A
CE
B7
AA
F7
DF
B3
F5
F4
84
00
63
08
FC
76
5A
D7
F7
FA
36
B7
77
C6
27
79
63
47
EE
A7
D4
4C
97
48
45
F5
2A
60
AC
C3
98
36
04
87
A3
84
57
79
51
74
12
AF
A4
31
A3
49
DD
F3
9A
56
5A
D1
4B
4A
42
D2
EB
16
FE
55
16
71
49
F1
53
D5
8C
FC
02
08
E9
36
0B
92
16
BD
F3
B0
0E
9C
93
E2
8B
90
02
72
40
10
F2
66
31
88
E5
F2
11
97
5E
54
DA
96
5B
63
6A
D3
CA
74
86
29
6D
B1
88
39
F4
7F
B9
E5
FB
0E
D3
5A
E2
F1
2A
E3
AB
24
03
72
56
96
7E
DC
44
59
EF
CB
56
3E
AD
E3
02
91
E8
F1
C1
09
5A
92
E9
10
45
84
99
C9
23
B8
54
30
0F
2B
D9
A4
A9
6A
B1
D6
55
34
CA
98
72
D9
D1
6E
78
66
2D
67
ED
14
2E
B9
94
17
9D
2A
8B
0F
2E
A2
C6
FB
7B
5C
26
75
AE
18
C2
BC
E2
46
CC
46
06
93
AF
2D
23
7A
65
E8
73
70
98
02
2D
39
DE
86
30
B9
1A
9E
08
F3
AF
49
DF
9D
8A
C7
5C
33
23
B5
BD
56
AE
AF
77
D2
3E
F6
41
A3
65
10
3E
3F
59
C5
28
40
EE
47
F0
94
DB
C2
78
23
D7
3F
10
1D
0D
07
10
D4
2A
0F
64
42
EF
59
54
29
DB
AF
45
BB
FF
8C
DC
17
1C
32
A8
62
39
37
E7
06
1A
A3
F3
AC
9D
D9
D8
73
2D
01
A5
0D
0E
92
89
73
B5
C9
DE
63
47
5E
0E
5F
90
FE
21
45
7F
79
8B
E8
65
AB
51
B7
0D
A6
8C
4F
15
EE
0A
0A
6B
C5
CC
46
87
E5
99
4F
4A
E6
59
6D
A8
5B
93
8F
31
DC
0B
DC
BE
27
DE
BE
9D
2A
EC
7A
07
50
FE
0D
DD
6F
11
4E
1A
CF
B7
EC
5B
19
59
B3
7B
40
D5
FF
23
3F
65
85
27
CC
0E
B1
E3
22
40
79
63
A6
89
6F
27
9D
23
01
FF
0B
49
88
14
DC
FF
84
77
54
04
14
EB
B6
28
73
B0
FF
F8
B4
79
D9
42
7B
35
15
80
95
3A
07
64
5C
56
89
9F
B5
D7
2A
8D
00
B6
2A
CB
9C
3A
3C
23
72
E3
CD
4A
95
85
C5
3D
FD
B8
26
0C
64
56
81
11
41
1D
CA
36
EA
25
C0
0A
02
0D
A7
F9
7B
7A
FE
90
53
12
D6
12
D3
03
02
3C
6F
C7
1D
5D
D5
4C
D4
5E
BB
C8
34
D2
68
27
F9
33
E5
87
A0
C4
6D
2F
65
7D
C8
CA
4D
76
55
FA
5F
9C
7C
EC
34
8E
A2
E2
22
98
57
B4
DF
52
F9
9A
AC
F9
24
31
01
AE
35
94
57
98
04
D7
1E
7C
D7
27
4F
B0
F4
8D
2B
21
62
37
BB
2B
42
F3
00
9C
87
31
E9
F6
65
55
B3
80
27
40
E0
83
29
74
D1
A7
5F
71
06
C5
46
56
E4
E2
63
B3
47
A8
B3
14
1A
1C
9D
70
11
6B
FF
E2
75
EE
81
63
F9
AA
FC
AB
A7
78
D8
CB
63
60
73
CC
D9
B7
B2
D0
CF
96
E3
B8
37
28
00
C8
1D
10
C6
10
79
99
E6
92
E5
B2
F1
EC
7F
D7
9B
ED
5C
11
FD
34
7D
AA
35
99
16
B4
22
06
EC
2D
25
9B
BC
8D
C6
B6
11
CD
D4
9C
0F
CC
B9
24
C0
D5
ED
E4
07
80
C8
05
D5
31
A8
7C
31
D8
63
A3
CE
A2
16
A9
3F
C8
8C
00
A6
85
B7
70
AD
B1
AE
82
35
92
73
E5
18
AE
A3
48
1D
00
EF
82
04
7D
D9
6D
72
F1
34
E8
99
58
6A
04
57
82
D2
E0
73
25
34
B1
B8
0F
56
B7
CC
1F
2C
09
B8
E3
E0
C3
1E
2F
B8
0E
A1
ED
E2
15
34
FA
09
31
7B
0E
4C
E8
87
E8
08
58
08
51
4F
00
F4
27
B5
17
2E
BB
29
E9
9C
1C
FB
FC
6F
83
25
1D
3D
97
97
34
E6
CD
FA
6D
F0
0B
D4
82
FA
CF
72
87
99
CE
61
E1
85
C1
39
D6
9A
8D
FD
0B
A5
3E
B3
22
7B
73
92
F1
D1
6B
0B
C3
12
42
BB
EE
96
53
56
B3
B6
26
3C
E3
1D
15
82
1A
AC
EF
D2
16
CD
01
1D
DF
8D
35
12
7C
91
2A
DE
C9
A9
F7
F2
A3
D2
B0
95
63
3E
F3
DB
1D
D4
55
32
9B
EF
D8
E3
20
8A
40
55
81
87
39
50
49
AA
4C
8C
51
1D
CE
08
3C
C7
76
19
E7
72
24
D7
8C
F7
0F
65
20
02
85
94
BD
4D
CF
90
98
7C
67
EC
8D
DF
F0
28
59
7F
F8
F2
18
76
C0
27
05
F2
A5
20
31
CE
E8
33
DD
05
07
B9
68
63
43
94
AE
90
8C
74
CD
AD
FE
45
D4
B2
EB
B7
51
AB
30
97
7B
C9
37
FE
D0
ED
42
D9
61
E0
3F
9A
26
90
CF
17
8F
09
1C
D9
9F
27
EA
F1
FA
8F
8D
AF
42
FB
30
65
27
E2
E5
78
51
81
AA
77
F7
13
7A
68
19
0E
08
17
17
2D
FB
15
CE
36
FB
AF
0F
E1
9F
72
3A
19
86
6C
17
1A
00
DF
F3
4F
04
A5
95
2F
1C
7D
86
05
C6
FE
B5
E8
9C
23
97
B8
9C
A5
31
7E
B2
6D
89
CA
2F
75
78
8B
CD
FA
C0
FD
39
20
A7
74
53
01
1D
0B
C4
17
ED
C4
29
AF
C8
0E
19
5E
8E
4B
BE
E6
B9
41
AA
80
DF
E1
F3
81
DF
E9
62
A3
7C
70
C2
E5
30
6E
1F
77
69
0D
60
21
A1
1C
1B
5D
01
14
A5
4D
1A
20
0F
BF
8B
9C
93
19
59
54
7A
90
17
CC
91
40
D3
3B
8A
3F
F9
D3
F7
5D
11
3E
46
37
81
88
E0
53
0C
11
80
97
A8
78
E3
8B
B4
76
25
72
32
48
25
D3
62
56
6B
F1
51
17
BF
A6
1A
74
A5
50
2D
80
E8
14
D0
0E
44
A0
2F
41
41
47
67
A6
59
9D
F1
90
18
85
9E
C9
10
64
C0
2D
E8
2A
B3
8B
B0
9D
C0
96
05
7F
EA
D3
A0
5D
B1
26
28
89
69
58
81
38
FD
9E
C8
6C
71
62
55
1F
D0
39
4C
62
F6
CB
44
45
E6
C6
B4
1E
CC
63
67
8C
E8
C8
A5
75
35
89
BA
0E
FC
75
44
53
D0
E1
1C
56
A5
AD
39
4E
CB
02
CA
81
49
9E
CC
2A
14
58
30
8F
72
10
E9
78
43
82
B6
56
3D
37
0C
9C
E6
87
78
FB
11
71
C5
5C
54
F0
E4
A6
B5
12
FB
8F
88
75
FD
59
EA
07
18
BE
ED
F1
46
12
32
AB
5D
9C
7F
5A
9A
17
29
85
B8
01
7A
EE
CA
CF
99
5F
08
3A
AF
F3
4B
AA
11
4B
22
A8
F7
64
DA
D8
4A
D9
60
80
AD
1F
59
65
79
75
86
35
EA
8A
86
C4
90
D8
96
47
B8
D8
3B
94
C9
72
33
28
38
EA
37
C3
DC
B9
D1
0F
A0
CF
58
A1
D2
E1
47
81
F1
B9
AA
45
AF
8D
FE
40
6A
5C
22
97
FF
A2
7F
9C
50
0C
40
86
C4
DF
0F
6C
BC
E3
0D
79
72
43
EE
6B
3C
8B
1D
02
0A
69
6E
7A
B4
62
EE
40
03
52
80
3C
FB
0C
8E
41
A4
DF
E6
67
72
80
24
29
AC
02
B8
F8
DE
D8
C2
0C
F0
EB
CD
9D
77
47
1F
27
B5
39
92
ED
68
62
DD
BA
42
30
A9
49
B5
02
10
0F
3B
E0
F0
93
1B
CA
BA
E2
94
54
05
68
65
4F
F0
8A
33
3F
AF
5B
F8
19
EF
BF
0F
C9
C4
52
9F
B9
75
F2
B0
99
65
76
1A
15
DB
8B
FC
E9
F4
3C
F2
5D
07
67
3E
BF
A7
3E
62
98
74
62
D5
62
88
D0
B9
CF
59
98
23
AF
24
99
A2
F2
96
3C
1F
60
74
19
E0
8F
B8
B2
62
E4
03
8C
31
43
1E
27
D8
7D
11
A0
39
A4
FE
CD
5D
F3
3C
F8
33
7D
0B
C3
6B
67
45
41
85
BE
A4
51
DB
6E
2D
BD
AF
31
93
FB
81
0E
5C
33
CD
05
5C
82
91
20
C2
1E
54
CA
56
61
76
94
ED
DE
8F
F9
BB
20
86
64
AB
79
7C
28
01
84
E6
77
8E
34
E2
30
99
65
AC
14
A1
E4
AA
C1
6B
33
94
70
51
BE
F5
01
E9
58
8C
D1
E9
2C
E9
A9
E3
96
ED
07
91
57
3E
2E
A7
8D
51
7C
3C
13
6E
00
BE
31
F3
1F
FF
90
B6
B6
E3
89
B7
12
10
97
29
A2
94
B5
DB
D7
AD
D2
12
4A
32
4F
B3
67
EF
12
27
71
29
59
57
EB
36
C4
61
D9
07
8E
04
E1
D3
DC
C5
DF
53
F2
F9
D9
FE
22
3E
71
EE
EE
CC
35
65
83
51
11
81
6E
56
9F
58
3A
D4
58
49
34
A6
2D
C9
3B
80
72
EB
F9
60
54
6B
31
49
AB
BA
0B
7F
B3
06
1E
37
5A
0D
9E
4F
15
B3
2F
F7
1D
C2
86
0A
1E
B3
3E
12
88
42
31
62
A9
12
60
7D
76
76
4E
E5
4C
F8
4E
9F
2E
BE
60
15
59
D7
17
89
47
F9
18
1C
07
72
8D
D9
22
54
A8
A3
9B
85
76
47
4F
20
94
90
7F
5D
96
5E
57
A5
78
74
63
72
52
BF
F3
AD
25
DB
03
FF
0C
57
EC
D4
B0
B0
C4
DC
08
FA
68
0B
F4
5D
C9
6D
3E
10
C5
79
E3
C5
D3
8A
FF
21
E6
E2
14
88
71
A9
A9
45
EC
23
E8
DB
93
87
68
33
42
62
22
4B
4E
DA
0A
4B
BC
F3
78
31
0C
FF
A3
3E
C3
8A
54
93
5A
2A
A9
11
97
58
AC
DD
A3
85
3A
45
A6
C2
84
22
EB
14
B1
8F
2E
40
38
2F
90
9C
13
29
26
04
23
76
89
7A
B7
12
33
B2
FE
CC
D0
1D
47
B4
3F
D2
B1
C5
67
A6
FB
2F
85
74
7C
57
BB
F0
40
79
41
B9
CF
BE
35
65
F4
09
C6
63
DE
55
EE
65
12
A1
E5
59
43
9D
47
92
38
5E
82
E6
25
7A
40
2C
91
BC
39
50
40
3D
55
7B
D7
0F
8E
58
C9
1C
AB
D7
2F
73
03
AF
C6
AC
AD
37
83
5E
85
50
C9
0C
54
F3
30
A1
97
CA
E8
0B
3A
86
86
95
6D
3E
89
EB
11
FB
0F
57
0A
C2
A5
A8
AE
31
EC
F6
8A
36
41
88
0E
5E
1E
B3
A1
68
9F
F9
68
C9
19
F0
34
CA
19
B6
E5
3E
85
34
3F
60
26
85
B8
FF
75
A2
44
84
83
51
0C
A2
50
71
94
3B
47
A8
EB
E2
50
73
A4
25
23
CC
07
8B
11
E1
76
B4
0E
A4
C0
1B
75
F7
1B
8F
46
74
6B
9A
02
45
B5
E6
1D
A6
F3
30
8A
91
D1
43
36
A4
D0
2F
39
88
71
6E
A2
79
88
38
D0
6B
3A
97
05
AB
4A
82
44
6D
23
53
6E
63
B8
33
14
34
C8
AD
A5
C2
78
01
AF
46
B2
F5
13
C3
BE
CF
6E
B3
30
0E
74
9F
B9
20
60
B3
FC
B8
51
4D
BB
35
F0
03
63
58
F0
4B
FF
75
23
D9
41
3C
C3
26
DE
F3
0F
4E
F2
2C
81
01
63
D7
18
17
B5
A0
03
D2
9C
4D
79
EB
36
30
BF
19
44
1D
B2
0C
DC
35
24
28
D7
41
48
FB
F7
FF
05
D7
82
14
B8
CE
78
01
00
B7
D8
7B
0A
40
81
CD
13
90
FF
55
BA
49
B1
DC
DA
D4
58
CF
8E
46
34
63
08
3C
5A
0A
51
09
8A
BC
E7
5D
1B
B3
AC
3D
9D
A7
93
C9
45
53
08
AA
10
0E
E3
29
9D
E1
90
02
59
68
69
C6
E1
3F
95
40
BC
07
0F
5A
0B
3D
93
1A
3B
19
32
95
88
E5
C8
20
DC
D5
CB
FA
26
A3
74
73
36
82
1D
70
9E
5F
4A
95
79
BF
A9
CF
82
27
8A
CE
53
25
60
A6
39
2C
D7
2C
7E
B1
AC
D0
BE
BB
A0
5D
37
F2
12
69
AE
92
4A
49
62
98
68
63
B5
4B
9F
1D
A0
36
F8
84
0A
B7
9E
1A
8B
98
45
44
D6
A3
40
D9
BF
59
4D
B7
0B
F3
B8
CB
27
0B
DD
8A
ED
53
38
E1
FB
9D
2C
6A
02
70
19
81
9F
8A
83
34
AA
7C
DB
57
DF
D0
8D
43
F3
B0
BE
10
A0
D3
DA
25
DC
0D
B9
DC
60
8C
D6
99
B2
F1
AE
4C
44
3E
31
41
A9
99
06
9B
DE
5D
A5
1C
F4
92
44
FD
FE
BC
6C
0F
48
17
9D
6A
B3
06
86
28
8E
54
E2
E2
08
23
B6
C1
62
D1
87
B6
23
0F
1A
62
1F
CE
DE
6F
06
12
A8
FF
4E
D9
EB
B5
0B
1D
4E
9F
A0
8B
D2
0B
8B
CE
1F
04
DB
E1
88
C6
01
6A
41
65
E8
22
3B
9C
B3
79
B1
69
A8
EF
5B
82
DA
03
CF
D9
DB
8F
AA
A9
86
17
CE
11
CC
0C
5C
E7
9B
96
75
63
E9
B8
D2
38
3F
7E
B5
1E
D4
59
F4
1B
F6
32
7E
5C
1B
F8
DB
C8
09
9B
AA
35
33
7B
37
93
EB
1A
99
D5
30
F8
7C
87
24
CD
AF
3A
1B
BA
5A
F5
89
E5
AD
B8
59
06
A1
46
37
46
19
FD
4A
88
99
14
4D
62
F3
47
C5
3A
CA
F2
8C
B7
79
E3
67
04
84
2D
06
1B
0D
0C
5E
58
71
7B
28
45
E8
6B
E6
09
33
E8
7B
E9
E7
1A
BC
62
D2
DA
1F
01
69
94
E7
4F
41
71
3B
6D
86
41
BA
ED
D0
C3
04
F4
DF
07
32
B8
E3
0D
22
3A
84
C0
BF
7F
9D
AB
C9
57
43
CF
55
4E
C8
43
61
38
D0
C7
A7
4C
3D
7D
59
9D
98
82
64
D0
18
7F
B6
39
71
C8
B9
37
77
28
78
E0
CC
5F
A1
CE
58
81
69
4C
6B
65
04
DC
56
8D
38
2E
CC
C0
BE
92
1B
27
30
A3
95
22
54
DF
A7
43
93
B4
4C
35
4E
DF
E8
51
68
42
6A
8A
37
57
00
A5
B8
B2
E2
3D
42
6C
99
7C
22
5B
D4
A5
86
F7
4F
DC
A3
1A
F5
19
CB
3D
01
CD
79
73
1C
16
06
DC
E5
B9
44
DD
86
EB
0D
86
26
DA
0F
A6
59
43
84
24
09
08
A4
08
5A
67
DB
D3
0E
16
53
6F
07
0B
38
53
7D
8E
F0
82
86
19
C1
B5
7D
A8
48
AD
39
C9
79
E4
40
33
87
45
E0
75
2F
B0
4D
A1
99
64
0B
F4
08
91
BD
C7
26
C6
E1
25
E5
18
7D
87
47
91
AC
9D
F7
9B
04
BF
4F
09
26
48
37
F6
F8
C1
EE
39
FE
C9
29
4D
69
7B
19
59
A0
86
87
75
5C
47
29
DF
5C
81
2A
90
69
46
1B
D6
6F
99
78
9F
59
E4
FA
E4
81
92
C3
E2
90
B1
6D
CF
14
61
D3
1A
1A
D0
86
BC
A1
04
DF
3E
5E
3D
95
49
04
CE
DF
40
65
8F
F8
FD
30
A6
F2
D4
AB
59
B0
AB
DC
1D
48
FE
08
1F
FB
3E
E7
6A
67
1B
AC
1F
20
69
52
F5
FF
12
6D
00
60
AB
2C
FE
B0
97
A5
97
05
FD
5C
01
5C
E2
56
06
B2
0B
53
DC
6B
05
7C
6D
02
30
2B
98
F8
5D
58
83
D9
D6
02
3E
13
47
02
E7
92
5D
06
21
30
0A
07
E2
5B
F7
2C
15
2A
28
4E
57
D7
B5
F5
BE
62
3A
16
64
52
DE
20
06
9C
3F
EB
36
6B
D7
F8
E6
98
E9
5D
FC
B1
52
AA
EC
F9
91
4F
21
78
C6
9F
D6
59
A3
E6
C8
86
A2
67
09
AF
BB
44
B5
52
B6
CF
E4
98
35
8B
45
39
E2
15
55
67
55
4B
1B
E3
DC
C4
2E
FA
93
9C
83
C5
A0
37
E3
EF
6A
05
8A
A4
2F
6F
E0
EB
62
04
60
91
7D
EE
45
1A
3B
FD
2E
FB
03
BA
33
65
B9
33
50
94
75
96
CC
A5
94
9F
31
35
7D
80
AF
17
66
FA
E9
85
C6
11
C3
BD
0D
6B
86
B6
F7
77
38
D9
CB
1F
9F
19
4E
7E
B1
EE
98
83
99
4C
54
A9
D1
85
51
60
80
D0
AD
36
27
EA
55
9A
65
24
2F
7D
43
9E
4A
51
8C
A8
A8
57
A1
46
99
3A
95
56
FB
E6
08
40
11
3A
1E
66
48
AC
2B
4C
F8
A3
AE
52
AE
35
65
59
FD
3C
E9
B3
81
75
6B
C5
D8
AA
BD
AA
71
B8
E2
35
B8
2B
1A
F8
9B
C8
E7
17
A8
62
AA
68
ED
8C
0F
05
99
C9
4A
3D
C8
03
DA
1D
DA
D4
E2
5D
C6
E4
53
31
D0
86
CC
09
1D
79
24
ED
08
E5
BA
35
29
02
28
21
C4
C6
83
50
72
EC
D8
F5
10
FF
6D
DB
9F
72
47
3F
81
88
EA
CB
F4
AC
6D
F3
50
C1
68
01
2E
9E
91
57
05
3A
30
ED
F9
21
F3
BB
BF
24
95
8D
65
AB
4D
4B
09
DD
D8
2E
F8
64
0F
2B
B9
98
83
A2
99
12
56
FD
2C
78
B2
F9
82
B6
2B
3A
5D
2C
19
D4
0E
97
60
1C
A8
1A
9D
55
F1
84
C9
DB
2F
FB
16
15
41
29
E6
FF
64
CA
B1
CD
88
B0
8E
48
B3
4E
CF
60
2A
87
E3
C4
B6
5B
E7
06
E7
37
84
72
68
CE
00
50
0A
29
89
7B
52
9E
71
E5
C0
27
38
6B
F4
01
47
04
BC
3C
5E
21
9D
FD
C9
40
4C
22
7A
E6
E6
77
E4
40
D9
7C
B6
2C
DA
16
9A
E1
24
97
D4
BE
76
A9
C1
ED
EC
6C
39
50
2C
B7
17
41
70
62
2E
E3
02
AE
33
C2
1E
8C
BD
8A
9E
28
45
2B
FF
CF
04
51
D2
FF
F7
05
99
E4
48
BA
A4
37
DE
B5
DE
31
44
3B
5A
1F
2D
6D
2D
CB
B9
58
99
43
CA
8D
18
5C
11
A6
C8
81
A0
5D
69
50
C8
A9
44
B8
E2
54
40
E8
FB
90
99
A8
C4
75
12
E6
CC
3D
91
A9
43
EF
5B
FA
E1
E4
E4
77
EE
05
95
65
EE
10
19
9C
C0
44
E9
22
F1
D0
B7
BC
36
9E
D3
FB
CD
EB
3C
56
66
A7
51
68
99
85
79
1B
FB
E3
20
13
5F
BA
23
9D
01
6B
88
E1
4C
12
E3
33
4B
CC
13
EB
8B
A7
4D
29
09
58
46
69
D4
58
84
71
F2
6B
36
16
52
F5
C0
A7
4A
90
2D
59
B0
9C
34
40
F6
88
1F
C7
E2
AE
C5
61
31
F3
6A
DE
29
0D
52
9B
08
1B
0F
32
5B
F6
7A
87
0F
47
82
C8
68
CF
8E
ED
B3
66
0B
A9
E1
5B
E0
AD
53
DC
52
B3
A1
0C
DC
1B
26
47
70
56
DA
55
F8
49
80
2D
B8
68
C1
0E
E7
9E
F8
25
98
B1
30
FD
37
4B
CC
4D
EB
E2
31
59
ED
15
7D
5F
9B
19
46
24
07
A8
5B
78
7B
22
FE
55
9A
01
44
5B
E6
81
57
19
DD
44
9E
7F
29
DE
88
46
9C
CA
0F
CA
31
C7
60
16
9C
A6
C6
DB
C7
7F
C8
AF
4C
A2
43
3D
A0
09
C6
C6
A4
17
39
5C
47
97
0A
36
8F
C3
B0
FD
72
43
F8
E6
94
6B
66
0A
DB
5E
83
1D
E8
1D
1D
E6
B1
66
0E
83
D4
78
FE
06
D8
71
17
C2
2E
B1
36
95
F9
6D
44
D0
F3
B7
CA
BD
A6
AA
91
36
38
7B
C8
C8
20
83
26
46
81
3C
17
85
3B
E3
3C
1C
E7
85
4B
7B
FA
89
51
46
AE
06
0E
13
29
48
02
C0
B3
CD
22
D2
DB
6E
1D
5F
59
AD
D4
FD
12
DE
B9
40
6A
B3
3D
4D
8F
88
53
71
F8
9E
6B
2A
14
3D
7A
55
54
67
1E
C8
D9
E0
D4
42
98
10
1F
8F
27
A8
77
9B
7E
0F
FD
DC
1D
85
F8
82
22
51
D3
E7
20
78
3D
C7
85
AE
E5
52
4B
54
B6
1D
FF
2E
ED
EB
3C
C9
4E
BC
66
99
A9
1D
D1
3F
43
75
7E
9B
DE
3E
B0
59
F3
63
EC
EC
15
42
9B
8E
F1
A2
EB
A4
37
C8
49
93
44
30
33
99
72
9A
27
F4
DD
68
A3
E5
21
D4
29
6F
AE
CA
F7
4B
16
6C
35
1D
5C
D3
3E
14
C2
60
A7
73
79
14
B9
D7
FC
75
A1
D0
13
DB
E8
2F
87
62
98
55
19
F7
53
09
13
24
F5
9A
E3
74
5A
75
6C
D2
C4
F5
8A
E9
1C
8A
7A
52
A0
1A
B2
3A
7F
F0
20
6D
96
A2
97
4C
72
B8
D3
C5
22
F9
10
18
3C
73
2A
C1
DD
78
FE
8E
16
D6
0E
DB
3B
7E
B2
F0
3F
E9
85
4C
18
21
C7
60
DC
66
A3
EE
E7
8A
54
9D
8E
6C
1A
A0
AB
C1
B3
6D
7E
0F
21
C5
86
A5
4E
25
0B
69
F0
45
D1
7E
8B
AB
FF
5D
6B
43
7A
E7
D6
EC
74
51
A9
67
81
F7
36
4C
EA
81
51
7F
7F
D5
C8
20
A8
B7
0A
02
DA
E1
50
4F
BC
59
0A
0F
0D
1F
9F
73
2D
73
BA
7A
92
48
53
00
4B
73
6B
61
F8
C9
E5
33
5F
6B
1B
38
DB
60
7B
EE
B7
36
7F
E6
8D
8E
9B
68
16
2D
36
24
D8
91
DB
4B
DF
61
8B
9D
11
C3
D0
4C
BF
20
23
B4
7E
B0
4C
BA
5F
54
46
1B
25
9B
EA
CB
BE
7D
C4
A8
86
B9
25
50
FF
EA
78
9B
78
CE
91
CF
AE
21
74
6E
5C
EC
C5
D8
84
36
2F
CA
AF
85
6E
A3
C0
90
BF
6B
94
D2
49
C0
74
B1
3F
EE
65
DA
68
CC
A8
BE
12
30
B7
C5
98
2B
65
B0
F1
64
BF
12
2F
0E
D4
FD
40
22
4C
62
70
0F
3D
98
FA
5D
54
7C
01
24
1B
CE
70
E3
61
9E
FF
0A
63
D9
15
90
5F
38
F3
B0
0C
62
98
37
12
45
4A
0E
C6
AA
42
4D
8A
45
24
81
D4
2E
1D
D4
85
7E
E0
C3
2B
87
67
EA
E6
91
30
D0
52
50
CF
56
FF
61
F0
DF
ED
0D
E0
CF
71
6F
C0
38
C4
30
EB
40
C8
39
3D
0D
F7
7F
6E
0A
87
F8
03
34
4A
F3
D9
68
C7
15
4C
FE
83
93
9E
6B
21
A5
95
BE
43
E5
06
B4
8B
1C
FC
4B
D4
2A
A8
E4
06
BA
4F
F6
69
DF
FF
A1
F5
A7
16
5A
5E
72
71
AF
28
CB
96
9E
CA
81
5A
B4
C2
A8
B2
4A
80
7E
82
A0
8A
B4
70
3F
88
C2
53
B2
C7
FF
C0
4F
E3
05
37
40
78
CE
AF
24
ED
08
AF
01
86
F1
85
55
28
D2
65
12
41
15
13
99
BA
8D
E5
09
6C
1A
0D
39
2E
75
D7
7B
09
44
31
2A
8A
9B
36
95
51
81
2F
D3
81
56
2D
94
74
47
D9
BB
D5
CF
D5
41
46
76
64
12
3E
CC
AD
A6
F3
05
A9
12
12
03
ED
01
B0
75
20
91
DF
EC
1B
A3
29
DB
47
DE
DA
DF
45
55
BC
56
72
55
41
E3
7D
5A
6F
EB
52
F3
05
AF
D2
ED
72
C4
92
8E
D9
23
E1
FA
F6
30
81
7D
E7
68
34
69
18
23
CD
16
9C
C2
C4
7C
BD
C6
8E
C4
AA
13
82
D1
23
76
29
58
B3
6C
88
9A
6F
F7
37
1E
A1
EC
14
CC
30
94
7D
60
E0
14
70
F9
9F
D0
6B
DD
C1
6A
A1
03
6B
FE
95
59
2A
38
70
55
A7
29
C3
B0
E4
AA
DF
A1
D5
BF
3C
81
7E
43
FD
4F
EC
5E
F8
05
A4
EE
0A
65
EE
68
9D
18
3B
60
DC
76
67
1D
80
71
1F
A5
FF
38
0A
D8
38
85
B3
E3
87
06
79
2A
CE
4C
FF
A4
56
9B
DF
5B
97
84
25
D1
EB
C6
0B
A0
B6
5B
DE
E0
B8
6E
57
8D
B9
0C
1A
B2
38
31
8D
E1
A6
5E
53
F0
EC
2D
B0
76
67
D4
F1
52
59
D0
5E
F2
68
BD
AE
0C
84
E3
E6
07
DA
24
E2
45
99
11
FB
80
26
11
EE
6D
D6
4A
EC
09
37
CD
D6
AF
50
4B
1A
06
40
46
7F
D8
B3
30
57
72
26
70
F8
1C
7F
EF
E1
6C
12
63
ED
23
11
30
ED
98
3E
D1
0D
65
9F
39
51
CB
78
D5
B1
0C
F2
33
A6
3C
4D
DC
A3
2A
8E
B8
7E
92
B9
20
5F
20
CF
6C
6C
07
A4
D2
00
B9
F3
D0
52
4C
FB
9A
92
12
2D
14
03
A3
F0
33
75
EA
20
D2
C2
0F
A7
E5
EF
A1
B7
B9
ED
63
C5
B2
9F
70
9D
B7
FB
88
36
EE
BA
4D
B6
30
B0
2A
E1
66
BF
2B
14
E3
7F
26
8C
28
E6
D4
F7
B1
0E
AE
E0
11
4C
C9
E0
51
54
1F
E9
F0
97
31
18
8E
2A
60
27
9A
04
A2
F2
4E
0C
53
3C
30
23
94
28
09
A0
DE
B1
29
B3
F5
88
F2
B3
5F
DD
32
04
FF
7F
6A
FB
70
37
BE
D0
E1
CF
7C
65
CE
AC
0A
F7
CF
B2
82
13
34
5F
18
87
FD
12
8D
10
B8
44
8B
95
D1
C2
AE
70
BE
43
98
0A
B1
F1
C2
7B
1B
0E
AB
4B
AE
6F
0C
5C
28
CE
A8
BA
5D
89
98
18
20
30
6F
09
19
93
CA
75
D4
D6
E4
BE
7A
4A
3D
9F
52
3F
38
89
7A
9F
65
CF
E9
09
81
E2
64
58
14
24
BC
B5
B8
7F
5D
BF
17
9E
6D
C3
85
C0
CF
7F
93
B7
42
2A
1C
34
7D
3C
DE
AD
F5
E2
83
EB
EF
2B
DA
B7
5D
88
8F
27
47
0A
F4
14
36
FC
61
33
7B
AF
4D
2D
CF
C4
67
EB
64
8F
88
72
04
5B
B3
0A
71
4D
B5
76
76
55
4E
3D
17
B5
A4
6F
F7
D4
5B
8F
F1
04
46
16
38
EF
C1
FA
F0
53
4C
16
CA
C6
52
50
EA
2F
5A
C7
1A
BB
E5
16
32
BB
A2
2D
31
67
8A
F4
7B
52
5D
09
B5
99
16
40
BF
A3
5C
45
7F
DF
46
76
AF
22
EF
3E
4C
75
E0
03
A6
25
61
11
EA
83
AF
38
56
98
5F
2D
B7
18
25
DB
B6
A3
25
CC
A4
92
C7
EE
2D
4E
7B
B6
31
16
5B
27
F4
2E
EB
D0
3A
41
6A
F8
8A
2C
ED
60
89
69
E9
C4
7E
86
E1
4F
74
2E
3F
D5
CF
2B
F5
E0
04
81
0A
C0
40
92
90
54
22
74
5B
33
A1
19
30
16
22
A0
BF
D9
B7
54
53
BD
A0
D5
51
7B
17
F7
71
6B
B1
35
ED
4A
66
DD
2E
17
65
2A
A9
30
34
53
F7
B1
15
E5
F0
47
91
B6
E5
14
1E
46
AF
7B
B5
11
EA
A2
6B
89
E1
E6
C0
0E
90
4E
EE
2E
B6
DD
35
67
CC
6C
FE
E0
87
A9
FC
DA
FD
A9
28
1C
55
E0
BD
57
E1
5D
A8
12
43
70
79
AD
9F
B0
E3
BC
87
85
22
8A
DC
A8
D0
84
B7
7E
19
C7
59
E0
10
BF
73
0D
0F
72
28
B1
CF
63
3E
33
B8
86
2B
E4
F0
11
30
BB
0A
E9
90
EF
3F
7E
0E
7E
EB
AC
FD
E7
45
AA
AE
8F
35
A2
7B
CC
C0
E6
00
2A
8B
C6
20
FB
77
4E
29
8C
5A
14
F4
22
64
8F
C6
D4
C1
50
ED
42
66
A6
C8
2F
E9
09
6C
D5
BA
45
19
23
0E
81
38
4C
57
61
B6
6E
6B
FB
68
82
DE
96
34
91
56
83
A9
48
97
F2
78
42
F5
7D
B1
E8
63
A7
63
AB
04
A4
F8
0B
F6
A8
B1
16
98
85
5F
04
2B
0E
BA
05
67
1C
6B
4F
86
18
26
14
77
D7
2C
31
76
41
C5
62
63
9F
33
23
A7
AE
B3
03
87
EE
A1
4E
FB
32
84
90
06
54
06
03
00
C5
F8
1E
0B
48
7A
CD
30
03
81
E9
1D
72
8B
05
44
C9
37
EE
E6
FF
2D
31
0C
D6
2B
B2
8A
F4
90
71
46
AB
85
7E
AE
9A
0F
02
37
AB
B3
55
11
B4
09
00
57
7F
19
FA
34
2B
7F
63
5B
8B
A6
18
63
3D
CF
93
3C
1E
B6
D6
E0
12
69
96
64
85
E6
BF
AA
5B
08
9B
47
14
EA
00
80
66
64
89
48
2C
01
E8
35
9D
7C
4C
9D
39
BD
44
DD
F1
07
C3
54
01
92
84
77
2F
C9
F4
BC
7C
88
85
92
63
8C
F8
87
14
61
6D
39
C8
08
A0
C4
73
7D
F6
3B
96
57
41
8E
BD
3C
38
F6
2D
1A
BA
D1
85
C9
51
35
3A
DD
38
18
80
A7
BE
FF
94
EF
0A
27
23
52
A7
6B
41
BA
CD
13
65
91
15
AA
57
CA
09
19
11
E6
50
5B
4D
B7
50
9C
AF
98
65
9F
E6
19
9E
D0
3C
5D
21
6F
0B
5A
E2
FA
9A
F7
17
A2
B1
02
C6
E0
8A
A5
01
10
AF
90
80
25
58
A7
BE
DD
EA
85
A4
59
75
28
F4
03
3E
B7
DF
1E
A5
85
D7
C0
BD
F7
B5
3C
88
D0
EC
EA
75
5F
77
39
85
C7
58
B1
3E
36
F1
4C
50
8F
68
09
34
F6
D3
BD
92
E6
5E
FB
12
DB
E8
CA
63
CF
2D
17
09
33
84
58
48
AF
D3
A1
A1
2F
01
2B
62
B6
D7
88
8D
D1
62
72
6F
8B
FF
CF
6D
D1
FA
DD
CB
67
45
7B
56
68
EE
33
4B
E1
26
1F
2F
55
34
E4
66
37
A5
47
69
03
E1
9D
F0
0C
BE
4C
83
1B
37
52
6E
50
52
92
74
21
D1
C7
16
F2
9E
5C
B1
D4
67
65
62
7E
83
F0
EC
8F
EF
70
34
06
BE
92
B8
13
D6
90
87
6D
CA
BC
41
4F
1D
6D
3F
E5
FC
FF
10
CD
A7
BF
D0
87
5E
86
8E
F6
33
6B
DD
0A
C2
CB
86
F4
A3
4A
89
5D
F2
9F
FD
0F
24
CA
7B
54
D2
F9
87
A3
42
6C
28
53
12
DC
9B
6C
BC
85
16
30
79
EF
8E
06
74
80
8A
03
C4
C5
A2
B4
4D
70
4F
EB
01
7C
58
C7
A8
D3
20
9B
F4
46
8C
F7
DC
F9
81
90
56
1D
49
F4
8E
61
F2
20
B1
57
31
00
9B
83
69
A8
57
75
C5
0B
2E
0D
A2
9A
27
7D
CC
22
5A
41
B3
29
F4
A3
59
98
7F
25
A2
8A
A6
6A
43
CB
BC
AF
73
94
52
CE
7D
A7
E3
14
D6
AB
30
05
16
B8
4E
83
16
C1
97
54
BB
B6
74
D9
BF
FA
64
6A
41
A1
37
8A
A2
D8
1A
7E
22
EC
96
FA
6F
67
8C
C8
0D
32
4E
C8
7D
D1
1A
64
00
FA
3F
C9
78
6D
64
9D
24
74
05
C2
2F
AB
EA
03
86
91
DE
33
35
2D
4E
54
96
EB
81
4C
64
E2
DD
C4
DE
D6
EE
A4
02
FE
F7
7B
19
8A
CE
F9
29
04
E7
B0
CC
AF
24
42
FD
5F
26
F6
F7
54
9E
16
16
4D
79
6A
52
AB
1A
37
83
04
A1
FE
25
63
BD
D9
A4
94
68
8C
E1
2A
63
17
2D
18
85
CA
C5
57
D1
FE
01
F8
80
44
23
BA
3F
B6
A2
EB
2D
D0
79
D2
BC
19
11
79
F1
E9
67
88
61
69
35
FC
0F
00
9C
1E
94
06
50
9A
CC
5F
B5
0E
58
29
D2
AF
68
66
ED
B7
15
AF
B2
DB
3E
A5
9B
F9
E9
79
C7
23
4F
00
A0
02
1C
6F
E0
F3
22
47
1A
91
81
71
F5
07
86
31
0E
33
B6
0A
F3
19
2B
E3
9A
0E
36
D9
B7
6B
2C
2A
B3
80
21
14
8E
09
66
48
F1
6C
50
7D
5D
32
69
EF
13
F8
39
71
13
7E
6E
57
37
07
1E
34
20
90
9E
66
DB
6B
B4
33
90
DC
A2
46
74
32
1A
03
70
DA
BB
AA
E1
79
06
8B
2E
96
2F
C3
29
9B
68
B3
1B
1D
27
E8
1B
BC
48
E2
B5
93
8B
FB
78
09
C0
F4
32
31
A7
94
1D
12
D0
F0
29
47
AD
4C
86
21
CE
8A
0A
CA
5A
06
C2
E7
55
13
7C
F5
30
79
1E
89
5A
18
37
67
A5
3D
2B
F8
5E
72
EA
23
57
48
EC
AD
9E
08
B5
E8
6A
A9
CF
B4
65
73
87
DB
0F
1F
23
0A
69
CB
28
D9
01
CB
74
AA
E2
FD
1A
E2
B1
08
16
AB
5E
B1
7D
E0
E8
FD
31
FB
6F
AD
56
F9
21
A5
F8
62
23
C6
7C
1E
55
4F
67
F6
C5
DB
2C
75
4D
D4
74
63
4F
AF
65
FF
C8
F6
1B
F4
4B
57
5B
2A
3F
BD
AA
B7
03
1C
35
1F
46
F5
FA
1F
4E
00
0B
C4
78
EE
47
DB
AE
6B
CC
AF
58
06
4D
8D
5D
C1
A7
6C
54
9A
D5
F7
95
6A
27
AC
A0
2D
1A
BA
D0
D4
D4
C7
9D
AD
6E
CF
46
D4
D9
87
49
79
A8
96
6D
9F
F0
7C
56
70
61
34
4C
CF
1C
FD
BD
FE
71
F3
52
C6
A4
40
6B
79
FF
F9
9D
5F
EF
8E
66
5F
B4
A8
88
03
9E
C0
98
7B
BA
0C
C8
00
29
E5
DB
07
AA
82
B4
48
15
35
EA
E7
C5
F4
B8
20
F7
2A
B3
5C
A3
8C
3D
00
13
55
7A
CD
41
9B
A3
B1
9C
F2
67
72
A1
E5
91
03
3A
6F
67
A0
B8
31
1D
D5
D3
A1
72
E1
03
64
0C
F6
13
54
BB
5D
66
7A
0B
99
8C
29
68
08
7D
85
45
F4
56
BD
99
39
D3
3A
18
A1
C1
8A
C1
3B
80
40
B7
D5
96
16
82
5F
B7
9C
32
7E
3E
FE
EC
61
B2
E7
51
6C
97
BD
C2
21
09
A6
43
82
77
DE
8B
BE
E2
DC
34
8C
C9
FA
86
A2
C2
C0
2A
90
5F
35
0D
A4
8F
3E
14
49
CB
E8
61
4F
8D
4B
3E
7D
73
11
D8
07
0A
6C
EB
FF
36
6D
D3
E8
36
78
BD
80
3A
FC
8A
9F
E1
8D
DD
41
CB
24
6D
2B
29
51
7A
C0
D3
13
A5
96
BE
C4
61
12
6C
29
A1
19
6F
7C
14
64
AF
55
F4
B0
F8
63
FA
39
B7
E8
D5
C0
7F
AB
A2
47
EA
18
87
40
C1
75
6A
08
5A
80
17
1F
C8
60
CE
5C
6D
B9
40
36
37
D8
48
8D
78
4C
2C
1C
AA
A5
F3
62
57
55
09
05
62
E7
5E
87
51
60
20
51
8B
DA
BA
CB
D9
FD
36
08
07
8C
5F
E6
3F
09
22
CC
71
49
1B
58
D4
6D
D5
FC
1D
F0
66
2D
E6
78
49
CF
62
66
42
88
B5
39
CF
5B
3B
75
8E
4C
B6
0C
B3
CF
2D
B4
A2
2F
1F
35
2E
02
57
6A
C0
CD
DF
0B
2F
57
5F
12
C1
2D
33
53
0C
33
26
0C
63
2D
06
37
74
B4
57
E4
86
BD
52
82
86
80
76
FC
55
7C
51
3D
E6
82
4C
11
08
39
F8
A5
E6
22
2D
82
2F
98
F0
44
93
95
9C
95
D7
42
3A
5A
58
40
89
D0
5D
30
2F
46
DA
96
B6
05
81
8F
94
42
3A
8A
9E
D9
93
6E
51
32
69
CA
55
45
CA
13
F8
AB
83
1C
BA
16
DB
0D
7B
5F
2A
F5
B0
D7
05
62
B7
B4
0D
3A
96
A4
78
41
E3
4C
C2
BD
24
A4
31
13
52
30
85
4C
67
93
CF
2B
F1
D9
7A
F9
BA
69
CE
32
44
41
4D
B1
1F
6C
AC
D3
D6
50
B5
50
19
37
E9
D4
37
B2
E8
6B
F7
FC
CB
7D
7C
65
1C
16
E2
5C
16
FB
7B
0A
A4
A5
0E
B3
9E
19
7B
37
CF
14
67
39
21
67
54
FD
8E
51
59
3C
3B
E2
DE
B1
BF
FE
FB
6C
1E
E6
71
6C
95
95
24
28
C7
BC
B9
36
F1
C7
76
D4
03
59
43
CC
B2
7F
61
9C
DE
99
CD
EE
F1
8C
63
E5
6D
A1
2A
B1
3D
44
8A
08
21
55
D4
49
8F
C3
9E
84
18
D4
68
CF
96
12
39
CF
46
27
55
5F
A9
F1
DA
5C
F6
7B
7F
EC
73
95
94
71
A8
69
07
EA
AC
C6
1C
EC
68
E9
3E
C8
DA
9C
2F
BD
2C
7C
E1
85
A3
4B
B0
38
5B
C1
2D
6C
C8
1C
4C
E6
C0
00
E5
A6
6F
86
71
A3
FA
FE
06
20
9A
48
D2
FC
E3
76
25
43
93
4A
DF
3D
12
10
AB
D3
50
CF
F2
AB
21
77
6F
33
A4
36
1A
BF
58
0E
11
DD
33
88
74
F0
CB
AC
1B
43
26
EE
B6
31
25
CA
F8
FD
CA
09
90
41
44
54
73
D4
B2
45
E9
B3
C7
4E
10
30
9B
54
69
DC
6A
34
45
8C
94
C1
81
CB
E7
93
7F
57
19
04
6B
F2
B2
7C
E3
53
02
DD
56
C7
3E
B1
26
06
25
8C
75
C3
55
F8
01
F7
06
6E
29
19
88
D5
6E
1A
B3
05
D7
AC
F7
95
51
FE
81
3C
AA
49
B5
62
31
59
56
C4
95
9E
E5
9D
B9
8F
EC
DF
BB
CC
93
B3
9E
AA
5F
0D
74
FC
C6
F4
DB
83
37
0C
C0
A0
D4
67
7E
CE
02
0F
AA
F6
E5
B1
81
7F
35
0E
15
E6
F1
D2
44
4D
7A
4A
AF
A4
56
94
6C
3B
18
46
87
09
88
70
72
23
60
B4
3A
B0
B2
00
26
40
F2
EF
EC
39
BE
F0
44
B6
E7
B8
B6
67
B8
C6
37
D2
61
81
7F
95
E3
99
1A
51
6E
40
B1
54
55
CE
2E
14
45
C8
F5
ED
84
CB
8A
3A
11
6F
63
34
0F
5F
95
A5
18
6D
95
F8
47
49
DC
9B
09
4F
83
26
DA
82
4C
2E
11
DB
73
B5
D2
37
C6
20
C0
E2
44
AE
32
C1
C2
5F
67
F3
DF
AA
EA
14
A9
D1
54
B2
72
1E
CE
EB
5F
74
C0
44
B3
5F
89
75
41
29
69
01
70
62
5C
C6
1F
09
53
0E
E5
5A
19
36
0C
27
F8
FF
52
89
CF
35
02
F4
21
63
C5
57
EF
0C
C8
69
C2
FF
6D
EE
81
EE
10
76
EC
7A
4B
D1
BA
EE
BB
9D
5D
75
64
FD
A5
36
65
93
29
76
9B
48
5E
ED
80
BA
6B
15
F9
1F
C3
33
87
6A
A7
EE
A5
77
99
65
C2
11
21
D7
9B
CD
D9
B9
48
23
19
EB
8B
25
B1
4D
FB
71
89
6D
E1
B1
9F
5C
75
94
B9
76
19
BB
CF
75
77
F1
F7
C8
C1
A6
3A
9D
81
8F
B0
D9
1A
66
AB
ED
BE
B7
02
22
0A
0E
F4
E0
11
CD
6A
6D
4D
65
51
30
78
79
BC
2F
79
4F
63
0F
05
F0
29
98
92
55
71
FA
ED
EF
DD
53
A6
DD
6D
80
CC
CA
49
BC
7E
FA
FE
A1
EC
59
5D
11
0A
B5
4A
5D
D7
02
E7
71
78
87
84
7B
30
2D
88
CF
63
B4
8F
F8
8F
53
E8
FB
C3
9B
F8
F6
CA
BD
E0
AE
7F
9E
75
D9
71
7D
5F
A4
27
AE
CE
87
7F
08
F3
6F
D1
77
C6
D2
3E
C9
9F
2E
22
AE
C1
6D
80
5D
05
E3
B0
E4
2C
8A
C1
9D
3D
34
1E
54
EB
CE
E9
63
D8
FA
86
7F
69
A4
B9
69
B2
CC
80
37
EA
09
C4
99
E5
C3
17
E2
31
88
BB
B0
60
D2
CA
3D
1C
B5
15
A0
92
53
C7
40
32
4A
3E
F5
A5
15
69
7D
A6
F4
31
9B
7C
8D
BA
31
09
78
0E
CD
2D
35
13
D6
2C
8D
33
B7
E6
24
F6
95
C3
D9
24
4C
2A
CD
CA
5C
F3
F6
53
0D
A6
B0
A7
67
F0
42
64
87
10
7F
D9
1F
4A
A1
EA
EC
AB
A0
00
8A
15
29
D6
82
ED
A2
5F
DC
71
61
F4
5B
CB
24
07
8E
43
C8
1A
1B
D0
77
35
96
7E
2E
2B
35
25
BE
05
2C
DA
CE
1B
E4
3C
F1
AE
55
D6
F5
53
9E
FD
54
5D
0F
00
35
7C
A6
E0
20
07
45
A7
9E
9A
A1
DA
75
C1
BF
94
D0
40
5A
DB
50
87
63
94
35
62
DF
86
42
37
08
B6
98
51
75
C0
30
78
E2
3E
DD
4E
74
16
D6
21
FE
3F
DE
CD
15
F1
67
6A
AB
4A
7D
CF
16
A2
53
ED
DC
AE
A5
80
BF
84
B7
65
5E
90
81
8C
F5
A9
2E
FF
3B
8D
20
D0
99
3F
84
27
5B
B9
6B
95
68
35
D1
D6
5A
6A
43
52
FD
5E
F0
C1
0A
F2
F8
F7
1B
C1
AC
76
2D
95
56
9F
B3
57
8E
C1
F7
D4
9D
50
74
C5
5D
3B
FA
1A
C0
E0
A0
2D
A1
34
4B
AC
2E
97
41
1A
86
C8
A7
4A
23
2C
F9
BB
CD
3E
89
43
1C
00
2A
AD
01
A7
29
AF
1F
05
2A
B3
A8
8B
0E
82
3E
6C
B3
D9
44
D3
76
18
68
94
F4
DB
26
60
70
7A
FF
C4
BB
F0
67
2F
83
7A
FC
11
8F
26
C9
0B
F2
73
2E
07
25
95
F5
1E
A9
BB
8A
A2
CE
06
48
98
61
B5
77
54
A0
D4
A6
7F
B6
32
72
BB
D5
1A
EF
AA
B2
94
61
90
C1
72
C1
C6
1E
03
D5
DD
9D
10
24
96
E7
6C
87
4A
00
D4
65
8B
C2
11
05
64
D7
65
6E
49
92
42
15
71
A9
FD
0E
E9
34
D4
F3
77
B8
98
10
C6
5E
31
60
C1
EB
31
0F
A3
D2
6A
57
B7
BE
9A
AF
C8
8C
D7
59
FB
9B
E8
AE
67
9E
F5
EC
BA
80
EA
57
23
79
DB
8E
70
B0
02
31
EA
53
31
42
79
71
9C
E7
B8
CE
4C
C3
CD
7C
DE
39
9D
E5
95
CA
95
45
4A
21
C8
96
B8
96
FA
C8
9E
9D
B1
5B
D5
D0
78
F8
D3
36
0D
6D
79
E2
66
E9
69
89
FB
AE
2C
28
9D
B1
CD
C9
BF
BB
EE
E7
53
AA
86
8A
80
5E
AC
F2
07
66
3B
46
BA
8F
68
16
85
89
21
0E
87
2B
EC
A4
85
46
51
AE
89
30
A3
C2
A8
F7
22
19
6C
DD
D8
4E
92
19
34
38
17
BF
ED
7E
5E
DD
CB
4D
6C
58
DA
E9
36
2E
12
58
6D
76
FA
1E
55
3E
94
83
25
0B
B6
86
D3
75
BE
37
22
29
FA
7C
12
BB
D9
F6
A8
BD
AF
97
8A
52
36
B9
CF
2D
4A
82
DE
1B
BB
18
47
0D
9B
29
E8
09
B4
E2
FD
C9
00
A3
73
A3
1D
DB
D3
F9
15
A3
F2
5D
03
66
8F
69
A1
5C
E8
F6
89
63
02
28
2C
E6
B9
C1
80
87
AA
FA
C9
4B
CF
05
4A
10
06
5A
35
80
B2
2B
EC
BC
B1
6C
4E
F5
52
CA
BA
A3
CD
81
8B
8D
05
B7
F1
C1
FB
56
37
AA
71
01
BE
F1
75
6D
9C
A7
87
76
AC
55
EF
67
68
C8
BF
BE
84
3D
07
A8
48
2A
D0
81
63
69
0D
A2
5E
BD
79
4A
BE
A6
B1
B8
42
82
CF
7D
F2
91
9E
65
F9
9C
6D
BF
01
D3
23
EB
FF
60
A2
BF
23
A9
0C
6E
F9
C7
70
E8
C4
3D
7A
58
9B
3F
ED
D5
43
61
55
5A
D5
C2
59
DA
EB
94
3A
19
6A
20
59
A6
34
34
3C
40
4F
D8
9C
C1
AD
C8
64
B4
39
6B
90
B5
F8
CA
34
9A
07
DC
91
0C
45
0C
0C
72
F5
0E
DF
A3
83
7B
BF
C1
E7
2B
79
5B
10
38
44
34
C0
BA
94
53
76
9F
9C
3D
57
B1
0A
50
0C
A6
F1
30
7C
A6
04
8C
F1
A9
70
70
30
C5
BA
C6
FA
A1
A1
1E
8F
20
29
2B
47
03
AD
03
B3
4E
81
13
D8
17
96
31
C9
48
62
72
17
6D
CA
B4
F1
84
D5
63
D9
45
5B
7B
A6
51
B5
AB
F2
82
38
A5
3F
ED
94
5E
EE
C8
62
BF
12
07
53
2C
02
3E
8A
E9
62
4F
2F
CB
66
29
57
2B
BC
0F
2B
DC
82
9A
D1
62
5D
58
E9
21
BC
00
46
7E
29
00
FE
C6
CC
6D
A6
EB
BD
C2
FD
3E
A6
02
01
84
DD
E6
20
1E
39
10
14
D0
B3
AF
08
6A
6D
1C
32
AD
B5
2E
19
C4
72
3D
EC
56
29
44
74
BE
D1
9A
37
DD
0B
B9
CA
77
8E
86
2A
13
1B
7A
83
15
DD
B5
16
2B
CF
36
23
99
81
FD
FB
6D
91
CA
F7
91
76
01
F4
36
F1
60
91
F0
CA
84
B1
1D
E4
A0
B5
7B
4B
B8
3F
46
38
80
83
53
6F
2A
DD
B9
34
CE
BD
AF
E7
08
B8
E8
1B
34
45
0C
43
F8
31
C0
67
8B
34
8B
1C
8D
4C
30
B1
C0
E3
30
7E
E8
B7
69
37
24
D6
26
29
8E
7E
4B
7A
6B
4A
20
B5
C6
B8
CF
41
F8
6A
7B
EF
65
FE
10
B2
AC
ED
73
76
1C
76
32
E0
0D
DE
31
AF
EC
8E
2B
6F
8E
D2
BA
EC
8A
7D
3A
5B
5D
E3
99
91
8F
EA
CB
46
29
8D
33
3F
CD
AC
1F
1C
4A
2E
D5
9F
FF
29
54
4F
4D
08
7A
55
20
AB
4B
91
92
18
C2
DF
0F
80
23
BC
37
35
C8
6E
0B
A4
AD
EF
7A
6E
F3
2E
F3
6F
86
4C
94
D0
76
F6
48
B7
DB
66
82
C1
53
28
56
79
76
ED
24
A9
EC
34
78
26
FE
45
D4
11
9F
C2
52
4E
8D
81
D7
75
D6
3C
A8
48
08
89
1C
E2
6A
DF
FC
20
86
B5
C7
DA
7A
5F
48
2A
91
BA
84
2C
9A
B0
40
15
A7
7A
0D
90
2D
79
32
28
BA
EB
BD
60
B3
E8
63
29
0E
11
3C
3C
B9
0F
49
EA
D8
68
C7
28
E1
86
64
DD
31
0E
40
90
75
46
41
F3
28
57
CC
84
E2
95
16
BC
67
0D
B2
EB
4C
FE
ED
63
EF
18
5C
1A
7B
6E
52
1D
C4
2D
0B
BA
55
BC
EC
C1
7E
9D
81
1E
04
AB
7A
3A
A7
F3
CF
7C
B7
AE
2E
F4
2E
FA
7F
F7
B4
FD
D4
32
E3
4D
68
E1
FE
F7
BC
E8
F5
E8
18
C0
25
B5
ED
CC
F7
87
46
90
79
FC
14
59
2A
A7
98
53
F1
14
C1
AB
6F
5C
88
87
0E
2C
D6
7A
3A
72
0E
AF
EC
99
35
E5
BF
F1
FA
38
CF
64
59
97
F5
4A
C6
A2
65
B0
B2
E1
77
34
FB
53
EB
C5
DB
4F
06
B7
26
83
85
8A
48
6F
64
91
21
C4
3D
10
02
13
13
5C
8B
D3
1C
D4
7A
EB
66
3B
0D
D9
2E
29
4D
21
C0
DA
AA
BB
E7
AD
AE
8F
E1
4D
B0
07
92
88
AE
23
EA
76
B4
9A
02
E0
75
CB
B7
BC
4B
1F
1C
0A
2E
B9
25
6B
16
BB
1A
11
7C
09
CF
D5
7C
61
EE
C7
B2
1F
7A
DC
79
74
04
58
D4
A2
DA
80
40
A8
97
68
82
0C
E6
AD
81
F0
18
13
0E
E7
A4
D1
46
7D
CD
66
61
05
86
3B
CE
9D
73
4C
F9
7C
94
3A
00
2E
DB
AB
C0
F6
D0
98
68
03
AB
8A
9A
7F
73
6F
EB
7A
F0
14
09
C2
39
4D
05
19
E6
46
92
55
7C
A4
FB
A2
74
14
7B
24
C7
35
A6
1C
31
59
6B
DB
83
E9
97
44
DD
F5
66
A1
CE
9B
9B
2F
59
76
85
F4
C9
6F
67
B1
58
E6
A4
98
AE
B8
F9
7F
FB
C1
5B
DF
4F
38
1A
AB
FA
46
91
7A
99
62
68
D5
FB
41
7C
F3
DB
71
AA
C4
B4
4C
0F
71
1E
66
3C
83
0B
80
D3
A0
E9
C6
A3
65
74
2A
D5
8C
2F
F2
06
74
BC
33
2B
F4
F0
69
85
8F
AB
F5
8B
B1
40
17
30
A5
41
8E
80
57
5D
37
DE
8C
0B
DB
8A
68
01
73
51
85
16
D9
20
FF
53
E5
31
66
61
C1
07
A8
4D
20
12
6D
FD
34
96
EE
11
3B
EC
F5
A7
25
56
08
7B
4B
E4
00
60
2B
F3
66
51
18
96
22
A9
9D
19
9B
E8
9F
3E
A7
1E
14
DF
C5
78
CC
3C
3B
D5
AF
E1
95
A0
16
21
4C
DB
8B
F9
AB
8C
10
E7
75
B6
AC
7C
42
55
E5
48
37
A7
0B
B8
75
A0
2F
23
05
45
DC
A2
6E
30
DC
82
2D
24
E2
8C
0F
EB
0B
AD
D6
F6
CE
0C
A7
33
53
83
01
AD
7F
87
2E
9C
8F
5D
8D
F3
46
E0
11
27
49
7F
A0
7E
3B
F6
67
8A
F0
E5
FF
33
16
8A
98
78
E1
D4
5D
2F
37
7A
BB
1F
1E
70
B0
63
7D
DD
40
3C
D7
4D
96
B1
BA
0A
59
D7
EF
68
39
7B
89
51
CE
CB
84
62
5E
A2
21
3D
B6
E2
9E
25
F4
3D
E2
52
DF
9E
09
45
CF
2D
C7
90
C2
DB
F6
43
E8
95
CD
C2
4F
40
37
BA
EB
9C
70
CC
EA
F8
EB
6E
C4
8A
FF
E6
F3
63
46
57
AB
8C
6C
99
1F
65
0F
B4
C2
91
B1
2D
E7
27
EB
F6
BB
15
BE
40
9C
2B
C3
F3
38
1A
C4
5E
84
DB
2B
2C
80
CC
95
35
82
61
89
1C
C2
D3
DF
58
6A
73
A2
3D
B3
92
3A
54
BC
C5
6E
F5
52
12
46
36
63
F2
4F
48
38
04
B0
78
16
A3
0B
A7
96
72
A2
84
61
D6
6C
15
2A
01
30
37
F3
38
DA
E3
8A
7C
DF
76
21
9C
71
61
E6
C4
77
87
09
FA
A8
E7
C5
E7
66
FA
CF
0D
BE
79
7A
17
A8
8B
80
87
AD
76
A2
BE
8E
CF
F7
53
32
60
2A
4F
65
81
87
C5
43
B1
CB
31
E1
42
4D
DA
0B
EC
F8
1A
4B
35
69
D1
F9
7B
FB
8A
B7
C0
A8
6D
E6
73
A2
14
34
8F
34
53
89
BF
52
05
DF
CE
5E
FC
85
A5
D2
F8
98
CB
EC
64
E7
C2
D1
CD
F4
1B
AC
A2
F2
D5
F2
8F
EE
EB
DB
54
9F
8F
39
B8
4C
4C
F8
EF
0C
7D
E8
85
8B
6B
4D
80
C5
EE
FE
30
8A
4A
F3
CE
3C
6F
DC
3D
86
40
3C
D6
12
DD
20
5B
AD
D3
7A
19
B9
1B
D2
97
6B
4E
28
00
10
EF
BE
F8
BF
19
1B
3A
6A
42
57
79
28
3A
69
9B
84
D0
FD
4C
84
FE
B8
88
84
6F
E3
05
2B
21
D4
C3
4E
38
2C
51
6E
03
C2
76
F8
47
E8
80
8E
51
05
19
2A
11
D2
9E
25
8F
AE
17
88
C6
73
88
EB
81
51
23
92
AF
46
44
3C
C6
4F
00
BC
B9
EA
59
E2
63
4F
FD
9D
DD
AC
D0
81
88
C8
70
E7
90
40
0D
96
1B
53
86
06
B8
E9
6F
D0
64
59
0C
35
B0
19
6C
CB
31
E9
26
75
CE
43
8A
B3
94
CE
32
96
5E
CD
35
4B
67
60
03
CC
05
A6
DB
CA
61
F2
C2
21
D4
6C
E8
E4
4D
E9
C2
03
66
F3
1C
EE
EE
A3
84
9E
22
95
D9
6C
7C
40
A3
B6
59
36
D9
15
A0
D7
9A
C7
C3
FB
5A
00
9F
C4
57
B7
06
17
F2
44
16
D6
88
5D
63
25
B1
19
67
80
9D
E6
8C
16
C5
C9
7E
1A
C7
C6
BF
62
86
72
5B
DB
C8
54
82
46
B4
CC
E5
2D
7E
44
7B
FA
23
F7
19
92
E5
58
AC
0C
47
69
32
C2
3F
50
35
27
76
DC
9D
9D
6D
3E
7F
32
2A
E5
0C
DB
5B
A9
5F
3F
AE
30
28
F3
4D
B2
33
73
84
61
E2
10
57
5C
7F
9D
80
3E
D9
59
EF
95
75
9D
CB
33
87
EA
87
C5
02
E4
7E
20
71
71
86
9B
FC
FD
5D
9A
9B
E8
DC
0B
9B
11
A2
C2
34
BA
FA
E8
1C
5E
12
67
46
B3
DF
A6
5B
E0
FA
13
E2
A2
A8
11
82
20
E7
A3
E0
03
A2
9A
2B
E4
1A
69
F3
2C
00
99
FE
D2
CB
5F
74
6C
1E
6E
4F
15
96
0E
CB
49
D7
81
04
44
33
11
EA
8C
AA
F0
E9
1C
C2
84
00
E1
6A
E5
A1
6E
8D
C7
28
F2
8B
6C
D3
05
C3
C7
97
C9
77
5A
1C
1F
C6
92
B9
D2
5C
4E
D3
EF
1B
DD
68
FA
BB
3A
03
98
67
BB
E4
5C
18
F4
3F
13
82
FB
73
F2
A2
E1
67
6E
06
F1
DE
B9
0A
03
B7
77
C5
D7
D4
0D
72
30
A8
54
E7
6B
BB
99
61
24
5C
FB
58
A6
3B
20
31
AE
E0
EF
40
94
57
B2
2D
44
8F
02
8E
71
38
25
2C
C6
40
6A
DE
58
72
89
3F
85
66
C8
6A
A9
2D
BC
DD
EF
7A
77
93
86
E1
25
FA
47
C9
B8
03
4C
1A
72
26
F3
3E
D0
9E
7A
63
24
73
1C
FC
87
AC
75
ED
42
C2
77
E2
F6
DC
38
8B
7E
39
3B
B8
ED
51
54
33
17
42
10
AE
49
DB
7E
A1
33
9E
BA
68
1D
43
82
93
2D
BF
E9
61
67
E6
8E
85
D1
5D
1E
5E
44
0E
04
0C
11
28
EA
57
0F
CB
5A
EB
97
B8
EB
57
43
B6
58
7F
46
23
C3
DA
76
8C
64
64
15
77
D8
F7
5A
47
27
AC
F1
74
42
27
B1
75
11
A5
69
67
AC
B7
D4
C7
94
97
F4
C0
9D
2A
1C
41
BE
9E
67
8F
EE
71
18
8F
57
F8
B7
45
B4
F4
08
98
5A
C8
60
C2
17
EA
6D
57
99
28
6C
80
93
EC
73
8A
99
32
86
FF
BA
53
58
31
E2
54
DB
9C
A0
61
6E
FC
6B
2A
49
39
21
05
1C
C8
09
9B
C2
90
44
D5
3B
6A
0B
B3
3B
CA
6F
D1
1A
B5
0B
4D
58
B4
6B
E1
9F
51
3D
3C
D8
72
05
F7
17
5F
DF
5B
45
A0
37
34
EB
16
25
14
0F
86
F1
6D
57
0D
64
4D
D1
83
63
18
5F
E5
44
17
A8
E1
C7
0C
41
1A
27
20
D3
7B
A7
AC
FD
20
76
50
1A
C9
D0
A4
BE
D6
BE
D1
EC
FB
5F
AF
15
E1
CF
62
FB
8A
42
25
AE
F5
A5
12
3D
64
6B
DA
E9
D5
71
E9
55
EA
77
50
5D
EA
E6
78
79
AC
2B
B1
43
2C
4B
79
03
C9
23
58
09
AF
CD
55
6C
19
9A
AC
A2
4D
F0
5D
A9
73
45
24
44
11
18
6C
F8
26
F5
6A
37
89
A6
BE
C9
5A
E4
59
D2
8D
9D
67
F3
4F
93
8A
29
92
BD
69
14
EC
19
45
04
AD
63
3B
17
01
C6
0D
44
A2
92
C4
E2
96
B3
B1
A0
C0
4B
B4
56
90
14
A7
57
68
3A
9A
62
11
31
95
66
52
B9
0B
D5
EB
3B
DF
93
CE
0F
E6
E5
92
56
3A
CC
71
7D
43
81
B3
34
A9
9A
19
70
0A
C3
10
C1
6D
60
08
00
F5
10
62
BC
96
45
6D
EB
3F
EB
FE
EB
FA
9E
AE
6F
27
96
87
0C
31
11
8F
A6
FC
70
6F
16
71
06
E2
F1
54
88
81
F1
6F
53
D1
FA
75
DA
95
EB
E0
04
E8
C7
D1
C3
1F
6F
06
50
31
69
36
0D
69
E5
98
DF
D8
1C
46
C8
DF
5F
16
42
38
55
5C
1D
2B
8E
47
AC
5F
3F
8C
C7
CC
BD
F7
2F
3D
BC
43
19
86
61
A0
7F
93
39
84
E6
3A
64
88
49
D0
CB
04
33
56
12
C4
5F
56
02
BC
6E
F5
D9
C2
9D
B0
15
D9
57
7D
E8
07
4F
83
85
5C
9D
CB
2B
83
9A
E7
0B
ED
2D
30
A4
2B
84
C5
0E
DF
DB
6C
D1
66
DD
26
31
FB
EB
C1
4C
0A
81
4C
3E
87
37
C9
4B
96
C7
A6
25
14
75
A0
20
41
97
5C
D1
CB
C6
7A
D5
32
90
3E
8F
D0
C1
54
82
4A
1B
4F
E1
47
8A
FD
9B
03
9A
BF
5E
FA
E1
0F
CD
98
08
72
28
0A
0D
93
45
8E
3F
CA
EB
67
56
40
C8
8A
62
62
83
D5
99
18
74
DA
38
06
E1
0B
C2
25
E6
C2
BA
17
F0
A1
4D
FE
64
57
60
F2
DB
D6
C5
A1
94
FF
06
4C
34
E0
45
87
91
F6
B2
54
5C
04
75
12
59
94
C0
0A
20
2F
F2
BF
0D
ED
8B
C0
E8
28
2C
48
EE
31
8A
2F
70
C8
BD
AB
F3
01
57
F7
6B
BA
50
D4
43
01
86
CF
C5
AA
2C
07
A6
DD
98
21
7C
39
E6
F9
C9
66
94
6B
F8
E2
77
E5
77
76
4F
AE
FE
DF
27
18
67
BE
38
2D
CA
DD
F7
EC
54
F5
E6
C6
B5
F5
68
46
C0
67
56
F1
8A
2C
61
E0
0D
51
D1
95
A4
C8
66
F4
38
1B
09
7E
A4
6B
23
E5
C7
15
F8
95
04
FF
C6
5E
4E
2E
E0
91
3B
78
72
A1
A5
3B
12
9C
1E
8C
8F
5C
4B
7A
A3
DF
3D
9B
A2
EA
A0
5E
C7
54
2F
01
56
FB
5E
60
39
97
03
78
57
A0
34
2B
42
29
57
EE
B7
19
96
8E
78
94
05
A3
EB
59
5A
12
E1
9E
4A
DB
DB
9D
AF
AC
F7
83
1F
29
C0
6B
21
BF
6B
CF
90
E9
25
5C
D8
3C
6E
1D
79
FD
67
30
A8
B8
3B
ED
62
48
85
FD
F8
B9
0F
1C
36
F1
45
31
57
8E
99
A6
8A
4F
BF
5D
B6
95
E2
28
E7
5E
F4
32
38
EA
4B
C0
7D
CA
46
4D
12
EB
72
F5
68
D8
1B
73
BF
EF
96
73
68
88
D4
AF
E2
CC
0B
1B
2F
E8
40
D6
79
DA
B8
D1
35
5C
4F
64
53
64
94
5C
2B
4D
9A
A6
CD
EF
5C
BB
C7
CC
27
F1
74
71
46
A5
69
20
2F
CF
EE
2F
89
5F
BC
AE
D4
CE
56
C8
15
DE
40
33
84
7C
DD
4A
EA
2B
89
F6
73
70
9B
90
3C
DE
BD
49
48
40
F4
DD
B2
A2
F8
E9
AE
E7
E0
39
0E
08
7A
49
32
CC
5E
BC
B5
DF
60
31
6A
82
DE
4D
BC
53
9E
47
6F
CD
07
25
09
79
D9
EF
32
12
93
15
27
67
18
7E
24
F1
37
CD
06
C7
B1
D1
72
30
3E
E4
63
86
06
04
B1
BA
4F
89
94
4C
35
37
6E
14
38
CE
88
57
80
52
71
DB
68
DE
11
D4
EF
4A
19
FE
41
55
D3
C3
5A
4C
83
23
5F
21
7A
AD
2B
8D
A9
8A
7B
74
52
0A
60
0D
21
CA
19
46
6F
9E
4D
79
08
A1
B9
7E
11
C1
32
37
10
19
C3
97
B8
88
F4
5A
71
F0
96
92
85
77
AF
0E
3D
E3
20
82
1B
83
6D
9B
3D
5A
CD
D5
A8
48
6C
AC
C2
EC
A5
9A
12
06
47
E3
74
EE
DA
F6
C5
28
44
62
FC
0E
4E
A0
F0
29
64
A5
46
39
26
72
B6
80
32
F6
A1
03
0D
68
AA
66
45
E6
34
8D
DE
3F
B9
46
51
74
36
AD
D3
71
02
21
5D
A0
D7
5B
FC
5D
CF
01
FC
E3
0B
3C
F2
4A
DA
23
F9
11
A1
D0
E5
67
E6
E4
81
94
C7
3D
48
26
0B
85
11
28
EF
F5
4D
88
CC
9E
46
6B
C4
64
F3
08
8E
9F
9D
EF
AC
74
11
06
A2
18
C5
7E
4A
E6
84
EF
BF
28
5F
A1
D1
25
9D
A4
9B
5D
7F
5F
59
C3
CB
95
93
C1
0C
0F
45
FC
D0
69
75
0F
11
7E
3B
0E
5D
58
D9
C6
B4
45
5B
79
51
6B
B2
36
FC
F6
BB
13
E4
A9
16
5F
E1
57
51
1E
A4
0E
1B
F4
B2
C0
5A
55
46
B7
64
B5
C5
33
2A
16
0E
EA
63
F7
29
26
4B
2F
7D
5B
6E
7D
B3
5E
9F
81
FC
C5
CB
C5
71
BB
AC
6D
E7
C1
7C
7C
66
AB
05
76
5E
3D
0D
5F
AB
91
14
CC
BB
50
2D
93
34
BE
92
62
85
61
CB
52
CB
F6
AF
90
7F
07
EC
B4
A6
81
C7
D3
43
D0
37
6F
BD
79
38
52
74
82
36
D2
D0
F6
91
E2
CD
35
23
8B
FA
62
D5
F0
6A
BF
69
5B
A6
0C
DE
73
7A
48
6A
8A
4C
62
63
58
87
81
6C
1D
CC
D0
4B
73
6B
DD
52
71
67
32
C7
DB
9E
14
B5
5F
2B
36
74
F2
54
1B
2A
3F
13
C6
7D
79
70
12
F1
A4
69
A7
09
45
9C
ED
AD
2A
3D
2B
42
30
F0
21
CF
16
32
7A
43
0F
93
B7
B5
A1
2B
FE
94
90
99
3A
98
AC
69
78
7E
6A
F2
FA
6B
FF
1C
9E
63
8D
39
DC
2D
11
09
2D
D2
B5
4D
3D
58
EC
93
F6
4C
4C
A9
55
6D
4B
B3
21
1F
15
5E
E3
52
A9
C5
67
07
F9
06
AD
A3
8E
2C
78
CA
F7
1E
CB
C1
B8
A1
A1
12
2D
71
19
B2
C3
1C
80
1F
D0
87
95
6D
20
AB
9E
6D
2A
51
08
72
0C
12
46
4E
A6
68
5B
B2
30
DE
2C
5B
F5
5F
5E
6B
EA
3A
D4
8F
3B
DC
18
4B
E3
3C
02
E9
7C
EB
D9
B4
3D
57
05
AD
92
86
38
02
0C
9E
18
57
07
25
F0
2A
42
27
3D
9F
34
0F
AF
C3
98
52
22
A2
2E
9D
18
CF
5E
07
7C
40
A2
BA
93
52
57
F3
E1
A8
C1
3A
28
A0
83
EC
04
7E
91
51
0F
4B
D8
B4
E1
34
E8
33
EC
AD
47
39
45
59
DA
41
64
C0
BE
18
A4
45
60
E6
DD
A2
90
90
52
5D
26
89
6D
79
7F
B9
DC
DD
A1
52
46
7B
21
EF
9F
A7
37
01
50
8A
47
3E
8F
B9
C7
D6
71
F4
F9
F9
9C
7B
E5
8B
18
C4
F5
48
F6
32
6D
74
07
F0
04
96
99
7C
01
69
8F
CF
03
0E
F5
0E
29
1A
6D
23
8F
B1
E6
BB
7D
5C
F9
59
EF
4D
E0
1C
CE
C7
D0
7E
26
DD
30
C5
ED
EC
DC
C6
78
B9
10
B3
78
52
BC
21
B0
39
5B
3B
F5
D8
07
A2
E2
63
7B
1C
E0
B3
15
4A
83
BC
05
E1
F7
78
89
26
F5
5B
36
92
A9
F0
D9
7E
A9
3A
A0
B8
A9
53
15
1B
C4
60
61
2C
B1
2B
B1
5F
56
40
E4
7C
70
31
46
20
7F
11
1C
41
F7
BD
32
6A
AC
C2
5A
2F
FD
1B
76
8A
46
A6
FB
8A
24
DF
6C
FE
BC
FE
31
B9
6C
88
45
E3
80
55
D2
04
DD
D3
87
E0
B6
D4
C7
DC
49
62
03
84
CC
79
32
5B
80
9F
47
C6
C9
AB
9A
26
37
64
5E
4C
F7
3C
68
59
9F
0B
2E
39
AF
9F
4B
E4
41
0C
ED
D4
AB
A3
3C
DE
F9
4C
3E
65
BD
EA
B0
4B
88
52
DC
7C
9E
4E
37
72
AD
A9
97
1B
58
DA
67
02
3E
C1
25
FF
B7
FF
2D
85
2F
D0
62
5F
7A
C6
88
AA
14
9F
FF
A8
A6
DF
A6
F3
C2
D3
EC
D8
18
81
96
EF
22
57
80
11
39
8C
E6
00
E7
51
6F
70
AC
54
B4
54
C2
42
E7
71
23
D0
ED
25
58
83
21
CE
C8
77
85
CA
97
83
51
2C
DF
83
2D
E3
2E
38
8F
BA
C0
5B
F7
FE
09
43
D0
B2
DC
B3
43
35
4F
A1
E5
34
3E
A3
BF
DE
99
DA
91
1C
26
52
27
C4
20
10
E5
0C
0C
3C
B4
70
D2
D5
7D
D8
B2
A0
9D
D6
D9
3E
FE
C4
E9
0B
49
03
3D
14
09
9B
9F
B9
07
D7
D0
1C
2C
36
20
DD
88
3E
B9
6D
62
A2
C8
D7
4F
18
FB
4B
89
23
CA
9B
9C
40
5E
31
BC
E7
5B
6A
1A
A1
A0
54
28
FC
DB
D9
58
87
F6
54
27
8D
5B
E8
31
3E
96
D5
74
DB
9F
AD
AB
DA
FE
AD
9E
EF
63
5D
EB
13
B6
32
48
94
C7
FE
90
77
28
8C
18
DE
EF
C1
90
AE
6C
61
76
50
D4
EF
6C
8A
A2
0A
2E
60
24
49
F6
53
35
18
5C
FF
37
A3
A2
AB
C3
BB
D5
D1
46
A4
3B
49
C0
C3
A6
D3
2A
94
9E
57
00
6B
85
F6
57
86
AE
BB
FA
62
9F
3A
7A
2C
2A
12
1C
20
9D
EF
A5
49
93
63
12
99
B5
74
71
1B
93
A4
EA
DC
43
28
29
C8
37
3B
87
4E
52
BA
5F
77
32
79
E1
02
BE
7E
D9
6C
05
D9
BC
29
93
3B
8F
E1
2B
8B
D1
2C
CE
92
23
BC
2B
8D
59
13
D2
7C
86
C7
5C
BE
9A
11
1B
D7
B0
F0
40
22
6D
E5
C9
EB
75
1C
DC
4F
46
7F
D1
91
C1
14
A9
2C
E3
9F
34
41
7C
A0
C5
03
1D
38
E9
26
17
81
1A
02
38
39
1B
84
FF
73
CA
C4
73
A7
7E
D3
9F
6A
78
C1
FD
9E
83
34
78
33
F2
0E
9A
CD
BF
44
AD
5E
AC
4D
53
50
0E
96
09
12
DC
18
5D
A7
6E
8F
40
48
A4
CD
29
1E
4F
E9
31
41
6A
7A
9A
36
36
A0
D4
F1
40
7C
CD
39
13
B7
70
ED
30
B3
07
8B
78
FD
AF
45
42
63
E8
96
80
DB
AB
7D
E4
07
B7
D7
88
D2
BE
0F
40
9F
74
42
AD
6A
49
A1
DB
05
5E
00
BB
95
D8
EB
57
9D
19
2E
6A
7A
C6
4B
B0
29
4B
A5
E2
6D
AB
6C
B9
09
E5
DF
51
7C
DD
3D
A0
5F
47
82
46
58
F2
DA
06
D1
A9
38
99
AB
99
A4
45
DB
9A
1F
3B
10
D6
92
4D
A9
12
1A
D1
C7
A3
D7
37
A9
2E
F7
79
3B
03
45
E4
C5
10
F4
61
12
F2
AA
00
0D
33
D9
6E
8A
C2
90
E3
DE
A0
EF
7D
DE
13
BF
EF
9C
58
B4
3A
98
37
74
73
7D
C5
B5
F5
69
8A
4F
56
74
9B
D4
1D
E9
DF
C9
63
63
77
BF
C3
A0
6F
EE
84
5E
21
57
C9
6B
26
CD
FF
63
6F
9C
53
4F
42
62
F2
52
45
78
A7
16
7C
08
4C
92
D4
5C
90
41
F3
58
F4
93
CE
0A
54
38
A1
EB
C4
BB
06
29
4D
7F
8A
04
AB
94
BF
2D
96
C9
F9
25
EE
F9
7A
04
9E
BA
BB
92
70
5D
7F
CE
C9
B6
5B
91
CD
FA
32
63
86
04
C2
61
CC
44
5A
E5
B7
B5
45
CC
32
E0
3B
DB
B9
27
32
1C
5C
2F
A3
A0
50
E8
5E
AB
67
9A
FF
73
B5
E7
91
78
4C
0A
DB
90
84
90
C8
32
5F
F2
9E
75
A2
6B
8B
7A
1A
96
FA
06
A3
2D
1C
46
0D
5B
E3
CD
7C
F4
F3
6A
CC
85
EE
E3
5B
DC
F8
CF
51
EF
FF
08
82
37
A9
29
F3
DC
28
8A
69
1F
2C
EC
E7
5F
D9
94
AA
86
46
7C
8B
91
99
C6
09
87
12
D3
7D
DD
CB
92
E3
98
98
C4
9D
74
C4
01
46
96
7C
91
8E
ED
7A
BD
3F
A3
C9
EC
3F
F1
53
31
1C
9E
3F
CF
DE
3E
4D
FB
73
FE
40
AF
1B
14
4D
EB
26
D6
D6
E8
AB
1A
93
E6
8E
58
9D
3D
52
9B
0D
FD
0C
ED
C7
B3
31
23
68
38
ED
58
1D
EB
32
80
28
F9
D8
41
ED
D7
F5
81
E9
6E
15
35
3B
EC
69
07
1C
F9
1A
48
F7
EC
ED
A4
E9
27
66
DF
39
44
62
10
71
D4
91
C1
F0
85
10
D5
6B
26
39
FA
C2
C4
92
C7
36
48
9C
22
C2
77
15
24
49
B4
9E
86
A5
9A
24
69
F0
37
02
3F
BA
27
F0
B6
A1
3B
AE
C1
A5
24
07
20
76
43
9F
6B
6E
DD
8E
90
2E
1E
F0
C8
8E
70
CC
D5
EA
DF
65
5A
36
7D
57
1B
35
C8
0F
49
2C
0C
8F
A3
46
31
7D
20
C3
1E
DB
14
D6
7B
38
6A
AE
40
47
5B
EE
CF
80
7F
F3
3E
A7
96
22
14
4B
64
95
59
F2
9B
0C
1F
0A
8B
59
55
A6
93
B2
9D
BA
E7
AA
FA
14
7D
1D
5C
81
67
DE
FF
A6
48
30
DC
FF
93
E2
FF
E9
7D
5B
FF
86
1B
B2
0B
65
F0
9B
FD
09
7D
90
C6
26
1E
93
C7
82
DC
90
78
83
35
33
FA
A1
A1
DD
EF
F0
56
F9
C6
87
20
8F
82
7F
0E
88
FF
80
C8
22
B6
BE
9E
8B
8E
E8
01
8B
41
85
3E
35
56
8F
21
91
5B
44
7D
C0
1D
93
90
7C
F7
B0
05
1B
EA
47
1A
29
6F
BD
98
6F
4B
EF
C1
81
63
CF
C5
29
D6
89
61
82
B6
0E
4D
88
03
10
EF
73
E4
0B
FD
67
47
54
A2
B5
32
FC
14
75
89
25
D3
8E
42
09
46
65
4B
C0
4A
8E
DE
1D
54
0F
E4
3E
B7
85
1D
AB
7D
69
57
B0
EA
CB
CB
AA
2B
57
11
5A
88
30
DE
0C
77
D2
FB
4C
E6
34
36
6D
10
3F
9D
B3
B0
F7
9A
65
D3
29
9D
55
55
89
13
FB
60
5C
AB
62
9D
45
48
88
94
08
CF
6B
8C
D9
B7
8F
F9
03
40
5B
20
2B
06
99
E8
20
77
88
13
F7
F7
78
56
02
C2
70
C5
8B
B0
6B
37
42
52
1B
DB
7E
04
B2
6D
66
80
00
D2
1E
17
3F
FB
5F
CA
20
91
53
9F
16
F5
FF
71
1C
81
2C
14
2A
A7
96
00
A3
32
E9
A0
B5
FB
E9
14
89
A1
98
B0
F9
BC
21
FC
22
3D
89
11
15
3C
90
99
3F
FA
EF
6C
61
65
4C
1A
EB
27
B6
78
DD
F4
D6
1D
16
D6
02
89
0D
F3
09
6D
51
7F
1A
D4
84
48
E5
C1
87
D2
86
C5
3C
CF
08
FF
83
CE
C8
82
3B
8B
95
52
56
A4
91
0F
FD
1C
60
DF
A3
92
D1
91
F8
08
81
DE
6A
46
3E
8B
D9
DE
44
A8
76
51
E7
BE
4B
0F
DA
FD
B6
46
FE
08
AF
6E
D2
AE
35
FB
D0
2E
59
F4
AA
EB
5E
98
87
1D
52
F3
58
D0
73
63
3D
A9
2B
AA
1E
FA
60
A7
26
30
D1
BB
9B
DE
E4
0C
3D
2C
12
00
79
92
E7
B5
74
52
7A
37
0E
E4
52
1E
09
2C
ED
54
05
2D
65
7D
2D
79
BA
6E
63
80
B0
AB
BE
8F
B8
5A
BF
83
52
ED
1C
50
08
54
B4
2A
44
96
70
AA
44
E8
3B
F8
E8
4A
CF
86
0E
FE
F3
5B
02
74
91
EE
DA
E5
8E
87
F7
FC
2B
09
6A
53
5A
25
F8
3F
A6
79
7A
9F
04
65
2A
FB
19
21
C1
6D
06
63
D8
31
3F
36
B0
AB
D4
04
0F
0C
BB
64
40
85
76
3F
0E
9D
42
8C
B7
27
98
CC
2D
ED
EF
84
02
27
B3
6B
01
E5
A1
53
45
C4
1F
6E
8C
37
47
84
40
31
7A
04
F9
38
73
CB
DA
89
8E
A4
C4
1F
55
DA
A6
74
F7
0F
A6
E2
50
C0
1A
F0
20
8D
C1
1D
8B
A7
4D
4C
B0
2F
E3
73
B5
AB
D6
EC
59
B9
A3
E7
35
BC
CF
98
0E
AB
AA
04
FF
D5
DD
18
C6
A6
39
17
2F
29
FA
7B
1F
8A
04
0B
45
D1
7D
CA
6E
E4
F6
59
AD
84
F6
6E
60
F2
F8
52
A5
5D
40
AE
CB
70
4A
B6
29
68
30
3B
22
23
DD
57
DD
90
C5
DD
C0
75
B5
C3
08
C0
03
F2
C0
CA
96
BD
6D
17
4A
70
33
6A
43
8F
60
44
3D
C1
31
DF
C2
30
BA
A6
05
5D
B4
9D
2E
29
24
ED
FD
C8
B0
E8
B5
94
45
DB
E1
94
05
46
F3
62
B0
69
5B
D1
E3
8D
55
A8
0C
83
70
0D
87
0D
D2
17
EF
FF
F4
74
14
20
27
28
77
A0
53
61
32
90
D3
0E
C6
44
B2
DA
D8
17
8F
E7
76
4C
B6
28
1F
4F
48
69
B8
F2
00
24
C2
37
7F
44
F5
10
7A
DD
24
57
29
83
16
39
47
97
E1
73
E2
DA
63
03
A7
0F
8B
5E
7D
8C
96
D9
11
3D
B9
2F
83
37
30
66
65
C3
96
C4
9B
96
7E
6C
D3
57
96
FE
AE
7E
6D
98
AF
1C
00
4E
8D
50
16
8F
75
37
A2
3D
16
CA
D3
E9
30
C6
F4
0C
3C
7B
1E
E4
C4
5D
1F
E0
8A
49
BA
41
7F
E9
91
3A
25
97
60
44
75
77
89
D6
A1
04
60
15
1C
CB
9C
17
15
61
08
0F
3C
0A
13
4B
2B
DF
E0
AF
73
86
9F
39
9F
95
C0
24
6F
21
29
20
D1
1E
BD
06
48
E4
B8
14
38
14
6F
88
18
5D
86
BC
38
AC
A5
A7
A5
F0
E8
1A
6D
DD
C2
2D
13
C3
F9
1E
56
52
AD
3B
1A
43
8B
40
46
26
58
49
EE
8F
0C
1A
97
AA
11
54
E5
13
DA
BF
68
C1
C1
16
43
CD
3B
1C
99
C3
64
E2
09
AB
36
E6
56
D7
06
E3
32
1E
FE
F8
E6
8B
A8
9F
BB
39
99
2E
D0
7C
20
C4
EF
95
95
35
E2
D1
77
0E
48
F3
88
E5
76
72
5C
0C
47
62
15
48
0B
83
47
FD
D3
83
0E
EC
FA
A4
AC
2B
70
8F
C5
D1
AE
58
8E
D2
F2
BA
B3
28
3D
20
36
02
CF
12
FB
B9
45
A7
D2
90
BC
64
81
E3
B9
A7
58
0E
43
F8
9E
2C
FB
36
C8
DF
B3
2B
95
7D
E4
92
D7
CA
DF
A7
7A
0C
69
EC
B1
04
93
C1
19
68
3E
25
C9
6E
54
C8
F1
83
E5
B3
07
5F
7A
C1
9E
42
DD
91
33
17
51
A7
A9
DE
33
32
15
91
A5
9A
07
63
C2
4E
37
C8
BE
58
E0
C9
0C
F0
0B
98
9E
1C
9B
E0
D1
18
8B
16
AB
D8
B0
15
F5
65
63
D5
96
F0
56
0D
F6
16
24
DE
DD
D0
36
DF
9B
65
15
3C
D8
1C
38
A9
DB
93
D8
5C
6C
F2
ED
87
76
F8
20
12
24
91
46
42
83
A8
35
6A
30
5B
D3
29
E6
F8
34
CC
2D
06
5B
2B
A2
E0
28
0C
3D
2A
69
55
9E
31
9C
9E
EB
63
ED
2A
CB
2D
FD
F1
79
72
7C
26
72
C1
BB
A2
11
E0
9B
6D
53
9B
E9
C8
47
96
6C
71
EF
B5
DD
15
68
20
6D
B7
4E
C2
D8
20
4A
81
E7
CA
E8
A7
55
A0
8B
FD
EB
81
87
6E
B5
E3
E9
B2
54
70
7B
7B
48
5B
8F
27
C4
0C
7B
3D
41
74
52
E1
8F
55
8B
5D
9C
29
CB
65
BA
78
FA
78
03
08
87
B5
4C
4A
FE
7D
65
BE
5C
36
BF
2C
95
5D
AD
0A
3E
D8
CC
80
F1
A2
AC
31
68
28
EA
EF
1F
6B
F6
CB
3E
FE
6A
18
11
3C
F5
45
F2
CA
1B
22
E9
EE
78
AE
06
28
79
BC
E4
FF
82
25
95
B5
91
73
5A
75
6E
9A
D2
DE
7F
72
A0
53
1A
90
79
13
93
D4
81
84
71
66
98
8F
A1
0D
37
00
8B
70
31
7C
E3
B3
3E
62
B3
76
E6
64
D2
76
F6
40
0D
40
B2
E6
F3
C6
CD
23
AF
56
C8
65
31
43
12
71
CD
04
74
B9
22
03
F3
5E
B9
3E
2B
FC
4B
B3
0A
1F
C6
ED
0C
87
A5
24
EC
13
5B
D8
63
EF
0F
1F
AA
E6
5E
C9
67
4B
D8
92
AE
B2
66
60
43
85
AA
69
07
BA
76
69
2B
D5
DD
F8
DE
81
9D
4A
F3
3B
CA
D7
86
0E
9D
1F
EB
E8
79
1E
93
3C
CE
51
58
56
77
AF
9C
F1
72
CF
C8
3C
56
1C
15
02
A9
6A
2C
CB
8C
3A
A0
BA
39
A5
E2
D6
0A
B2
AD
7B
9D
29
3B
F2
40
3B
EB
62
B4
D0
EF
B0
DE
00
2F
2F
0C
0E
C5
1F
60
4C
72
F6
F5
8B
5E
10
34
D8
EE
0C
4A
D1
BE
B0
34
DA
37
B8
3A
AF
18
56
AA
8C
1F
33
FF
F9
DF
26
C7
22
9A
FD
B8
3D
4E
3D
B4
F9
3A
92
78
1F
99
8F
EC
A7
9C
97
7C
FA
AB
6C
37
5D
AB
6A
DF
32
0B
7C
66
57
F9
4C
E9
40
37
DD
58
B5
80
D5
12
87
FA
4B
40
86
E9
87
1A
54
8B
E2
D4
85
58
01
7E
DC
A2
2B
04
D6
1C
0F
42
B7
52
2E
99
F0
ED
AB
E2
38
BF
7B
BD
C1
1B
71
1D
8B
87
6A
76
42
FF
4C
C2
27
C1
05
FF
8F
67
76
57
24
EA
2B
8A
D1
57
7E
F6
35
78
A1
AC
B5
0C
EB
1C
4E
D0
77
F3
87
DD
DD
CA
2A
1B
30
41
12
C9
93
9F
8E
7F
A8
20
50
EA
63
D5
DB
35
69
CE
DF
E8
F6
A4
A9
F4
58
78
25
65
5C
0F
E4
3B
B8
77
18
E5
7A
A2
24
5F
B1
5C
0E
3E
05
38
2C
71
16
49
99
08
15
8E
CB
56
B7
BA
E5
0D
B8
A4
EE
F7
B8
38
73
E1
22
BC
25
DD
A3
31
3A
6A
E4
6A
1F
A6
21
B5
AC
C7
3D
A6
FD
06
31
63
02
2A
EF
F9
87
4B
44
D1
21
D5
F9
D8
89
95
84
46
27
CC
D0
68
01
52
E6
66
45
14
79
BC
38
AC
AE
94
73
E8
A5
F6
BF
93
DC
56
B5
92
C3
1C
78
90
21
87
DC
99
DF
12
A1
22
D6
9B
8F
8D
12
51
7D
60
73
89
C9
63
E9
A6
CD
C4
04
26
17
21
7E
50
9B
C6
B6
F9
B0
FC
21
B8
C4
DF
C7
B6
5C
02
70
E0
2D
B8
A7
B4
E4
62
7C
7E
9F
78
18
C8
1D
D1
DA
10
7F
E0
57
2C
3B
48
5D
04
7A
59
64
99
FB
FA
FE
39
85
85
A8
35
46
A5
72
69
B3
90
07
C3
A9
5F
92
3D
2A
6F
17
C8
AE
9A
61
AB
D8
F7
D8
6A
A7
D1
71
AD
17
A9
7E
7F
25
44
9F
AC
9B
DD
7B
68
0A
33
0C
E6
85
91
11
F2
35
CE
4F
6C
94
C0
F5
C0
12
C8
78
8A
5A
9F
94
69
8E
AE
8D
2D
01
D3
BD
A0
06
B7
79
BC
C4
9F
D9
1B
D9
83
0B
B1
A0
1B
D8
32
FE
E8
20
E1
52
BF
A7
54
9F
E8
B5
0C
CD
1A
CC
95
17
B7
1E
74
D3
89
9A
EE
61
1E
57
37
10
30
37
D3
E3
B0
47
6F
55
69
5C
92
02
1A
A3
70
2F
00
DB
E1
E3
0A
7F
F1
6E
32
59
BD
9E
C8
E1
F0
37
A4
FF
57
EA
64
05
0C
F9
DF
EB
0F
5F
B5
9D
05
EB
A1
80
AE
EE
EE
77
F1
89
2E
5C
A7
4F
6C
80
4A
BD
93
D1
57
84
7D
0A
0B
12
48
9B
B1
EA
23
A8
25
B9
2B
DA
77
17
09
FF
FD
AF
9B
F2
E2
AA
8B
D6
1B
4F
C9
49
DE
88
DF
ED
7F
62
E6
58
5B
09
EC
E6
D0
C3
F2
E8
C9
5A
E7
D5
AA
80
EB
3C
E5
78
F8
DA
BF
EB
E9
A5
3F
D5
98
89
02
B3
35
F4
51
6E
4E
8A
32
4C
4E
4B
10
42
B0
8A
32
4F
60
45
51
E9
F2
68
CC
12
52
16
38
84
57
C1
3B
73
EC
7D
63
6D
C0
7F
C7
06
78
51
BB
D2
C5
5F
70
A5
09
22
F3
2C
73
06
B7
65
9D
14
4E
7A
52
F5
1B
7D
CF
EF
1F
A1
1D
59
BB
5A
65
DB
05
A4
71
14
44
21
DA
9F
C0
6B
FB
0B
FF
31
73
C4
AB
D6
41
0B
69
CE
29
2A
E9
5D
99
EC
5E
FE
DB
4A
2A
D9
97
E0
96
34
98
0C
61
F2
0C
C9
10
BC
AC
2E
4A
6F
41
45
D1
12
15
08
0D
9B
64
B6
76
49
36
51
BA
E1
15
D1
2A
C6
CB
DD
26
DE
A3
5B
46
33
5C
93
F6
EF
F9
E0
85
C7
8E
24
86
D8
AE
53
D9
9B
D1
07
AC
06
7F
FD
B9
18
28
F3
4C
62
B3
28
04
B6
2A
46
A9
55
85
A3
0B
50
50
89
C4
3A
F8
81
59
75
14
0C
0E
49
42
17
64
10
08
AA
98
23
C5
18
C3
AD
98
95
86
56
2F
64
42
76
5C
78
DE
53
92
46
D3
FC
2F
70
31
0A
04
6A
35
C0
1B
64
CF
C3
0D
BA
19
93
BD
ED
36
11
48
3A
85
F4
2B
92
3D
8C
64
D6
24
DC
63
C0
20
AA
42
93
22
C9
43
D8
4F
69
E3
93
4A
5D
77
61
8E
41
31
15
A6
CB
F8
F2
19
8F
AA
BC
4A
CB
06
7D
59
B0
F4
C4
D4
6A
78
ED
BC
93
89
FB
33
6C
F1
1C
ED
6E
B9
CD
9D
BB
25
07
7C
D2
3E
18
F6
47
02
1D
E2
C9
3E
AB
80
95
14
80
E9
27
F4
94
1E
FE
F0
7E
85
19
14
9E
BF
0D
EA
A1
A9
19
E5
9E
2F
20
53
9B
A8
55
C7
A5
80
0B
91
BC
51
E7
7C
EE
B7
78
A3
D3
E2
F7
7C
1B
EE
E1
19
95
C8
51
A6
9E
83
B6
02
76
4C
17
4B
DC
19
5F
63
E7
81
39
FD
21
F8
F9
B0
D1
AB
89
26
54
F5
3A
87
C7
A8
3F
1B
81
CE
40
EB
02
08
53
1C
74
3B
3D
00
03
70
00
EF
FE
E8
4B
D4
0F
4A
B5
67
6A
88
7A
12
7A
3D
56
35
0C
CF
26
20
2B
66
ED
B5
E7
A9
EC
5B
67
F9
D8
AB
08
30
DE
A3
93
CE
1B
0B
19
52
10
83
2C
13
BC
96
90
16
56
06
31
74
A8
4D
5F
9C
F8
47
E8
72
31
3A
01
5D
DC
0C
7E
FF
E1
88
17
B0
D1
98
CD
F8
2E
2F
7B
49
C0
A5
78
B4
68
16
33
9B
9B
BD
50
65
05
90
F2
FA
26
14
DB
77
58
43
12
23
89
D6
38
C0
0D
01
EF
DD
25
27
FB
9D
DD
0D
98
35
2B
C9
C4
D0
EE
F1
87
28
18
B1
D8
CB
C3
83
97
3D
7B
A6
6B
37
6A
21
4E
10
12
B2
5C
55
0A
0B
0C
A0
70
DD
ED
42
2A
7F
A0
02
FB
45
14
54
38
2C
C4
7B
F7
11
06
86
61
5B
8B
A4
13
1E
4D
17
9E
59
33
F2
F6
D6
9F
F5
82
40
E0
8D
8D
94
DA
2C
AF
0E
F9
B7
33
CF
49
21
BF
3D
FD
D4
9E
84
EA
29
FF
C3
0F
30
E1
5A
61
9A
A8
6D
C7
5D
58
F3
AB
9D
2D
58
AF
7D
12
F5
A7
A3
F9
73
29
04
53
54
B3
12
8C
BC
F4
2A
92
8D
BA
33
79
F6
CB
03
73
7A
74
9D
51
C2
5E
46
8B
77
08
48
4B
5E
CB
2B
C2
8B
7E
A2
96
B7
C2
DF
93
5B
85
36
C5
C6
8B
6A
80
56
32
A2
0C
1D
99
7F
FF
CF
51
34
8D
E1
90
02
52
9B
E9
0C
00
D2
74
7C
85
4B
E0
A3
9D
B5
70
6D
71
23
A6
13
8A
8C
4E
33
CA
14
78
07
F0
D3
97
0F
5F
77
A0
8C
95
FA
8A
96
62
66
36
2E
29
FD
2F
2E
EC
88
38
7A
54
A3
74
89
F4
68
79
51
39
0F
53
DA
D3
1D
AE
43
91
21
A6
32
F9
0E
92
D5
AA
92
D9
3B
0A
0C
F0
9A
06
A4
9C
CC
4E
A5
F3
44
16
FF
6C
62
09
75
04
15
4A
78
A4
DA
5A
ED
80
AF
83
9E
FB
BC
EF
3B
48
2F
E3
88
AF
3D
F1
91
B2
5D
03
ED
86
62
06
91
96
B1
BB
5D
1D
27
0A
31
EF
5D
C1
38
B2
BC
4E
8D
51
EA
07
C7
95
F0
36
FD
42
DE
1E
B9
3C
2C
85
65
C2
90
36
B2
7E
2A
9C
57
B3
65
7E
BF
8F
17
A8
10
85
3F
71
AC
78
84
D7
7D
51
8C
97
5A
74
71
63
C4
EC
88
2A
26
D8
F5
CC
0B
7C
8F
8F
40
FC
61
3F
47
3A
71
97
BA
48
A4
4B
A7
BC
0E
BA
50
33
07
9B
CE
5A
D9
6C
9F
85
ED
BE
66
5F
A3
3A
64
F2
23
A2
17
87
CA
3B
10
F8
C5
17
F8
14
ED
14
93
CF
0C
37
B0
86
71
9D
64
B2
F3
E0
F2
EE
33
19
48
FF
D2
87
43
59
78
04
81
CB
D1
4F
44
77
DE
9B
C7
4F
F3
F3
99
49
4B
AA
04
D7
DD
AF
F7
BF
66
B6
BE
D4
AA
53
A3
33
CE
EB
89
8C
78
92
A6
9D
F4
B4
D6
2E
69
4B
72
C1
88
B8
F7
CD
59
6F
9B
E8
B9
44
FD
DE
84
13
25
90
E6
6E
73
66
25
2C
A7
DE
F8
5C
49
58
54
5E
EE
00
A4
62
3B
69
9D
EC
1B
77
19
4A
B0
08
D5
7C
91
AE
6C
B3
EA
E5
38
47
9A
31
9B
76
FF
B3
44
3F
C0
C5
22
D4
69
3B
EB
D9
AA
ED
39
69
81
97
F6
11
7F
05
72
59
68
7D
A8
B7
32
9C
C6
A4
05
74
8F
F3
1D
6E
31
A9
23
17
36
31
EA
45
1A
9D
41
C5
28
05
E0
8B
73
7E
F6
32
7D
6B
AA
C0
37
B4
34
91
0A
BF
67
00
38
31
6F
14
76
3A
C8
12
DD
60
52
0B
DE
F2
4C
76
86
A1
D2
38
4D
02
66
C6
26
10
86
52
2A
AE
48
66
F5
41
AA
F7
8C
7B
CE
79
96
D0
8B
3C
C0
A4
DC
D7
C9
BF
AE
79
99
0E
A2
0E
6C
49
5F
58
55
0A
E2
22
6B
C2
EA
2D
0C
1D
BE
5D
C3
3E
9F
76
C1
D9
7F
13
80
44
63
61
0E
CE
7A
B2
ED
97
E0
C1
A7
57
D3
83
95
D8
2B
87
FC
BB
C7
F6
CD
21
26
A2
41
F0
1B
90
A5
D7
BB
25
68
A3
C6
69
F6
19
21
51
B9
3D
1F
61
19
E2
98
A7
85
A6
3F
54
0F
A7
A1
76
12
F1
21
C8
EC
2E
84
B7
F4
DA
6D
7A
B1
D0
97
97
32
07
10
6D
6A
FA
1D
40
6A
08
5A
74
52
53
61
33
A7
7E
D9
EF
5D
0C
B3
10
96
F7
9F
46
C9
F8
2C
0C
3F
4D
B7
67
24
34
FE
F3
6B
8F
3C
0A
B8
4F
F0
D2
2C
17
9B
2B
0F
35
B3
75
1E
EB
39
4E
5F
C6
84
4A
AF
DE
28
77
FE
0A
D7
19
AF
D9
CE
AA
2A
F8
23
24
CD
FC
43
06
D3
EA
AC
38
7E
53
CF
8B
49
BD
F9
6D
AE
FF
32
A5
AD
F0
29
06
2E
CB
AB
DD
02
60
68
EF
6F
D1
D4
71
AF
E7
40
43
A4
C2
BA
66
1B
ED
8B
98
03
FE
10
2E
2B
78
AD
51
E5
1C
D9
CC
CE
DE
BA
6D
19
2E
9F
89
88
A2
63
88
85
45
78
0E
C2
0B
75
CB
9E
73
6E
87
D2
9D
C9
D1
A0
AD
47
DD
F5
8D
FC
DE
21
D1
6F
DA
3C
21
90
28
3D
5B
C7
06
7A
1D
EB
02
9B
A1
DA
2E
69
F5
E1
A5
47
53
4E
3D
FE
90
F2
4A
CC
CC
7A
BA
91
2C
59
AC
47
E7
C8
92
8A
06
70
13
56
7A
91
F6
61
B5
DD
E3
00
08
5B
18
C1
12
7E
69
E4
AA
C5
D5
CE
40
20
17
4B
85
A3
D8
F5
AB
28
6A
05
CB
B6
D5
3A
76
74
F9
88
E1
63
6C
6F
8E
0E
45
DB
92
B2
9E
24
39
7B
8A
40
0A
7A
03
F7
2E
9C
96
12
C4
F8
8D
49
52
52
F6
60
B5
F2
FF
4B
10
E2
4B
34
73
7B
72
E2
96
47
80
AC
CF
3B
6C
9F
C0
BB
CE
10
C4
FA
16
55
F8
13
45
8D
F9
8C
0B
A2
FE
02
BC
C4
B2
96
BD
39
0B
EF
78
04
C6
83
BA
3A
35
09
16
79
70
42
1A
D7
FE
B5
6B
A5
FC
AB
F5
3A
F8
0E
9D
2C
F0
66
2F
02
D2
EF
28
C9
9D
F6
7E
D5
D1
5D
E4
66
18
F2
BE
F5
7E
A0
02
BF
12
7D
B3
30
F4
9C
17
34
F6
E4
7C
0B
C4
5B
A2
5B
DB
D5
3F
30
99
35
B0
C1
9E
C1
57
24
EC
36
33
D0
1B
69
FD
9E
3C
36
BE
5E
73
07
F3
DF
D7
31
C5
C6
96
3D
BB
7E
8F
51
9D
3F
CD
90
D7
99
59
7D
50
64
BA
46
E9
36
EF
B1
07
7A
16
F9
BD
21
33
13
CF
6C
17
B6
D1
F9
94
48
A1
A5
C1
A6
52
47
AE
64
D6
D8
AE
C8
0A
29
94
DC
5A
C9
E5
FF
C6
09
6D
08
43
A4
13
60
FE
8C
BA
5C
58
90
16
99
6D
E4
38
64
0A
17
E7
92
94
91
5A
64
C0
D4
06
BE
86
8F
1C
0E
E0
B6
F6
6F
24
B8
B7
2C
F2
2B
CD
7A
7C
27
74
89
99
68
EB
2B
EC
47
3B
F6
AB
AD
FC
89
71
22
3B
1C
A7
D1
2D
89
46
5C
10
21
1E
13
A5
EB
04
18
D2
1A
8B
A5
4D
7D
55
F1
BF
E3
34
D6
39
03
B0
0E
05
1B
AA
78
70
21
85
3F
4E
65
AB
A6
CD
A4
DB
B5
26
FD
F7
66
19
DE
48
07
29
CC
C5
D6
3B
FA
9D
F7
C3
86
3B
8B
8A
4D
21
3D
3A
59
9E
B9
98
2B
59
11
A6
CE
CF
DD
E8
C6
73
4C
83
74
0D
1D
6A
61
30
51
96
54
DD
5A
2E
9D
9F
3A
7F
91
2D
FD
E1
A6
24
96
CC
A8
14
FB
DA
C6
77
A8
3C
F9
2E
BF
E3
CE
47
A2
F0
7F
51
3B
8A
0F
9A
46
9B
E5
5E
E2
61
09
D3
D0
E7
F6
8E
A6
31
F7
7F
43
43
1E
3D
F9
E2
96
42
40
24
12
9D
8D
5D
E7
36
0D
98
77
1A
AA
16
29
02
DB
95
55
E0
4E
71
48
C3
FA
85
6F
20
6D
17
36
AF
D9
EB
E3
53
4B
2C
68
AF
5A
6C
6F
E3
C0
80
F2
E6
28
64
A0
6B
A3
F2
60
99
3A
03
7E
E3
E9
F0
36
C5
BA
B2
50
1F
D8
BE
6E
72
CD
37
FF
C9
AA
C3
61
C1
6B
73
56
DA
8F
5F
AA
95
B9
7D
9F
14
23
B3
BD
3E
C0
EB
83
A3
A5
0D
4E
1C
03
35
1D
7A
34
2B
42
8E
00
98
A1
61
33
CA
5D
85
A6
34
B5
82
A9
1C
BA
72
3B
6F
F7
CB
94
06
0D
8A
05
34
5C
F2
DF
49
36
6F
E3
C8
C2
77
E7
68
61
AB
BA
96
0E
C9
E3
D7
77
1E
E0
70
3D
93
93
97
3D
E6
BA
7B
60
60
6C
7E
3C
08
45
D7
0A
75
84
5A
2D
12
2F
5D
9F
BD
5F
56
78
61
CE
8D
9A
94
49
B3
F3
F6
D1
91
25
1B
C5
C7
F1
6C
68
11
B8
BB
39
5A
D5
8A
B4
85
26
55
42
7B
C3
94
2E
3B
69
E5
B2
62
E7
DA
EA
0D
6A
5E
FA
15
ED
A0
F2
FA
02
0B
07
1D
61
51
95
DB
32
0E
4F
A0
D1
9C
43
E5
89
C8
25
0C
34
F7
43
83
57
C7
AA
8C
BE
C1
92
13
E8
23
A4
48
A6
B4
F6
34
2C
54
3E
12
36
8C
81
BD
9F
C1
6B
3B
69
B1
F0
E5
3A
52
57
93
4E
8E
F0
DC
C6
0B
55
1A
D4
6E
87
E9
3F
86
80
7B
EA
EC
E1
9C
48
8B
52
52
CB
48
33
2D
48
74
B7
24
D3
B7
30
54
7A
B5
73
34
14
A8
61
89
05
98
04
6D
D4
DF
8E
2B
5F
4A
9F
9E
5F
F7
CC
91
CA
21
B6
CC
67
0F
0F
D9
65
4C
91
33
AA
46
B3
E9
9B
D2
70
02
84
F8
17
4B
92
53
6F
13
3C
40
C2
EE
75
02
FC
BD
58
52
09
DB
0A
9A
D4
E2
F5
F8
DC
7B
E6
93
C7
6A
AB
17
A8
65
9D
54
E9
09
24
DD
2C
11
F1
E0
6A
AF
E1
0F
61
F3
7B
7F
8B
4C
6D
52
03
1B
0A
DE
52
59
1D
C9
5E
70
1E
14
60
63
19
F1
61
22
B9
9D
C1
9C
52
F1
A4
3A
60
5B
F1
50
C1
F6
5E
D8
1C
5A
90
B5
B1
25
A0
FF
7E
9B
8C
3F
98
7D
F9
7C
8D
56
37
E0
F1
7D
21
25
BF
88
BF
79
FB
1C
0E
12
E2
8E
A4
D2
4A
A0
7E
F4
9A
77
B8
00
2A
C9
7D
67
E6
71
DD
83
2C
FF
3B
07
BE
11
DB
44
C3
10
60
FB
AF
3D
1E
9A
2D
C4
F9
DE
12
BA
16
44
31
41
F7
B5
6E
E7
F3
E1
51
0F
3B
DF
88
F3
ED
90
E6
31
4E
56
A7
CD
C0
34
69
62
88
6D
2C
92
8C
FA
15
75
44
E0
9E
76
30
2E
17
9F
8F
9D
83
0A
8F
CA
F1
4B
60
39
A0
45
25
4F
20
A0
04
0C
04
22
2E
FA
84
50
FA
50
21
D0
7F
D1
B0
05
D1
69
48
70
26
F2
C6
C7
58
95
48
E7
6B
C2
96
C6
46
4D
42
A7
F3
1A
6F
B3
7A
4C
08
F2
B7
7D
EE
33
6F
B6
C6
25
1B
DB
65
87
C3
46
29
5C
D8
7D
BD
43
0E
3D
90
27
73
D5
29
48
42
45
E4
DD
B5
4A
F3
81
3B
4C
E8
98
0E
80
40
4F
F2
B2
6A
34
27
3E
5E
FC
BE
9D
50
75
E6
51
75
EC
21
86
AC
CA
C4
86
57
CA
B3
68
18
99
AD
7A
1A
79
AB
CB
BB
57
A0
88
0B
10
2B
63
37
DE
46
79
33
6D
5E
FB
89
8A
23
A3
E2
40
94
AA
E4
F1
23
95
7F
4C
ED
B8
99
73
B3
0B
C5
74
EF
47
E8
F4
21
6A
28
FB
66
99
8A
7E
3D
8A
2D
0A
AC
97
BE
B5
9A
5E
49
91
41
11
40
71
34
78
6E
2E
B5
CD
8A
F6
73
B0
C9
8F
9A
5E
E5
1E
6B
66
45
08
CB
95
C2
53
40
2B
A8
FA
AB
EE
A9
DA
48
6B
EC
02
54
0F
05
BA
7B
81
85
7A
7E
62
17
D3
FA
89
EE
D9
A5
FF
94
C6
24
2C
27
78
8D
A2
31
FB
67
6C
90
88
54
2D
3E
86
E1
B6
46
4A
ED
76
8C
2E
CB
E7
96
65
D5
97
AE
C4
DD
66
97
5E
55
DD
52
B1
58
65
75
FD
63
40
78
6A
96
7C
BD
96
F7
9C
25
4C
08
E7
3A
8A
78
5F
2B
DF
7D
AF
3B
43
85
E4
D4
AA
7D
C5
E2
2A
DF
E7
19
3A
A7
5B
2C
DC
DC
A6
1D
94
51
35
08
23
C0
B7
59
1E
73
25
9C
D3
D5
38
69
E5
64
49
58
82
F4
C8
9C
1B
B4
B2
B8
89
08
FD
32
23
CD
6D
DB
70
71
DE
E1
A1
AC
32
30
01
C7
B1
DE
B3
C3
8C
0E
0D
E7
6A
AF
65
6F
07
7A
68
B9
1E
0C
66
39
6C
82
ED
85
89
6A
FF
FD
D0
DD
8F
FE
09
01
B9
BA
8A
F9
FB
96
6A
FD
8C
86
B2
72
5F
71
DD
11
B6
82
BD
A4
C1
B7
DC
F7
83
C9
84
88
A1
0C
D6
AD
03
35
F2
98
58
AC
91
41
E8
E2
01
CE
D5
91
3A
40
20
27
44
1F
DC
C4
E2
C2
80
AF
AA
73
F2
33
45
49
E6
BF
9D
4D
B4
E5
22
DE
47
CB
54
AE
1A
B9
6A
78
0A
AC
6E
7A
1D
A3
B9
56
41
87
DF
96
76
07
02
18
42
E7
E3
13
9A
43
39
10
71
DF
49
DE
54
D8
DD
5B
D1
6B
0E
73
BD
5D
D4
D6
03
06
7F
23
3F
34
37
AF
72
E3
64
ED
E7
BF
32
F7
79
CA
51
6A
36
AF
A9
97
0D
BF
AA
F2
8D
26
E5
E1
CD
93
65
B8
BA
BD
5F
8B
FE
7B
13
08
F7
41
6A
AA
55
19
23
BB
62
B6
2A
48
C1
C7
64
17
AC
F5
F2
65
09
9E
C7
B1
DD
D5
D7
84
3D
23
12
7F
46
85
BC
10
E0
2F
35
5F
CB
E1
B5
EE
E5
39
F3
51
06
BC
83
E8
76
3F
DB
37
70
90
38
94
E8
2E
1F
07
9B
E8
6E
A0
65
4B
02
7A
EF
D1
47
7E
82
32
96
16
3A
A6
26
7A
23
84
37
3D
81
DF
16
D5
79
A5
CA
B2
53
A3
40
46
D5
AE
5E
C0
09
B6
55
38
06
CB
B9
83
07
40
19
19
EC
5F
8C
8A
35
FF
E5
66
E1
F9
00
D1
F2
8E
CD
E9
4A
7E
BF
F2
E1
80
03
B6
9B
8A
F6
5A
2E
13
86
34
65
B7
C9
73
F8
E0
55
96
10
F5
D3
35
60
AF
93
61
CF
7A
E0
A5
C3
16
A1
34
DB
84
CE
E3
30
40
94
61
49
A0
A8
CC
15
B7
08
B7
25
C1
F7
3B
26
5D
75
F1
E9
D2
98
42
D1
89
B4
56
DC
3C
C1
FD
38
AC
84
5E
00
7F
5D
F5
1C
29
41
4F
BE
F3
D4
6F
A2
CF
05
58
2D
E3
8E
82
D7
15
34
58
D4
DA
31
16
E7
7E
8D
2A
88
F1
95
12
B5
B0
E5
71
22
50
F8
71
41
19
B0
8D
00
DA
70
90
E7
E2
A9
CB
0A
37
B4
B3
EC
42
F9
92
F4
44
D8
90
32
15
D1
27
14
21
EA
FC
F5
33
5C
2B
28
9A
FD
9C
DD
21
28
7B
81
27
21
F4
74
8C
AA
A7
7B
C6
7F
B1
AF
24
78
52
E8
75
9F
FB
2E
CD
A7
95
8A
B1
29
33
F4
27
15
98
12
89
96
25
5F
14
CF
C9
82
70
95
95
B3
12
BA
4B
62
4B
88
3E
85
02
45
72
4D
11
D7
C8
18
05
C9
3D
B7
1C
FA
3A
29
11
88
35
DA
4F
34
78
ED
7F
F8
60
45
E3
08
2E
12
9A
EB
85
02
E1
FB
86
3D
6F
00
66
83
54
CD
74
FF
79
8B
8D
30
4B
85
6F
C4
48
BA
75
CF
5F
4A
9F
A7
D3
60
34
BB
9C
C1
63
BF
CA
FA
65
D3
54
0A
37
02
C8
B7
1F
CA
E3
CA
2B
7F
11
0B
6E
62
89
84
97
93
C2
AE
CF
2B
A4
61
B6
B5
EA
26
20
06
F8
00
35
CD
9D
68
05
85
80
C4
CB
8B
EA
3C
89
FA
02
DF
BD
80
82
94
D1
37
16
09
DD
C8
43
54
10
E8
3D
64
3B
A8
1E
F4
BB
57
16
BE
CF
67
75
CF
83
E4
1E
D6
BA
6F
2A
C5
4B
F8
8B
86
BC
A2
52
6E
E2
5A
3F
E0
80
D6
B7
37
3B
7A
CB
2C
A8
07
12
55
25
AD
5B
AF
39
44
D8
F5
62
B0
26
E0
39
39
32
37
5A
F9
BB
88
D9
F3
98
C1
CD
DE
35
CC
5B
5C
51
C1
68
18
7E
BE
98
A0
50
41
F8
A3
43
8D
39
C8
30
E6
43
D9
7A
46
18
BE
F5
57
DE
80
B2
66
77
10
40
76
14
69
27
11
BD
8C
DF
6D
E5
7E
81
30
6C
33
B7
C2
0A
AE
01
10
07
DC
D6
3B
22
F5
1E
06
67
93
E6
4B
BB
C0
FB
EB
4D
3A
9A
93
99
A5
D5
C6
58
6F
B3
B6
BC
06
FF
4A
66
72
D0
8A
3E
3D
0D
FB
81
E5
84
EC
35
7D
8D
60
CB
EC
8E
8D
8E
77
20
7E
E3
F2
2E
81
0D
E8
B2
D1
DA
DC
F8
B4
A9
0F
DA
76
A2
78
9A
0B
14
B3
D6
3A
85
B8
2F
2A
00
14
0D
31
56
C2
C0
BC
8F
C2
D6
58
1A
B4
56
37
8C
92
27
19
57
14
9D
37
79
DA
F7
16
06
43
EB
E0
77
A4
B5
65
CC
38
FA
20
FD
91
57
E4
31
A4
B7
F9
8E
87
46
02
D3
5A
26
6D
E0
0D
E3
BA
69
AA
D9
F0
11
A3
BC
79
E9
45
08
D4
81
57
4A
4C
26
C0
3D
65
6B
BE
D2
6A
F1
02
57
70
9E
2C
6B
EE
92
7D
D8
4B
B7
96
83
38
D5
57
66
18
06
EC
BF
36
D8
6A
D9
02
90
9D
31
63
C1
7E
27
48
0B
DD
A8
1B
75
A4
DD
A6
7D
13
50
D4
ED
9E
A6
F7
45
50
A9
82
F6
4D
48
44
55
73
82
C9
93
7C
0D
E0
06
2D
29
93
35
4F
7A
46
AA
0E
BC
D6
9A
A3
E7
14
55
2A
4D
EF
8A
91
AF
F3
EC
69
D6
F5
A9
1D
2E
EB
D7
15
B2
DF
79
2D
28
2B
10
CC
84
64
17
90
B3
D3
51
B6
19
1A
57
87
4D
A6
1F
C3
7E
F6
95
74
32
78
91
25
68
B8
4B
4A
8F
C8
ED
72
3E
86
42
FD
D0
57
57
7E
9C
61
BD
9E
E4
EF
73
46
6D
38
B6
09
B3
3C
85
8D
31
C3
57
23
5D
CF
87
C0
A1
92
CE
D2
4D
42
B8
64
C8
CE
15
FC
80
D6
03
A4
56
B4
47
CA
33
8D
CA
63
0F
A4
7D
31
C5
51
2D
D6
4D
B9
18
4B
59
99
F2
6D
84
5C
AD
24
06
1D
17
0C
33
D8
ED
72
79
FC
5C
4F
BA
64
E0
97
3D
8E
9E
2B
6F
20
BE
65
A7
EB
A3
4A
2C
49
73
A4
AD
0E
BD
40
9C
48
41
2B
8E
F0
A8
84
29
95
0C
4F
F3
1A
F9
32
D9
90
18
BD
18
F6
88
BB
14
FD
0D
00
9C
13
85
97
15
5F
11
E4
ED
DB
B9
0C
A6
AD
01
32
23
43
C3
A3
CB
19
E8
7A
09
9A
74
EE
11
D6
C8
D0
E4
79
73
13
40
8B
58
B4
25
F6
9A
68
8D
2C
AF
8E
EE
53
30
BC
7D
84
C9
58
D3
21
42
10
6D
8C
57
CA
1D
D2
30
E0
0C
AA
5C
68
17
83
DB
AF
CB
67
EE
C5
01
C2
FA
F6
AD
FC
AD
8F
88
82
F3
87
DB
30
3C
21
2A
95
1D
01
A6
03
37
A3
EF
C9
37
56
F3
0B
A1
20
C7
6F
7C
8E
0A
36
3B
25
9B
D7
CE
11
6F
7E
88
D7
2D
0F
28
E4
BA
B9
B8
B5
AB
F9
38
EF
05
A3
38
07
96
E4
4A
07
6C
C0
48
F2
C5
89
79
A9
BD
3B
AF
35
49
D6
07
87
1F
D8
35
E4
F8
9D
C7
59
E4
AE
FF
23
38
4A
83
BB
DB
48
F2
83
25
58
9A
70
43
2B
78
A7
74
64
8A
3F
25
CA
CB
32
AA
B0
9E
A6
DF
B2
B6
3B
64
97
08
7B
44
73
DE
16
13
5B
8D
B4
59
72
DE
AE
94
F9
9D
8C
9E
8B
5E
D3
46
23
85
C5
F5
CB
12
F6
76
EC
8A
24
B1
87
79
45
22
16
75
1E
27
02
82
0D
D8
D1
9C
3E
7B
9C
C6
B5
C1
88
36
97
0E
51
2C
49
CD
E4
E3
8B
2A
F0
22
43
E4
49
50
B1
A9
6F
6C
11
6D
99
58
BE
38
BE
34
F4
65
7A
D7
E5
04
B6
07
F0
C7
A5
E4
88
EF
25
64
D7
F9
EB
25
76
46
07
DB
33
33
97
A1
A1
3F
AB
40
26
00
70
B1
E7
2D
75
23
14
C3
C8
4E
4C
9B
49
04
CE
37
4F
2B
7F
5C
69
52
AD
43
77
40
F0
4B
59
B9
6C
D8
60
59
30
CC
01
73
7D
2E
09
EB
19
83
A1
19
AE
5E
F2
C8
55
73
3E
B2
F4
E7
06
56
41
64
3A
8F
44
06
60
19
95
60
3E
8F
6F
2D
73
4F
BE
E2
AA
47
32
37
C6
BE
7B
46
30
6B
B3
7A
9B
72
EC
26
77
10
9E
23
33
B4
B5
F4
FD
28
9F
2D
25
D4
E5
30
ED
20
CE
3F
75
E2
E5
40
1E
5B
0E
02
76
51
98
23
05
E4
D0
27
D4
D5
16
6E
56
6E
20
92
92
11
29
B2
5C
0A
CC
B0
CE
EA
B0
24
25
C8
6B
11
60
7E
00
D4
D0
7F
CA
14
44
1E
85
94
6F
30
C4
C1
12
58
E2
3A
30
6C
0F
96
87
88
6C
35
79
5C
D2
9B
DC
89
F3
37
D7
07
B2
1C
1B
B1
56
6B
4C
BC
11
F6
FC
00
3D
CC
98
35
DC
5E
DE
C2
0B
84
F3
E1
0C
5A
DC
2F
B5
6C
8E
6B
FC
0D
EF
00
2A
79
0A
4F
58
44
18
CA
77
52
40
B9
83
79
04
17
7D
24
AF
40
8D
20
2A
AF
FB
D8
54
77
7B
E4
C9
17
C0
A6
2B
2C
5B
F9
99
E6
14
BE
68
10
69
9D
EA
93
B4
9E
2E
DA
AA
26
3E
32
F9
3E
45
DD
EB
83
A0
86
EE
FD
1B
5A
1F
A7
D3
7B
87
D3
97
1A
09
BF
F4
05
A1
E4
89
AC
24
07
A0
28
E9
75
B8
2C
37
19
39
10
C8
FD
3F
C3
4B
E2
1E
94
90
AE
2C
81
78
C3
06
71
6F
6E
93
24
F8
16
1D
EF
C9
07
D2
06
DC
DD
DE
C7
8C
4F
BF
0B
34
E1
45
C2
16
6A
95
15
17
07
53
95
4D
4F
D5
B5
FF
AA
DC
9B
11
CA
00
05
A4
5B
DA
87
5B
A8
A7
72
CA
A4
64
26
DB
DD
73
F7
66
F1
90
77
0B
61
43
DD
86
63
21
C3
1E
51
19
E4
98
5D
0E
B5
44
A9
7A
A5
20
7C
A1
1F
8C
E2
7A
83
3E
85
9C
8A
60
5A
9D
7B
E0
D4
2E
02
9F
C5
E5
F2
1F
CF
B0
86
4C
AE
89
99
58
2E
91
44
C6
15
04
6E
B7
9C
C1
E5
2E
E8
96
4E
A1
21
BD
D2
30
77
4F
98
FC
37
DA
F4
91
02
AC
FB
B8
DC
95
B9
C1
44
D8
F5
8D
43
71
56
91
F6
E6
06
F6
95
B9
C7
B8
C7
65
E2
2A
41
E9
83
7D
F8
5D
ED
61
F5
15
36
FE
B0
DC
39
C4
16
0F
47
59
D8
31
97
7E
5E
A9
05
86
4A
41
43
78
8F
BD
FF
F4
D7
28
B3
F7
49
3A
CE
CF
07
D3
6E
0E
7E
66
19
85
CA
5E
4F
9D
96
60
5F
6D
2B
56
B9
DB
DC
0B
5E
65
7F
02
E2
5C
D0
E7
16
CB
A7
CE
9B
5B
3A
B2
1F
7F
B6
DF
62
62
CC
EC
31
CB
E4
D6
4E
61
28
01
E6
CE
5C
19
25
F4
7F
5D
85
DF
3E
16
E7
C2
14
A2
75
3B
B2
9F
42
F6
62
1F
FA
1A
6C
59
64
29
B1
20
9D
84
C5
24
9A
F5
8A
E2
79
E9
9D
97
8D
8E
E1
25
81
E9
E1
E0
A9
B6
DB
44
20
87
45
B2
14
CF
A8
E2
21
84
97
ED
08
D7
E0
B3
7B
AC
DE
DB
BC
F7
A6
E4
FC
CD
DC
B9
F0
E2
DA
4A
A1
E3
93
59
78
72
4B
B5
81
DC
DE
44
2A
EB
4E
B2
82
DB
BA
35
4A
AE
C1
5E
36
FA
07
8E
F1
EE
C4
72
44
D2
46
1D
0F
0A
21
DC
08
19
73
3F
2D
A0
03
A3
09
76
4B
97
6F
9F
20
3B
34
CA
0F
85
EC
5B
78
09
A5
23
E3
80
A6
CD
00
6D
EF
45
D1
78
23
B2
7D
BF
D2
6C
31
6C
AC
EE
BD
7C
AE
1B
42
8E
62
92
D8
47
09
C2
4E
52
9E
17
59
DF
60
6E
C6
26
84
07
71
FC
94
5B
CB
73
A2
DA
C1
78
BF
D5
78
25
6E
13
8B
01
6E
C4
8A
7E
F3
C7
9B
1E
E1
21
98
40
C5
6B
3D
5B
23
17
B0
45
19
67
00
84
12
00
47
F0
39
5F
0C
8B
DB
4C
63
7F
52
0C
74
2D
5B
88
7A
CD
84
32
0D
0A
5F
61
9A
45
8A
16
F2
61
BB
AB
BF
B1
8F
50
94
65
C1
73
7C
70
6F
C7
D1
53
6B
BC
BA
F5
17
0F
5D
01
DE
50
B3
E3
14
42
CC
F4
2D
58
9C
5F
3C
99
B8
5E
AD
35
45
97
A2
10
E2
EB
27
A8
AD
02
52
F4
1B
44
B9
B7
D4
45
80
20
0E
D5
B1
F6
13
42
3A
0D
18
4D
1C
22
4E
EA
53
59
29
E9
3A
06
F3
5A
5A
27
E5
1F
C1
5E
2A
8E
FB
AC
3E
0F
F7
0F
83
1A
3F
5C
12
A2
A6
DB
AF
67
24
E2
E1
F1
3E
15
D5
57
21
5E
77
CC
F7
30
1B
C8
7A
EF
BD
2E
28
E6
1E
51
8B
82
F6
3E
69
C5
D5
61
17
77
B1
CF
65
02
9B
64
C7
59
B0
C6
3A
02
6C
90
AC
31
1C
15
B5
AE
37
FF
34
52
69
84
F8
0D
B6
21
A0
99
A2
B4
70
55
82
91
45
FA
A0
95
69
A4
BB
0E
82
39
16
18
03
6F
CF
FB
AA
29
8C
78
27
7A
F7
E6
09
CC
0F
AA
53
25
46
B2
08
76
3C
B1
18
1F
9E
53
32
80
A6
C0
30
5B
A3
A8
0D
EA
B9
94
75
E9
53
38
6A
E3
CE
CC
93
35
0C
6A
FC
81
E4
4E
09
17
3B
9F
76
16
11
E2
DF
7A
BC
A2
9D
61
75
31
A7
8A
81
0A
4A
03
0C
6D
31
91
98
CA
1F
54
A8
30
9B
5A
D9
3E
85
B7
DB
05
26
90
5E
F8
60
8E
D6
2C
E2
96
F7
45
DC
FD
AC
DA
B6
23
03
79
65
6B
79
43
F5
2F
98
0D
1E
15
AA
A4
B5
D0
6F
07
32
53
EA
9B
C9
FB
B9
E3
03
A1
EC
C0
5B
1F
3F
55
ED
E6
ED
77
8E
46
D1
F2
42
CB
0E
4F
43
94
5E
0E
1A
2D
92
FD
5E
B4
E8
89
D1
16
9F
E8
75
42
0D
58
B9
FB
34
4D
AA
41
9E
31
5F
5C
F1
8E
6C
34
B9
11
40
09
97
CF
F9
E4
70
1D
7B
B7
D8
F9
26
54
BD
B4
63
6C
06
AE
2C
A2
6C
76
65
88
26
FB
8B
40
1F
0A
C2
8D
3E
44
88
CE
00
CE
6C
6D
AC
C8
8C
90
48
FF
31
B9
7C
69
0D
EF
65
70
0A
DB
3C
C8
39
B9
7C
D5
81
E6
65
D7
85
9D
E6
E8
56
0F
31
03
10
AF
81
F9
4D
E1
5D
D7
AE
21
1B
1A
83
71
36
25
3B
90
D1
83
D3
62
3E
89
01
EB
7C
8C
08
54
22
52
12
F9
91
E6
18
94
27
8F
C3
8D
47
40
27
29
88
F7
AA
EF
E2
AF
1D
01
2D
0A
57
2D
0D
31
83
F0
8B
22
D9
29
1B
8E
AF
AE
B0
3A
A0
BF
08
E4
5F
8D
99
FA
22
BE
6A
6C
A5
A1
85
7D
E9
71
26
0C
B4
F5
70
59
B6
E9
B2
1A
C4
25
57
EB
05
B2
F6
5F
D9
D3
69
32
B1
9A
38
49
B2
BF
2D
51
D0
D9
ED
DE
CE
75
64
5C
D8
E8
EB
A1
35
7E
39
E4
71
3A
11
07
0F
73
49
9B
3D
1D
28
16
8F
E7
8D
41
B1
4E
3E
A5
11
D7
3F
CC
84
2B
C1
06
65
98
63
2A
1D
28
17
AE
F5
89
81
44
F2
F2
9E
48
63
64
99
B2
98
1D
14
50
1B
14
A3
DF
7E
D0
49
2E
79
D6
E8
07
3D
AF
BD
EF
01
93
99
1B
BE
88
79
D6
CC
EB
23
61
99
FD
82
0B
C3
16
99
7A
25
46
90
21
B7
60
C0
4B
AD
BA
13
F2
F8
FC
5F
EB
95
37
9F
E1
D4
65
1F
76
2A
CD
DF
1C
F8
82
50
96
BD
A3
FF
3F
AD
01
22
E6
63
90
B2
E7
DC
A7
21
1D
7E
E7
31
69
58
03
17
47
FF
7E
89
AF
A8
01
4C
40
F7
EB
97
E1
B8
4B
07
97
67
98
3B
0D
DF
8D
65
DE
FC
0E
EE
18
D2
93
A6
C4
BE
80
5D
4F
32
D7
DE
A7
05
9B
E7
09
3D
30
92
1B
83
9C
2B
71
95
F0
67
FB
23
AD
75
E9
24
BE
CE
E3
77
71
CB
0D
0B
C4
A9
39
A2
CD
89
4A
51
D1
77
E5
01
73
B1
50
37
43
4D
72
E2
58
4B
17
CA
9F
C9
22
9D
BE
97
8A
D8
29
3E
D8
89
4A
93
37
3F
8F
D1
D4
ED
32
28
3E
86
0F
14
14
8F
D7
07
90
9F
F2
9C
46
7D
8A
A7
2D
CA
82
DA
FF
F8
B0
3E
02
BD
2C
D0
F4
68
E7
6C
D0
9B
6F
3C
5F
51
D2
C0
05
6B
56
77
10
65
F5
12
36
C3
DC
8E
41
5A
5C
BE
E2
EC
F0
CA
20
E3
E1
19
0F
8F
B1
EF
56
07
2A
94
41
67
92
BA
40
9A
12
F6
45
48
5D
23
EC
F1
9B
D0
E4
F9
8D
42
9B
79
93
BC
11
7C
AC
63
5E
CE
FA
63
97
6F
0A
00
E3
97
D2
90
9B
FD
F4
81
5C
E5
B1
BF
B0
21
02
A0
B2
63
8E
EA
87
10
5A
09
57
BF
0F
A3
7D
3A
24
0E
8D
F6
B5
80
4E
35
1A
04
2A
B5
3E
E3
77
E7
91
C0
75
47
95
65
0F
C8
4E
8A
4A
E1
97
7B
2B
80
02
AD
5E
6D
8F
27
F7
68
1A
1C
23
2F
CB
25
BF
10
E1
F6
74
05
84
63
02
B4
17
94
E4
71
3B
53
25
5D
58
7C
09
74
1D
7D
3B
64
02
A8
BC
74
38
8A
CD
99
E3
1D
99
9F
62
98
E1
EC
DA
9D
BC
A4
1A
04
E0
B2
E2
64
85
FE
94
66
F5
D3
46
FD
1B
35
42
21
28
0A
48
D1
B0
C9
F1
4D
BE
41
4B
F6
0A
E6
21
1C
95
D9
E3
6D
F0
51
98
18
1B
1A
B0
5B
EA
A5
52
1E
19
49
35
D0
F2
9F
F9
24
85
E6
C2
98
8A
05
E8
F9
84
65
03
0E
3E
22
03
30
C9
D6
0C
E9
D5
93
CF
7A
2D
26
E2
59
77
15
79
CD
95
31
85
BD
E2
1E
56
57
4A
FA
0D
66
BA
58
4E
C9
2C
E3
DE
EC
8A
41
F3
9E
8E
4E
31
A9
CB
DE
75
6C
6E
A7
92
D4
D2
7D
2E
F6
BA
10
11
5A
6B
93
E2
48
80
87
F9
10
77
28
F5
68
5E
C8
00
44
F4
E4
4F
CF
FE
B3
73
0B
31
B7
76
F5
41
65
C6
EB
A8
AC
66
51
9E
90
95
F1
72
C7
13
20
CB
36
82
61
9E
3A
77
D8
9E
4F
4E
9B
29
F9
84
F4
15
F2
A8
3D
A6
EC
2A
F9
C2
92
D1
84
4B
A7
C5
4D
F2
DE
22
98
ED
51
B9
81
DC
4E
43
7C
65
E6
8B
A4
F5
8B
76
23
2D
74
6B
C7
C2
FA
BF
ED
46
15
C4
F9
68
A9
47
0F
7B
D0
78
42
F2
7E
D4
63
E8
A4
7E
CB
F4
F1
28
A6
4A
C6
B6
7A
A3
FF
84
36
D3
E4
B4
8F
05
C7
EB
98
63
95
DF
96
3E
C0
DC
49
E8
87
95
49
9E
49
6C
9A
27
59
12
C5
08
DD
7B
FF
7E
31
75
63
FC
8A
C0
DC
CA
99
F1
CA
26
E2
4D
88
0F
05
40
61
7D
4F
4D
7B
7F
79
19
34
F3
13
BA
16
88
9F
98
DC
7E
25
50
B6
3E
AB
F6
8D
90
DB
42
6B
CC
52
0B
A8
A0
41
F9
D8
EA
83
12
2B
CA
63
0F
24
CF
57
21
EB
B8
31
6D
6B
C2
44
DE
84
F5
B4
12
C8
D1
B2
69
F0
E3
FE
85
5E
2C
55
F4
68
EF
07
38
D4
9F
AF
FA
05
58
A9
89
8F
FC
28
F6
4B
2C
94
05
3B
19
87
48
60
87
65
42
87
75
BB
85
50
B9
6B
56
E6
E8
41
94
6A
9D
7E
12
DD
77
9D
F0
19
6E
E5
42
0E
CF
C9
FE
D8
D1
F3
9D
0A
4D
AE
80
C6
A2
75
70
AF
30
C7
C2
54
FA
6A
F3
A8
80
A7
D7
66
D1
5C
C4
24
4D
E7
4E
3D
74
62
4D
3A
40
F6
CC
EB
96
C3
5D
54
9B
A5
0B
49
83
30
9D
E8
14
C3
AC
C9
38
51
E0
BE
BC
B5
E6
92
75
F4
DA
68
1B
BF
5F
82
39
25
2E
48
52
FA
8B
D3
45
65
75
41
83
F0
CB
32
B8
AD
DD
23
97
7A
E7
9A
05
19
48
1E
79
6B
3C
17
EF
10
B4
DB
76
AC
02
41
53
3F
F1
B8
CB
FA
C4
FA
89
8F
E7
CF
04
1E
3C
7C
EB
04
20
8A
AA
04
22
81
AE
45
05
2D
81
9E
5A
CD
10
9B
2A
10
28
40
C5
04
C7
36
CF
90
3C
88
9C
D8
FA
4C
3F
76
CF
29
4E
80
7F
FA
C0
F6
EC
94
DD
3A
96
2D
FB
B2
A2
D5
23
2F
49
1C
D6
31
AE
6E
39
CB
BD
F0
56
E3
7F
81
7A
8B
59
0E
32
02
0D
5E
2F
6E
AC
25
F4
FE
5A
75
D1
96
6B
F2
02
B9
98
AB
8D
0D
E6
FA
78
63
6A
CB
D8
D7
5A
D5
41
49
72
D8
05
74
9F
C8
DC
CB
8C
57
23
ED
91
57
D4
E8
F8
20
B9
E3
74
EE
E6
BF
A8
36
1D
4F
E0
2E
F2
4E
A1
84
16
EB
DD
30
40
E5
04
63
2C
59
89
A8
84
87
7E
58
05
32
6F
C8
58
18
2D
36
BE
1F
4D
55
4C
25
6B
C0
66
3A
82
EF
75
2D
65
42
FB
D1
BD
05
AB
4F
51
CD
27
31
CD
62
86
43
A5
50
8C
BB
BB
83
DC
38
8D
46
FD
C1
A4
D2
B7
E2
FA
79
54
2D
71
C2
CA
6D
43
6B
86
49
25
FF
90
82
F8
29
BF
94
1E
05
F9
DE
1F
B4
56
E5
15
44
F0
07
06
9B
D3
E3
F7
82
96
25
FF
96
71
FD
52
0B
DA
58
FC
38
2A
88
C6
DA
71
E9
78
92
73
82
6E
C0
5E
EA
DC
E8
35
39
A5
21
8C
6B
D8
E0
43
64
04
4A
FC
50
25
AB
80
4F
86
64
88
FA
61
57
EE
21
A1
B2
5B
A2
BA
5D
C2
82
FB
1B
41
0E
77
A0
B9
13
3A
41
1C
01
03
1C
E7
AC
31
51
F4
AC
34
57
FF
E5
40
6A
E5
E4
1A
5C
C8
C2
02
67
E6
D0
3F
4A
13
19
76
5B
40
7A
ED
0D
BA
37
D4
A9
A4
2B
B7
F8
CD
0E
5A
90
51
E6
CD
0B
C2
0C
46
50
8E
40
71
FD
B9
0D
45
39
F6
F8
23
CE
7A
2E
C8
5F
E4
88
75
9C
9D
EE
B4
D2
8F
25
43
A0
12
B4
EF
1E
D5
87
7B
D1
07
1E
0A
8A
08
6B
DF
9C
A8
27
F8
58
A4
65
E4
13
D4
6F
DA
2A
E2
C0
5D
05
2C
ED
FB
D8
DC
98
40
5C
7E
57
8A
D3
9C
83
A0
97
B6
B5
75
A6
1F
F4
F4
73
47
46
39
31
98
63
AE
F8
D8
90
5B
71
12
CB
58
0E
21
4F
AA
0B
43
E8
05
EF
E2
4F
C9
7F
71
B6
52
41
47
58
3B
A0
DC
09
38
7B
C9
59
DF
68
6A
6F
2F
C2
A2
F7
37
BA
E5
A3
77
09
4E
48
5F
99
9D
90
B5
32
64
B2
B6
72
00
8B
0A
5A
00
3C
5C
A2
A4
2C
27
DF
BA
9A
62
80
7B
E1
45
4B
DD
91
5E
9C
40
7D
B1
DE
EF
06
B1
E2
8E
8B
B1
FC
7F
F7
F7
B5
1A
0C
B9
04
21
9A
9B
89
89
97
65
79
C9
CA
1E
7E
41
8D
CF
9F
93
CA
F4
15
3C
F8
C9
96
86
ED
D8
12
67
13
71
6E
44
32
A3
09
D5
C3
27
CD
DE
B5
4B
C8
5F
1D
EF
5D
7C
CE
7D
0B
0A
E5
59
2B
B1
8B
F3
31
8B
15
E0
66
D6
D5
F2
98
13
C3
0E
7C
80
94
C9
3C
1E
09
24
F0
97
E2
E4
2B
18
96
5A
59
E2
7F
23
52
12
91
DA
3A
EA
9D
17
62
B9
70
6D
EC
4A
8C
D9
47
0C
72
E2
41
1E
34
60
70
A1
11
2E
CD
BC
01
3E
4A
34
53
4B
8A
C4
93
22
96
9D
54
60
37
60
59
82
A5
3B
9B
FA
B7
8B
F7
35
7D
19
70
4E
BD
F5
1B
3C
E4
E6
10
23
DF
70
BC
4E
96
B7
47
50
FA
BE
B1
D6
B2
BE
B0
40
19
F5
17
35
30
90
F2
C6
9A
C5
36
32
47
00
42
E5
9D
71
49
BA
FD
E4
52
63
2E
28
6F
75
E4
5C
42
E6
A0
11
74
55
2E
1C
6F
4B
27
0B
36
58
00
8C
BF
50
6A
F0
0C
8E
DB
1D
A1
ED
48
8D
7F
EF
27
BC
07
58
F9
9B
EC
DA
6D
C2
05
96
EC
9E
A4
B3
C8
D9
63
F1
C9
79
C9
89
73
6B
A7
A6
D1
D9
6A
58
B8
CD
3B
34
28
F0
4F
9A
BE
B2
D5
77
04
B3
10
B0
B9
85
CA
AB
AA
7D
4A
DB
A4
E8
3C
44
6D
6C
33
2C
32
49
41
9F
65
9F
D3
5F
08
12
D6
E5
9B
62
01
70
FC
09
AA
1C
26
2A
D0
03
D4
2E
FA
B3
09
34
31
F8
AE
F8
27
31
8D
2F
19
01
76
DF
BD
27
58
2A
F7
E2
60
0C
BE
BD
4A
E0
90
38
4C
48
CE
C5
4B
B9
2A
61
D3
E6
A2
BB
20
7A
DF
8F
B8
29
93
62
78
93
87
A8
4B
86
BB
F7
D4
F9
FF
E9
2C
D2
54
30
50
2D
F6
3D
6F
29
2D
7A
D3
CB
7C
66
9F
D2
97
BE
07
F2
52
5A
89
E8
00
83
A1
78
24
46
BB
EE
62
AD
58
55
E5
EA
8E
60
2D
F8
2A
39
6B
8D
09
D8
92
1F
07
15
6E
82
26
02
4C
A5
21
96
EC
88
32
3D
0B
E1
0D
7D
E1
F9
EA
BB
0D
91
E4
6C
5D
85
83
85
32
14
2A
84
F8
98
B9
BB
8D
9E
EE
8E
BD
DC
F7
D1
4F
BB
0E
0F
CD
32
02
D0
8F
AE
DC
AF
37
58
4B
1A
52
7D
14
7B
F7
D3
12
19
D1
AE
9A
56
BE
C6
10
92
A7
CA
B3
20
E7
A7
61
2F
8C
37
5E
91
6D
ED
FC
05
82
BF
9D
0C
C0
ED
A6
5A
B6
6F
C7
6C
2D
8E
0D
55
E3
08
37
98
C5
BD
12
3C
64
6D
71
B7
0F
5F
28
D7
C0
50
C3
93
CF
2C
7B
5F
61
07
5D
F8
D5
69
75
E7
11
9A
78
F4
1F
69
61
67
ED
10
2B
C8
B0
57
F4
AD
5C
DF
4F
D4
9E
81
E7
01
FF
E5
05
3B
65
AD
AD
13
D4
E5
D9
71
96
ED
64
81
9D
54
C5
30
82
E8
94
68
4A
0C
55
2F
7D
92
E7
C3
90
5C
DB
6C
29
A4
C4
32
6F
96
98
D4
48
01
9C
78
B4
1A
CE
A4
EA
AE
2B
1F
7A
EB
E3
50
DE
53
40
75
E2
87
A5
E9
80
81
5C
08
C6
AE
E5
BD
E1
75
B7
87
81
44
8C
6A
CB
EC
F5
D9
0C
1A
3C
50
D1
0B
37
B0
7A
12
87
69
CF
E9
AA
F2
61
C8
AD
A3
C1
F8
C9
29
6B
1D
0F
F3
21
3D
BB
5A
89
57
F0
D7
4C
C9
5E
88
8F
4A
C0
00
A4
14
A8
4E
2F
44
8E
2C
E0
54
38
A2
13
AB
B1
CA
C5
BC
E7
98
BE
22
34
3F
2A
73
9F
52
DC
BD
3E
C4
6F
1E
C7
E2
6C
A5
BE
7D
E6
7B
46
27
D4
45
44
8D
4A
54
1F
0C
A6
9F
0D
FA
4E
44
F2
48
51
AD
67
A6
81
12
4F
A8
0F
D4
EF
0E
B1
4E
7B
D8
79
1A
13
42
CE
EE
68
A7
53
76
56
BF
81
E4
18
F5
B5
E1
55
B8
6B
4E
BF
1E
D8
60
9F
50
BC
B9
15
D0
7E
DE
BB
FD
C4
39
3D
63
31
ED
1A
A2
96
31
A8
0F
C2
C5
D6
50
44
59
68
A9
BB
85
8D
06
4B
33
74
A6
38
01
56
52
17
36
CF
B4
E5
0D
63
D5
0E
58
61
DD
16
BE
0A
F7
84
6F
0F
2E
D7
7E
66
72
84
A0
90
74
84
57
7C
E9
E1
6E
69
58
7E
7B
34
A7
5C
8B
82
33
EF
37
95
28
B6
EA
49
F7
D5
CB
8A
D2
4B
92
BE
78
24
14
86
1E
F6
64
93
D8
5B
7E
80
D2
87
C8
29
C9
E8
44
FA
DC
56
02
43
B3
A0
14
08
2D
FF
F8
03
2D
87
D4
B9
91
8F
EF
6C
C2
EA
4C
AC
54
85
88
29
AD
E5
7A
89
73
67
3E
EF
24
B8
60
8F
01
55
A1
7D
14
23
1E
B2
BA
10
0F
1B
47
C6
EB
32
7C
F8
22
3B
E4
65
E7
5B
A0
48
A2
40
A0
74
8C
00
6C
34
96
8C
54
85
E8
BA
FE
30
02
81
76
D3
50
4B
0F
88
A0
B0
A4
B3
99
B0
40
9A
04
C7
C7
7B
7D
EF
59
EA
E1
67
AE
FC
B4
59
60
B6
E1
A9
6E
21
98
51
C7
94
D3
D2
97
C8
D7
83
B9
5C
B3
9E
C9
F2
51
72
EB
8D
1B
23
F9
5E
C4
43
F4
08
AC
4B
E5
06
41
3C
B6
70
A6
C9
B7
19
7F
35
AE
37
84
5F
3F
39
6C
18
06
C2
32
11
9C
3D
A9
68
F6
4A
BD
CF
17
21
31
87
13
0F
EF
15
F5
CB
1B
CC
02
0B
14
76
8D
C9
6A
F1
FF
A5
A2
39
FD
81
4D
A6
A3
AE
3D
32
45
9F
25
E6
9A
FC
D4
BA
AF
A0
52
81
18
3D
B5
5A
73
01
61
88
80
AA
E9
46
A0
53
5B
A1
02
8B
9C
79
17
4E
F9
4E
AB
68
3A
9A
2D
94
7D
2F
F0
61
23
E3
96
33
E9
8A
E0
CC
DB
4D
33
EE
9C
10
56
FF
A1
C5
3A
96
96
FE
A1
F3
BB
45
6D
61
98
9F
35
28
E7
D5
28
2C
0D
FF
46
5D
8C
28
AC
87
9E
8B
34
4C
BC
A7
3D
D6
C1
DA
1E
24
6C
EC
3A
D5
CC
2D
95
C7
08
55
26
7A
BA
45
6D
CC
2B
E6
4F
1D
E4
85
A9
CC
07
45
98
6D
C6
B3
8B
1A
56
98
49
0C
8F
09
75
4F
28
AE
77
85
9E
06
E8
A4
60
16
F7
D1
29
CF
5F
0F
EB
F9
29
A6
07
25
9D
B6
17
64
B0
48
9E
72
67
18
BB
BB
A0
C6
1E
2F
7A
F6
98
28
B5
90
27
9A
10
13
7D
90
D6
07
AA
C5
CA
D8
22
CD
C3
8F
2D
1E
BD
45
31
03
FD
C4
CA
E1
5C
63
54
EA
1A
7D
91
67
8C
01
2C
77
AD
76
D3
16
7C
89
E2
C4
3D
30
94
7A
45
E9
17
D4
ED
7D
CF
EE
1A
CE
D4
91
15
5B
9D
A7
31
7B
5F
A2
43
F8
C8
47
1D
68
77
6F
BD
E8
24
EC
D4
F3
E6
19
DE
D1
84
AC
8B
5D
D9
07
98
34
95
C5
FD
29
14
27
20
6C
5A
E7
52
61
21
13
74
36
FB
18
5D
8C
B2
45
D9
B1
93
79
B9
6E
EA
B3
9A
A9
1F
04
C0
D1
F0
7E
75
BB
E8
81
66
CE
4A
EB
1F
75
9A
E9
B8
C5
42
A1
26
90
99
78
D5
48
65
FA
95
92
76
D7
68
A0
78
D1
67
1A
44
74
FD
29
E4
09
85
8C
11
09
14
84
7B
67
6B
14
CC
EE
31
90
24
5C
BA
8F
C4
23
22
45
96
FE
B7
84
AD
C1
37
11
3A
F7
CD
E3
3A
54
5C
43
46
74
48
9D
7C
68
F4
50
37
83
04
1A
3C
12
EA
2C
13
FD
C0
86
B4
1E
EB
D9
A7
73
EF
1B
4F
F9
EA
19
0D
0A
80
3E
AC
EA
4D
5E
CE
11
01
98
7A
AA
A5
A2
B4
F7
9E
A9
85
1E
28
E7
01
15
FF
D3
F6
BB
3F
30
DC
44
5B
19
D6
35
3F
84
85
AE
1F
DB
2A
EB
6D
7D
50
97
F4
10
E6
41
66
74
3D
B6
6D
D7
32
B0
98
51
58
FE
67
FB
E9
DE
C2
C2
C7
FB
14
39
79
B0
E8
A3
00
92
2C
66
5B
0F
66
D3
B3
59
AC
BE
F5
51
D2
51
96
42
C0
A7
C9
1C
AD
9E
F0
17
BA
A9
DC
FC
14
94
DC
D2
84
1A
7F
BF
9A
A1
08
6D
FB
DC
C7
84
C7
92
E7
4F
9B
09
F1
82
06
6D
24
9F
08
C8
DF
F6
4B
ED
3C
C3
61
D9
6B
AF
01
24
4A
DA
FB
1E
A3
BC
C0
DC
18
E4
9F
86
0D
DB
E5
6F
9B
0C
D6
EA
3E
57
C6
65
A6
D1
DC
6F
5F
BA
8D
8E
03
2C
FB
11
29
E2
40
71
AF
3C
C6
CB
B4
E1
F5
6B
4C
26
7E
72
80
08
79
3B
97
E0
FE
B7
AA
6C
F9
8B
26
8C
76
52
A2
60
C2
53
24
D3
D8
DF
82
38
55
4A
73
8A
EE
41
8D
58
45
95
5E
C5
39
81
00
DE
72
3A
4E
05
1B
E8
A0
A7
0F
76
53
58
3E
BD
8F
E8
D5
05
A4
8E
58
1C
63
F1
45
72
B8
80
BE
75
52
1C
7D
C0
43
98
F6
23
5E
C0
4E
C6
C3
13
62
A4
07
A6
F0
21
FC
8E
45
D6
29
B3
C2
B9
5E
82
4F
7A
E6
17
8E
36
8E
BA
AC
52
EA
5F
57
9B
44
73
45
B4
2D
ED
45
26
3E
FC
0D
6F
D5
2E
0B
00
71
58
CD
F0
B2
BC
49
20
C1
7C
09
73
9A
0B
BC
4F
1C
4F
C7
BF
CD
DD
CD
2F
36
06
08
46
6B
7A
6A
4D
D4
54
6A
3B
A0
0F
90
A8
E1
8E
B6
D2
79
4F
B8
FF
81
3C
A2
A7
92
A8
79
88
6F
2A
17
16
E4
E2
F5
47
0C
72
25
7F
FC
F2
55
B6
DF
E1
2C
43
D6
76
3D
E6
B1
25
0D
9F
13
35
37
86
19
E5
90
EE
2F
87
24
7B
EA
37
F3
D5
B4
32
8D
2D
42
92
35
66
25
AA
2D
D0
77
32
94
96
94
CF
C4
38
A5
E8
72
60
18
82
C1
BB
FE
C3
70
A3
E8
61
45
73
05
A1
1B
D9
07
27
1F
47
09
FF
ED
D8
0D
10
91
11
10
95
B5
E2
E7
C2
C4
1F
4A
9A
7E
29
84
9C
F8
20
74
AA
EA
81
F4
F2
8A
17
FB
2C
6E
BB
E7
DC
00
F1
C8
01
A5
70
71
A9
A8
FB
0E
F6
63
1C
9F
1A
64
63
4D
2D
17
39
71
8D
38
EA
55
36
41
7F
92
48
EE
24
45
1E
B3
C3
A7
DF
B8
0E
13
D2
BC
E8
E8
B4
7E
C7
D9
96
09
FD
DD
40
14
A1
68
69
33
9D
74
A7
09
1E
FC
69
FA
E2
32
A9
58
BA
79
12
24
FB
AD
D0
9A
16
EE
47
52
16
50
03
F0
9A
12
8D
10
34
15
D8
4E
7C
60
FB
9B
9C
03
00
F5
5F
5D
C6
94
EB
8D
FA
D5
50
39
99
48
BB
71
E4
FA
46
F3
87
7A
80
61
FB
16
71
F0
96
0A
77
70
EC
19
7A
DF
41
6C
D5
42
DB
CD
FE
E3
81
90
A3
F4
7E
58
64
EC
9D
97
DB
43
91
7C
EC
52
2C
2F
CA
4C
CD
D6
89
6D
6E
5D
8D
91
93
84
1E
58
2F
F0
FD
6B
46
02
2C
A3
4F
84
B3
E1
0E
B6
26
BF
B3
0F
B1
FE
0D
A5
1B
78
60
2F
9D
58
C0
76
C5
D5
2E
A6
E0
D8
8E
8F
4A
2E
33
AC
C5
AE
8B
9C
5D
D5
9A
70
48
B1
78
05
62
FD
C7
02
7B
22
20
AD
73
22
17
7A
53
DF
54
97
41
EC
C7
52
32
66
C9
CD
FA
89
2C
38
C8
33
6B
22
EE
81
7B
83
AE
50
63
29
CF
56
6F
A1
63
72
38
6F
C4
A7
7B
C7
1F
C7
F7
E5
C2
2B
A7
9C
26
13
BB
B9
18
3B
39
AC
62
42
00
66
AD
93
91
32
E2
5D
AA
0B
A1
75
B3
96
D3
C4
CE
B5
7B
23
A8
E2
AC
1F
C1
71
EF
B5
3B
A6
D9
6D
DD
10
99
F5
68
B5
7A
A4
B0
62
4C
30
97
40
13
09
BA
5C
36
B4
56
16
41
C9
92
B4
61
5E
9B
E2
99
87
54
42
EC
E3
F1
B6
B7
3B
91
F5
2B
B3
6D
3F
61
96
12
D3
D7
FE
E3
9E
7E
28
3F
A0
2F
06
52
D3
F3
2E
18
E5
A6
A0
04
68
88
DE
BE
FC
1C
BD
32
2B
26
63
19
28
DC
AE
0C
D8
F5
11
11
53
7C
B7
9E
90
EE
BF
A0
B1
2F
B1
FE
6B
78
14
0A
CA
E2
B1
75
25
D0
8D
2A
D6
EA
80
26
11
7A
BE
9E
79
E7
54
7B
14
CF
E2
A1
0C
BB
3E
A3
F7
94
60
AC
B9
66
D2
50
FC
25
CE
6E
AC
66
AC
35
3E
DD
4A
49
C7
D4
BE
A0
96
80
76
53
06
94
EA
E8
F8
CA
87
3F
A3
CD
4A
98
7E
AE
09
50
00
DE
D7
35
F4
B3
E8
FD
83
51
2F
BE
7D
6E
38
5A
15
2D
7F
02
D1
DC
01
F8
B5
AD
7E
A4
6B
F2
C6
F7
7A
05
A0
99
D2
F0
4D
93
A9
B2
59
C1
3D
6B
DD
35
EA
F3
A7
79
B7
45
65
9B
94
F4
CC
6E
F6
22
43
F7
5A
C3
A4
F3
D5
1A
1C
3E
6C
D9
3D
09
02
3C
BD
0A
8E
4C
04
D8
D5
7B
3E
C1
AF
23
62
30
A1
E4
39
18
6F
FA
5B
02
BD
9E
37
B4
83
D9
46
9E
41
DF
4A
C9
E4
9C
09
4F
6D
AF
6D
35
12
C7
B6
DE
EF
0A
F4
AC
E5
E1
F0
95
9D
E9
C3
E1
F7
0E
45
12
08
DC
99
9A
EB
7F
15
AA
93
EF
FF
07
07
EA
EB
1F
E6
FB
C0
46
47
8A
9E
A4
DA
33
D1
10
DD
61
3E
2A
09
A7
91
21
55
D5
3E
21
D5
77
95
5E
15
E8
66
1F
31
08
2C
EC
69
A1
CF
80
76
62
D9
1A
BA
62
38
15
AE
DC
25
2E
C6
EC
AD
98
87
B5
B3
77
D3
F3
04
30
05
92
D4
02
AC
4D
09
E8
5F
BE
7F
14
A7
9B
AC
AC
20
6B
46
10
1B
F5
1E
A4
EC
82
E1
9A
63
91
61
8F
A0
A2
E8
7F
3F
C8
40
30
A8
6F
03
2A
CD
FB
BB
88
98
CD
A0
BC
8E
8B
4E
11
01
79
8A
24
87
F6
8B
BA
1C
10
15
76
07
11
13
68
23
7F
E6
2D
67
B6
6B
13
84
00
A0
E7
31
EC
7B
16
12
3F
FE
F0
6C
8F
F3
46
89
95
4F
57
6F
57
D5
21
1C
6E
F9
ED
A5
33
DF
98
C3
19
B6
8B
B7
9B
98
36
5C
2B
18
4C
F8
95
F0
12
B3
80
AA
4D
4D
5A
BC
F8
39
BF
B4
21
C0
7F
A1
4D
01
A3
1A
9B
D3
36
E7
48
D4
5A
1F
AF
2D
4D
7F
8A
52
8C
49
4D
04
DD
7A
69
56
C1
05
82
0F
3D
D7
74
DE
0A
07
5F
2E
0F
63
52
EE
0F
36
8C
52
F9
E3
9F
2E
A8
26
C1
B8
99
E9
79
1B
BC
A2
19
2F
26
5F
D8
F2
D3
88
72
17
F1
21
B3
12
7C
04
78
83
53
B1
A7
97
72
E2
9E
E3
ED
01
5E
60
17
E4
77
9F
E1
E7
3C
F6
76
9E
19
97
E6
7E
49
7F
C0
09
96
F7
1B
50
7F
DC
41
BC
18
64
5D
FF
72
BC
A6
B9
A3
18
11
C9
C0
D5
F8
B1
D9
FD
86
1F
A1
ED
4A
E7
BD
EF
3A
BC
2A
32
92
0E
18
CE
FE
43
18
33
D8
06
3F
BD
49
A7
01
94
71
47
6D
0B
4F
F4
05
30
03
A7
84
ED
2D
17
2C
59
38
18
A3
31
A6
25
61
62
11
61
F3
70
EA
F6
2C
50
F8
0B
0E
44
D6
A9
AB
B5
0F
BE
42
79
AF
3B
A5
08
EB
11
3E
D7
98
29
32
AC
A6
85
3B
8B
53
72
E8
7D
F9
A1
7F
46
6C
81
4F
8F
63
84
33
11
33
60
C8
49
AF
7A
8D
07
17
EA
8F
B6
FF
AB
0F
CE
54
D1
71
78
0D
96
97
F2
2B
29
64
BE
FF
A4
09
4F
68
AD
D0
A7
6C
40
51
72
6A
61
92
E0
F1
77
7C
F6
52
C9
BC
72
50
F0
3C
B1
B2
4B
6C
08
59
AB
F6
BE
47
25
DC
B4
16
F0
4A
09
EE
29
97
71
0E
88
7D
10
CC
DB
10
E6
C2
D4
3A
12
CA
99
49
E9
7F
18
B8
D6
01
BF
08
3B
7B
CD
D1
11
93
DA
E8
B0
6B
A5
FD
70
DF
3C
3E
B8
B7
A6
D1
F4
7D
7E
AF
15
69
EC
16
C1
66
C1
AF
68
C8
DD
1F
60
A1
0F
8F
26
A1
B4
9E
A6
EB
AE
85
D5
0D
02
B4
51
84
46
F8
EA
2B
6F
06
09
88
4A
5B
F3
DE
B4
B1
D1
01
3A
82
CF
FE
67
E4
F8
EF
F2
71
83
FA
AF
EE
33
4A
34
11
EB
32
24
51
10
A5
F0
2A
A3
0B
87
A4
8A
57
63
C9
6D
47
B0
82
5C
CB
80
B6
D6
16
BD
7A
07
4C
4E
A8
AC
81
C6
06
4A
9E
C4
C8
85
02
9E
0E
F1
AE
F1
94
7C
7C
5D
E1
4E
4C
E0
4B
12
05
74
29
60
B3
9F
D6
D6
F4
94
33
3B
38
DE
11
FE
8E
80
7D
A3
D4
6E
7F
87
C2
EE
B4
70
97
F2
27
F5
4E
40
9D
5F
5D
A1
71
B4
02
DF
5C
63
FC
C1
9A
90
0A
5B
52
DF
8C
04
39
41
0C
FC
EB
58
BD
7A
29
0E
8E
23
DB
D3
45
02
14
5C
EF
62
BA
C6
0D
54
95
31
39
5D
B6
AB
CB
5B
81
C4
65
93
32
CF
EC
A0
3E
F1
09
FE
32
04
8B
8F
FD
36
E5
E4
9D
AE
68
ED
59
18
F6
26
BD
BA
FA
0C
86
82
92
1F
90
D3
39
E9
65
4F
19
05
32
84
21
24
A3
C3
FC
29
59
A2
28
E7
55
7E
E4
72
72
C3
8F
67
47
84
6E
59
CE
FE
82
EA
54
AC
01
39
AD
53
9E
8B
8A
84
0C
99
61
92
BE
D2
7A
EC
96
79
38
73
A0
2D
DF
98
F1
8E
90
B3
49
74
06
85
CE
43
D6
C8
01
E5
DB
04
0F
5B
04
C4
E4
C1
7F
6C
5A
67
E2
1B
0A
49
8A
8D
7C
AE
15
A4
23
E9
73
21
10
E4
AA
35
71
81
DD
FA
0F
37
A7
C6
3E
CE
AC
EC
76
E6
C9
59
0E
39
64
74
7C
C8
0D
95
C4
90
9C
03
25
5E
1B
B2
B6
3E
09
6A
A7
C9
0A
F1
9A
64
C0
1D
65
15
7B
CD
7A
69
4C
DF
DF
83
80
3F
26
82
6B
3A
68
85
94
68
3D
B7
3E
B0
1D
80
B0
D1
6C
D1
F3
45
56
62
4D
AF
74
01
13
3E
FC
48
37
A1
AB
89
62
14
07
09
06
60
70
7F
19
FE
E4
06
73
C4
29
65
A3
91
EE
B1
2D
A0
EF
A9
86
B7
F0
70
36
70
83
B0
6C
B4
7E
CF
3F
67
9E
51
DC
F5
7F
83
CE
65
44
2B
44
7B
73
B8
F5
37
7D
B9
DC
F6
81
43
E3
3D
14
51
EB
41
64
F1
A8
6B
A4
39
77
61
E5
11
40
A4
F9
1E
FB
6E
DF
A7
8C
E2
8F
4D
45
0A
6C
FC
D4
CE
AB
E7
E0
05
B6
0D
4E
64
70
34
C4
0B
CC
CC
40
0B
D0
3F
27
B3
09
44
92
3A
4E
F6
A4
4C
75
EA
23
D8
34
F7
CA
21
DE
6E
21
D3
AF
D4
B9
A9
C3
67
A2
58
AE
19
78
FF
B6
12
15
95
91
E8
47
BE
4A
AC
F4
69
88
9D
4D
2D
E7
72
13
4E
7E
D7
AA
62
99
8A
48
6D
66
06
9A
16
C3
D8
03
8B
BC
B5
F2
FD
4A
A1
A4
EB
CF
91
73
AB
79
08
C3
1E
EB
42
98
8B
AE
7E
78
45
4C
DC
D5
86
47
E6
13
F8
63
16
28
37
CD
0E
8F
27
AF
CB
C2
8C
9A
83
BD
85
6A
74
FF
45
C7
3E
FE
AF
92
BD
89
28
27
9F
53
1D
09
2D
E4
9F
5D
04
FF
E7
A9
FC
F5
85
C3
72
29
00
76
91
44
7A
AA
C7
29
7D
83
7D
26
23
BB
7E
6A
37
E1
61
54
9C
EE
22
CB
AC
8A
BA
62
67
D6
95
EB
58
64
2B
A6
72
15
50
C9
F6
F4
02
D3
5D
0E
D6
31
94
2E
BA
21
A8
C1
52
EF
49
CB
81
06
4A
12
BE
68
69
CD
37
32
D7
DF
4C
CA
F7
C2
8B
73
3A
90
BF
F4
B2
1C
30
4E
44
68
AE
50
CD
BB
9E
12
0C
12
08
A2
96
1D
91
D6
E8
98
1F
E5
03
3F
CD
92
6D
D2
5E
2C
24
56
20
F5
3E
1C
79
9B
A3
B6
17
52
6B
73
15
29
65
54
27
77
F7
14
FE
58
06
C4
42
AD
FD
01
A4
A8
ED
13
04
A8
F2
3E
44
D0
8B
9B
26
17
20
C7
70
A9
1C
C1
D4
F9
CE
0A
40
81
C9
FF
21
AE
C0
AE
17
3B
DE
28
BB
AA
27
61
EB
C7
E2
29
A0
60
31
18
5A
09
1A
43
CD
6B
91
36
6F
0D
ED
72
49
92
C4
B3
45
C9
E7
5A
05
41
B9
83
9D
BE
F8
29
9F
34
F6
7F
2D
4F
14
E5
AD
9D
70
0B
A0
1C
36
97
94
73
D9
4C
33
6B
FC
F4
38
CE
A8
12
45
CC
79
CC
8E
A5
F5
2D
32
5C
FD
30
45
9E
95
5C
D9
BD
EC
65
7D
2F
16
6F
4F
E5
71
63
ED
FA
CD
C4
78
26
C4
57
CE
5E
F1
3F
20
7C
B2
4D
36
EE
66
1A
24
74
1B
52
ED
91
F3
21
8F
E5
8E
F6
20
F1
76
89
2F
8C
C5
9C
F7
CA
8C
C3
CF
41
9D
0B
D2
93
A8
C1
D0
F3
02
77
6C
1D
B6
2D
29
0A
97
F4
A9
6E
3C
46
FB
46
95
1A
3D
F0
B8
A7
4F
BC
2D
83
EC
33
44
2F
D5
D7
80
06
FF
F4
BF
32
53
6E
E0
73
C8
85
D1
73
69
69
F6
AF
AC
13
24
F6
F2
EF
DD
F5
5E
55
5E
36
DE
DC
04
1D
9C
77
10
8C
D2
38
35
26
32
AF
A5
DA
A0
1B
98
04
45
A1
82
B9
07
88
6C
91
58
86
A9
7D
02
1C
E8
A9
F7
99
7B
57
EE
A9
00
BD
F7
A7
B7
43
63
F6
E9
37
96
48
EA
92
04
29
EE
6C
5D
D5
0C
D7
48
5C
4A
3D
F7
E6
32
2C
A9
83
CC
17
02
F8
A4
CD
05
6E
BD
2C
B7
EC
3A
31
10
BE
85
3A
D7
6D
DB
F7
CA
48
CA
6D
B3
C0
70
6F
B8
AA
79
BD
D5
E6
30
FB
59
FD
E1
C8
CA
81
8F
EC
97
1B
B5
EF
A7
79
D4
A1
C7
39
4A
24
87
3A
48
9A
AA
1D
01
99
B1
76
03
52
61
97
A1
F9
D8
35
F4
7B
63
4E
5C
CA
C3
B3
5B
F6
32
17
4E
46
E9
7A
2B
63
EB
45
D2
D5
B4
3E
99
D0
B0
77
78
0E
BF
AC
F2
38
95
1C
B0
6C
CB
AF
03
E0
9A
C9
47
93
BD
25
2D
0E
30
D6
41
46
7A
D5
48
69
64
FC
24
90
76
D4
48
CE
12
A3
45
C3
0E
02
5C
D9
14
9C
68
EF
EE
00
69
3A
3B
2F
45
5A
35
30
2B
71
CA
55
2E
93
48
07
52
94
C7
51
93
E0
04
F3
2F
A1
31
85
BE
3B
B9
7C
EE
F3
F7
AD
10
29
30
30
84
48
A2
7A
9A
74
72
A4
9C
44
E3
E5
0B
90
3A
67
84
8B
AD
20
58
85
BB
A1
9A
B9
94
BC
C6
39
EE
6B
7C
23
A4
C6
2B
A0
5A
7F
1D
0F
FE
63
82
1D
89
1C
B6
72
A3
DA
FF
C0
31
54
B5
E3
7D
AD
80
01
5A
3E
B9
8E
55
AD
51
9A
8E
5C
43
63
25
00
A3
9C
93
15
C2
63
CA
3E
50
FE
77
87
71
AB
A6
DB
DC
CD
4C
3E
41
1F
F6
98
B0
2A
EA
1D
EF
A3
F7
D6
F2
85
11
6E
A6
7C
22
BF
BE
29
7D
3C
4F
42
D6
72
54
0B
50
A1
81
E6
24
CE
16
DD
CD
FF
39
E3
BE
9F
79
6C
BE
0D
16
B6
6E
ED
75
36
80
E1
6D
EE
CF
C7
4D
F6
06
F4
4F
B2
62
64
87
DA
EF
C9
23
46
81
6D
10
8E
78
01
1E
4A
DD
5F
50
D2
B0
21
41
78
3B
49
11
86
92
56
E9
8C
C8
EC
B4
91
36
26
CD
90
88
BB
16
F2
59
01
07
E4
52
AC
8B
5E
6F
28
27
DD
70
77
07
C6
8F
BE
8A
92
A0
5A
83
10
4B
CE
78
9D
78
C4
1E
D4
19
45
8C
06
48
79
F2
82
4B
BE
BC
67
CE
F4
82
23
0D
F9
7B
C5
00
89
FE
EE
28
BE
26
CC
2A
56
EC
B8
6D
07
5D
AB
8E
FF
0D
5C
28
79
29
E3
55
52
5C
59
8C
9D
46
EF
3C
1C
02
FC
9C
8D
D3
4A
9D
A8
27
AE
D5
64
F2
43
42
4C
4F
4C
63
E8
A8
C7
85
DD
C8
66
26
38
15
73
4B
2C
5E
D7
D5
FD
DB
08
1A
F0
F9
93
B0
CA
9E
A4
89
A2
62
00
29
C1
21
60
D5
39
B3
B0
8C
10
CF
26
6C
F4
89
29
CB
89
57
CB
2B
94
72
A3
59
6F
FE
2A
D8
9B
69
76
36
25
62
8E
63
C7
47
07
AC
AF
FB
F3
44
59
B5
77
EA
E6
7B
D0
94
5F
7E
B4
39
0E
E1
7D
64
48
C2
69
50
5E
EB
67
C5
13
B9
06
BE
A1
45
9B
DB
93
2D
16
0C
AB
09
DE
BA
E3
D0
58
CF
C9
CE
67
BF
D6
C7
F4
72
D4
EC
FE
90
ED
AA
44
1F
CE
A2
86
DE
8A
D2
44
D9
E8
99
88
04
79
4F
C4
4D
47
5D
76
F0
9B
CE
4B
2D
03
7C
AE
5E
8F
F9
8F
3C
7B
8B
3F
E9
04
15
C9
38
93
8B
05
FB
47
06
28
7B
3D
69
2F
E9
08
BF
29
FA
5E
FD
60
63
21
A6
FE
7B
2E
88
19
CF
E0
B1
75
F7
E3
35
B7
9A
E9
D0
26
4C
94
22
03
7B
FF
7D
65
5E
D5
11
25
D9
01
B7
0C
BE
D6
CD
8B
5F
9E
F6
73
17
EB
4C
91
E3
E3
FC
24
65
34
51
90
B5
F1
E3
9F
26
63
FD
2D
9F
48
28
28
E0
0D
CF
D9
78
85
5F
5F
05
3D
CB
71
06
7B
73
9E
BC
80
EB
BB
DA
72
B2
15
80
2A
BC
C7
1A
E5
5E
A2
0A
BB
50
A7
12
97
6C
8B
E6
7F
5E
EA
FE
6B
D3
85
C4
F7
8C
65
0E
2A
C0
88
69
1A
A9
83
C3
4C
73
FD
DA
2B
7A
D3
E8
9D
6E
99
D7
84
62
6D
FB
AA
8A
00
1B
5D
60
E6
DF
3E
1D
7D
C9
2A
D8
07
CC
5C
C8
56
66
32
FD
7D
AD
CA
E8
D9
68
70
FA
90
06
19
2C
41
BA
81
BF
CD
BD
A6
38
67
41
17
37
91
C3
99
A6
ED
64
55
63
5A
7A
31
F7
A2
53
CD
18
85
80
EC
92
7A
DA
F2
ED
E8
AB
84
0D
F3
F6
80
50
64
E8
36
C3
5C
D1
50
E3
6B
04
B0
95
03
74
A7
9B
B7
C9
87
9D
21
AB
3F
81
C3
1B
46
33
A3
87
96
C5
3D
4E
53
F3
62
F7
98
66
2C
53
96
98
E3
FB
7C
7E
23
7F
C0
F8
D3
A3
3A
40
83
5D
4B
77
D1
C5
10
94
A5
0A
89
63
E9
CE
D2
72
EC
A2
16
84
BF
28
DD
21
7F
04
EB
0D
01
D7
73
61
F8
2E
E9
25
44
E0
94
93
77
29
BC
30
D1
6B
02
90
DC
8C
F2
C9
1C
9C
22
29
AD
6E
03
35
78
A6
ED
81
5E
43
17
F4
41
3E
87
A7
3E
69
D2
15
CA
5E
01
05
E7
68
39
86
2D
C5
F3
8A
3B
AE
BA
C6
A9
03
04
87
B5
F6
34
A7
C2
7B
9A
CD
00
3A
DE
37
12
D6
00
B8
A0
DA
DA
DB
82
D9
C6
D2
C7
53
07
24
E2
3E
B3
10
81
89
E2
53
92
CB
C1
91
9B
C5
7E
81
C3
00
6A
5B
A0
5C
7B
E5
9F
DF
66
A0
49
7F
B9
2F
E7
76
15
9A
C5
BD
5A
E6
E9
9D
16
42
FD
10
FC
4D
7B
7E
75
17
2D
FC
EC
22
73
61
9B
84
DD
40
84
18
93
66
E8
38
88
94
32
99
74
25
07
8C
20
31
D5
29
60
96
47
89
16
AC
CE
21
31
37
5A
9C
06
D0
6A
91
35
32
27
62
0A
E1
2E
C0
AE
3F
67
E7
81
1E
44
D4
D2
DC
D3
37
DE
CF
4D
DA
87
8D
DA
88
46
D4
5C
7A
D5
8B
60
84
96
91
EB
26
15
73
82
B7
B9
87
29
80
0A
69
98
BC
10
6F
3E
1C
21
DE
CA
D7
02
49
70
06
62
F3
C7
2E
6A
17
6A
B4
4E
44
3C
87
ED
EB
99
7B
D5
39
D4
BC
50
6B
5A
AA
54
76
3D
C6
F6
26
5D
9A
59
2C
F3
BC
9A
C8
D3
94
7B
20
53
E6
DA
01
EA
6D
2F
0F
A2
4D
E3
AA
02
D7
62
9E
B9
6C
87
A9
51
24
16
7F
3E
23
7D
D0
62
C5
F3
98
EE
D7
F4
4C
EF
31
13
39
6D
CC
AF
09
34
42
F1
90
18
97
4F
65
1B
C4
A9
F5
5C
B3
F5
B2
55
E0
AC
5C
63
D3
7A
7A
28
77
D9
52
40
28
B9
60
C5
EE
3F
92
3F
60
01
6E
02
90
CC
2C
47
C0
E1
83
60
DC
5F
F6
D5
03
3D
E1
E7
12
AF
2C
A5
5F
DA
A6
64
B1
93
9A
83
AB
CD
67
E1
3F
17
CD
39
AE
76
57
A3
7D
B3
81
5F
91
A4
DA
BD
AB
69
5D
AD
EC
7C
19
58
CC
81
8B
F9
F5
AA
77
53
36
BD
B1
83
AD
AB
AA
28
77
7F
69
B6
4E
AF
94
F4
16
7C
72
CE
E5
D1
B3
36
8E
DB
FA
56
4F
23
D0
4D
77
28
13
D5
25
27
AC
04
CF
38
DB
D8
D8
CE
D0
25
09
06
62
B4
E9
06
80
2F
1A
25
AB
A6
EF
71
DC
52
03
E8
D3
EB
68
F6
6B
53
E7
F8
CF
A5
0F
CB
90
11
81
A0
1C
71
4A
38
EB
11
73
A4
7C
B7
25
59
EE
ED
A1
A3
76
2E
8B
2A
7B
96
85
B8
B5
24
DA
D4
69
64
D5
FA
C5
13
8D
55
C8
67
F8
FC
9A
C0
60
41
EF
1F
8A
34
5B
0B
9C
31
E6
FF
42
7E
D0
17
C8
FD
F8
89
8F
36
B3
3D
5B
26
AB
D0
DC
45
35
4A
C3
D7
42
9A
5F
CC
48
6D
B0
DE
D8
D2
19
CD
E8
CE
B7
CA
04
F9
D6
52
CC
46
24
85
47
AB
B9
57
99
F3
B0
6C
86
D8
24
C6
88
7D
19
50
08
3C
E3
F9
9C
9E
A6
C5
71
16
B0
E4
1E
34
A5
C0
B6
3E
1A
61
87
26
7D
68
1D
23
85
C8
93
BA
BF
96
45
9F
47
DB
10
24
AE
B2
8C
55
05
89
F0
86
83
38
2B
F1
F1
B3
4C
9E
A3
31
93
23
9B
D4
B5
64
5B
09
A4
7E
75
4A
84
05
13
E5
4D
75
D4
EF
63
FD
2C
22
06
3A
4D
84
F8
FD
47
ED
9C
13
94
F3
29
6C
41
5C
B5
03
28
1D
EC
65
05
BC
2D
09
E4
09
1D
55
30
FD
A1
D3
84
D4
0B
00
B6
61
FF
64
5A
C6
BB
C8
1D
35
9C
F8
E8
22
1F
47
B8
25
62
F0
B0
4F
E1
31
76
07
9C
25
38
C8
BF
B0
9D
9A
E6
4A
57
B3
2C
E1
DB
2F
41
C0
DD
C1
FF
74
C6
5A
E0
E7
CD
60
AC
F4
ED
0F
BC
C1
9F
F0
E4
FF
66
F9
09
8E
01
8C
0F
D7
09
F2
37
49
78
66
21
C6
C3
4E
D7
9F
88
8D
19
60
67
A1
2E
6F
EC
C6
C9
2F
84
C1
7A
9C
59
52
0B
59
24
10
D7
ED
2B
1F
EF
88
6D
D1
32
9E
2A
F3
61
00
7C
95
CD
21
2C
D8
46
42
24
A2
F9
34
91
B1
38
A4
69
A3
74
91
78
F7
5C
5A
C2
B0
55
40
A7
BA
C3
BE
9B
B4
53
86
97
37
D0
0A
72
C6
D8
F2
25
B4
60
8E
3C
68
A9
15
38
86
95
3F
49
94
24
59
DF
AF
04
0A
3A
7D
4F
04
D4
7A
9F
A4
11
44
1F
D7
80
D8
81
AB
BF
B6
84
CE
B4
12
74
4F
FB
CC
95
4A
0D
DE
E9
73
32
64
3A
63
7C
F9
89
C7
DA
AC
80
57
CE
F1
E6
7F
43
57
9E
C2
63
C0
D3
AF
D6
D2
BC
A8
E8
FF
CA
CF
C2
CC
38
0C
26
52
A5
3C
A5
B0
FC
14
F5
E1
D6
03
9A
CB
0E
A2
CE
9F
B7
7A
28
1E
76
E3
70
B0
6C
3A
F2
59
58
72
76
D7
C8
E1
69
0B
BC
C2
94
F7
16
04
37
69
A1
1D
EF
93
D4
05
CB
A6
F2
EC
88
88
B9
C7
6F
7A
B8
B0
BA
DD
62
59
EE
E3
59
10
55
34
47
B7
0B
E6
B4
9F
FF
0E
52
FB
DB
33
00
8C
8F
1B
F1
FD
79
2A
71
15
A4
10
30
2B
F6
20
44
D8
43
D3
F1
E5
DC
44
F4
5C
83
A4
E4
7D
57
94
A7
4B
2A
98
66
82
3C
3A
BC
A8
76
7E
E7
3E
7E
9F
89
7B
4B
88
69
29
B8
38
36
11
4E
63
42
DA
D7
A4
BE
40
0C
3C
C1
C7
E0
53
4F
54
36
07
A6
1D
45
F5
6F
87
68
ED
D8
CB
40
3C
63
58
F2
99
89
58
25
EC
C2
51
A3
67
22
7D
7C
FC
7E
B7
87
C3
2B
32
98
5C
AF
44
5D
B5
FA
6E
5B
90
B9
A1
C0
CB
2E
A9
80
5E
4B
6B
40
3D
0A
7B
29
7F
CF
34
29
1D
F6
70
6C
55
A6
2E
12
8F
55
FF
8D
FF
E8
1A
54
91
3E
40
F3
8D
12
AA
6E
9D
0D
90
EA
76
62
09
A8
48
0B
03
CF
E5
3C
A2
10
A3
70
05
8F
60
47
5D
07
B2
74
2F
B9
24
4D
8E
B9
64
B3
76
4E
80
42
60
F7
9A
11
CB
08
67
2B
79
78
E8
C8
8A
0C
A8
65
B3
13
98
8A
D0
93
A5
9E
B2
7F
BC
33
9A
B7
A2
B3
46
30
C1
11
EC
B2
3C
B5
E8
7C
7D
D8
7C
AB
3F
5F
A8
E6
A1
EB
28
3B
8D
37
AC
B8
2C
E8
0D
A7
88
A4
CF
9C
49
9D
AA
5C
0D
C5
92
00
87
56
28
B3
18
EC
C3
F6
36
A1
3A
A7
D2
56
C3
2D
CC
DB
B4
5E
5C
E1
5E
1E
9B
EB
88
AE
F3
CB
1D
BB
E4
BC
53
97
94
EA
F6
9B
E8
A6
DD
14
81
1D
3B
24
74
4D
DE
17
CB
E9
21
BA
D4
F2
C1
D7
59
2D
99
A8
79
6D
58
DB
7F
2D
19
72
B8
89
FB
20
B0
1C
06
73
43
A5
93
A8
FD
F2
8F
FB
31
36
CF
B0
30
3E
31
1E
68
5F
5A
D1
5F
D0
99
FF
6D
66
32
58
3D
6A
94
EB
8C
58
AA
8B
74
04
C8
0E
86
5B
E9
06
50
90
36
F1
BF
8F
31
5A
62
72
27
40
D2
A2
A9
75
5A
41
8B
C1
D3
38
11
1B
5C
6B
4D
2A
31
74
CD
87
05
EE
84
6D
48
89
CD
69
19
99
90
DB
AC
E7
A6
11
1E
77
93
C4
7F
DC
08
C6
4D
70
9D
1F
D8
8F
47
E1
4F
16
B0
6F
F8
C3
62
CD
DD
C7
CB
78
5B
91
7D
C9
A5
3C
81
42
4B
0D
F1
7A
4D
79
2E
4F
3C
E7
BE
BE
AE
0D
9B
85
97
9A
22
E0
05
E9
B6
3F
5D
23
29
7C
65
2E
EA
02
39
B4
8B
8B
7F
95
