3B
CB
0F
D4
60
B2
BB
C6
1D
1C
92
14
F8
99
58
D4
9E
92
D5
E9
02
0D
47
F7
57
E4
55
7A
AB
20
AE
69
27
A4
11
19
9C
A5
AB
3E
C6
3D
63
58
6E
5F
AB
8E
C5
C3
2B
CC
51
F2
53
25
56
3B
FD
7C
07
1A
3C
C8
43
B5
80
BC
3C
F2
D6
EB
61
C0
FF
0A
89
C6
21
A4
0E
2B
C9
35
8B
0F
22
A8
E7
57
2F
36
88
15
C8
F2
9F
99
8A
70
7C
6A
77
96
A6
C9
AD
95
83
14
6E
C6
D0
01
C1
36
65
68
B0
8D
03
AB
85
FB
94
A4
3C
13
78
29
08
48
FE
EE
F0
8C
C7
C6
3E
79
6D
D6
8B
76
EA
E5
E9
AA
E9
75
57
34
6B
EE
91
D7
BA
75
0E
09
D4
F4
D8
72
48
C2
17
2B
DE
DD
B8
C1
84
D7
06
AC
D3
3D
E2
3D
38
42
01
72
42
79
1C
1D
35
AF
45
1E
DA
11
ED
08
FF
D7
BC
F0
41
C5
F3
5B
15
BC
97
34
98
03
3E
82
63
BD
F3
42
81
8A
F1
66
18
C9
0D
F3
85
3E
7E
B2
5D
B5
6A
26
D3
B6
61
90
17
38
11
77
9F
D0
98
CC
FA
E9
CA
41
32
74
93
9E
7C
D6
B9
90
28
D6
5C
1D
6F
FE
6A
52
3E
24
AF
A9
58
5C
22
62
4E
D6
D5
15
96
18
37
C9
E4
FF
C6
EB
10
A3
97
77
71
B7
D0
BA
03
E8
21
13
14
7E
A2
17
B8
FD
0B
C9
EE
BB
13
65
BC
A0
90
97
A8
03
E2
01
45
5F
AC
C4
4D
CA
AD
95
9F
8D
2E
64
75
BA
DE
92
AB
34
FE
D3
FC
E2
36
64
64
5B
EF
E9
8D
FD
8E
1C
56
EA
0C
D8
E2
1C
75
3B
05
95
98
0B
AE
AD
74
42
E8
27
80
1B
72
EA
E9
F7
9B
EA
C3
3D
52
3F
95
E5
1A
CA
19
9C
E4
1B
B8
57
9E
B3
34
B5
10
B4
BE
4C
8C
48
03
FF
52
FC
B9
BD
EE
7B
5B
A0
A7
06
C0
7E
35
6D
3F
D0
88
CB
0B
65
C1
0C
CE
6C
CA
C3
3C
98
F0
DB
38
85
14
00
28
9B
BA
EE
AF
61
47
92
88
42
16
F7
B1
53
B0
8C
FB
0C
FC
5C
FD
12
57
12
A4
5F
6E
D2
1D
95
67
16
D4
C1
59
D0
F9
92
62
1A
63
B2
28
CD
88
79
DC
3A
78
71
87
F0
E0
88
02
2A
C4
87
38
13
D6
4B
F5
E4
47
A2
AA
6B
91
76
E3
9A
77
52
EA
2D
FF
B4
11
FF
3D
36
3B
D2
8D
7E
A6
12
50
CB
6E
DF
E4
94
88
71
DC
04
21
34
47
3F
44
0A
4D
A6
8C
53
35
14
42
BA
30
CF
F3
9E
D0
98
80
86
6D
17
8B
E8
10
C8
35
BF
52
9C
F6
B3
05
3B
39
DF
C5
52
7B
70
1D
28
47
AF
EC
CB
5B
91
D2
8D
95
FB
8B
15
D5
F5
CF
74
F0
8E
06
F7
A8
F7
A9
1E
83
C1
25
A1
62
FA
AF
F7
5C
2E
D4
3E
43
10
92
E8
2E
34
F8
64
08
54
09
18
D8
8A
07
02
90
A7
56
95
37
9E
99
C1
EA
09
F7
B8
63
EB
E3
C5
90
8C
38
2A
9C
63
06
4F
43
BB
B3
C9
8A
C1
03
60
76
FA
7E
BC
E1
48
B7
FE
D5
01
B6
0F
BF
C1
48
2B
41
E6
A5
F3
20
23
7A
26
87
FE
36
8C
90
B4
D5
9D
2E
10
B4
38
48
8B
31
D7
C0
FE
FE
BC
E6
64
28
52
8F
EB
C6
D1
F1
43
DD
9C
67
A8
9B
1A
98
51
63
D9
DD
01
05
C9
F4
22
89
E9
59
7C
59
FF
5A
BF
C8
EA
E4
27
25
F4
B9
3D
E2
3D
8B
F7
F5
B2
6B
0E
6C
75
D9
D0
A7
B3
FC
83
CC
95
C2
C1
01
22
14
43
A6
3B
51
31
27
11
9A
E8
C8
9A
B3
B1
43
1A
18
29
93
A4
B7
78
11
27
C0
A9
D2
04
40
F1
04
93
F8
9D
CD
24
53
8E
E5
ED
44
B4
DA
41
8C
14
10
45
77
01
4B
FE
4E
79
F4
8C
2E
5F
DE
7D
22
B3
13
94
8E
78
14
C8
85
6A
FC
17
77
74
E3
A8
17
95
DF
18
80
86
B6
F0
85
D5
82
F5
C6
29
6B
A1
4E
88
A9
14
D7
52
18
7D
89
8B
B8
34
E0
39
69
AC
6C
B7
AD
5C
D1
8F
BB
DE
CA
FC
A3
50
9F
52
EE
B5
46
7E
61
69
78
87
BA
D1
5E
A0
F0
BD
C8
D3
E0
CD
7C
A8
E2
28
51
D9
F8
97
E2
17
23
A1
CA
60
FD
2B
2B
EA
73
89
EA
65
43
21
E7
2D
9F
F3
5B
A2
B2
89
87
F4
7C
DC
B2
B9
3C
41
C0
68
48
DD
48
6E
AF
62
9F
2A
72
7E
C6
46
D3
88
AE
73
F4
A7
22
EB
42
F5
CC
48
AF
C6
05
FC
D0
07
33
D2
7D
BC
38
50
32
72
AE
AC
91
6B
27
2A
B4
FA
7E
22
66
B6
87
56
F5
CD
A4
9A
61
B1
79
5E
D1
C9
C2
96
A3
06
D6
0C
E6
6A
57
66
64
1B
BA
78
AA
8F
CA
F8
5A
99
DD
C2
69
89
96
D2
EA
7F
91
FA
44
62
14
EF
A3
35
47
F4
EF
4E
81
45
93
DE
FE
E8
38
C6
DB
35
F4
20
40
47
0C
49
76
13
4C
95
C2
B4
1D
C8
96
17
EB
48
9F
56
1D
A3
56
DD
24
BC
51
52
96
CF
05
0A
CE
F5
E2
35
F9
59
C6
15
EB
AE
78
5D
97
62
2E
27
CF
07
CE
E4
BE
3A
86
02
45
57
51
B5
19
21
44
00
75
4F
93
A6
4F
1C
67
79
D9
7D
B6
FE
A5
C4
29
6A
A8
BC
FF
78
17
EB
58
06
5C
6A
28
B3
35
CB
7D
D8
E3
BB
B1
0D
29
4B
EA
AC
34
02
78
67
C6
71
C3
F8
73
A3
54
32
79
79
34
E0
62
9A
4B
59
8D
8E
9B
E2
38
44
5B
0D
3C
CA
94
3F
71
E2
49
15
12
C7
95
BF
81
12
76
00
5D
25
1B
74
7E
02
16
2E
18
5A
FA
79
1B
2D
69
09
FE
07
47
AE
62
4C
AD
89
20
8C
CD
F4
F5
CE
BD
8D
5B
19
15
8D
AB
94
35
FD
48
C0
15
0A
D0
31
6F
D8
FF
22
67
7E
C8
89
80
E3
37
DD
E6
E9
B8
2A
BB
F4
39
15
CD
57
B6
01
EC
2D
53
AF
1C
92
33
25
69
75
73
A8
1B
AF
30
40
0A
0D
D1
91
37
72
18
D2
55
54
E6
E6
04
62
19
04
D1
A4
0B
DD
EA
B7
CB
51
C2
29
30
3A
49
77
38
F2
3C
3E
A0
D4
59
58
F4
7C
3E
A2
A8
C2
55
83
C3
08
8D
C2
91
E4
4C
E8
C8
71
22
61
0E
57
27
A6
45
98
89
6C
AC
7B
42
82
3C
DC
CB
F5
6D
41
48
54
BC
70
C1
66
10
72
41
E9
E3
50
7B
A4
FE
28
30
26
56
CC
D5
C9
69
6A
B4
5D
46
B2
37
13
71
9C
5A
0A
C4
9B
1D
80
A0
5B
B1
EC
29
BE
A8
C1
5A
7E
60
69
86
F7
80
D5
D1
9A
94
17
A2
4D
F2
B8
6E
0D
F7
05
87
3F
C2
26
14
3A
C6
7A
0A
5D
F1
37
51
B7
1D
D2
CD
DA
31
18
41
75
05
3A
5F
74
A1
FA
7F
0D
20
47
94
43
C5
EA
6A
DD
5F
00
06
A1
6D
60
76
8B
B9
96
F7
73
30
87
AD
AB
12
D2
61
EC
03
74
B0
05
56
53
32
6E
B3
AB
C8
A5
DC
0F
27
EB
48
90
C6
38
EC
B8
71
2E
37
22
BC
A7
2E
CE
9F
B8
99
72
D9
37
70
C9
B2
E0
99
8D
DE
C6
89
D0
A2
A7
9F
18
E8
59
41
F9
B9
74
01
62
68
02
35
83
55
F0
7B
BC
14
2B
A4
E4
E1
5B
E7
11
74
AC
71
40
BB
3B
F5
C8
30
84
3C
7A
55
C2
62
2C
2B
E2
0D
88
05
96
7C
5F
26
56
B4
70
25
BC
4A
71
3D
1F
48
CE
4E
70
75
AB
57
4C
90
CB
37
F1
8A
AC
FA
C3
51
04
82
1B
3D
AC
BD
10
0A
A2
C2
6B
4B
1A
8A
B8
03
77
31
82
C9
35
8D
C9
D3
AD
55
D5
60
71
EE
00
98
48
83
F2
9A
5E
82
DC
41
7B
54
ED
C9
C3
50
41
B4
CB
5F
56
97
0D
D4
5C
CD
0E
82
28
55
B4
FC
BF
10
E5
CC
7F
9A
73
B0
5D
76
86
5B
AC
4A
AF
BA
47
CB
D8
B7
C0
04
63
0D
C9
14
F9
88
8F
62
0C
49
D6
EC
00
89
FC
5D
AA
00
8B
8E
E2
8F
C2
B3
FE
BC
CC
35
8A
6E
07
36
53
AE
0C
7D
43
F5
A7
D9
CD
82
7F
75
15
AF
99
16
B6
BD
A0
3B
1F
C3
96
E2
00
C0
69
62
30
E6
9E
D2
8A
F5
3E
60
44
4C
03
72
39
56
13
1C
43
96
12
AA
43
C4
C6
46
CE
63
15
4E
5D
64
21
A9
50
59
A5
F5
7F
14
19
5F
06
3C
26
05
96
00
16
53
36
BF
4B
CC
A2
0B
2E
51
D9
1D
D0
CF
EA
77
4A
F1
8A
0D
82
7B
DD
56
BB
65
9E
0F
0D
81
E2
BD
5A
42
A1
35
E6
91
30
A9
0E
30
BA
86
9E
2D
65
D5
A1
D8
62
F1
F9
B2
6B
22
F3
5C
BB
EA
47
C8
EE
E1
31
64
EF
7E
B2
E0
B8
07
F7
7D
B3
37
0E
FE
CC
28
0B
26
37
F3
A6
BF
A9
82
92
18
4B
6E
2E
B6
EC
9C
A4
CD
D0
53
5D
B9
40
44
77
A7
DD
DD
3F
0E
5F
5A
29
D7
52
3D
59
FA
46
B2
EB
95
74
43
B5
43
A5
9C
59
B5
90
03
5B
89
18
65
5B
DE
44
B1
8D
E0
DE
74
3F
BD
03
AD
C9
6E
3A
19
CD
91
7B
92
F1
9E
43
C6
DC
0E
15
A4
46
7C
1E
E8
9F
8B
77
45
EB
CE
44
C8
CA
E8
44
EC
61
40
B8
5E
E5
48
06
02
B4
50
91
43
23
D7
3E
5E
A7
0E
B8
77
02
CB
CB
21
1F
59
4D
90
EC
2B
CC
54
89
7D
72
C4
6C
33
08
CA
94
18
76
56
F1
5F
3A
DC
F2
D9
B6
A6
09
8F
3F
33
FA
54
74
E1
94
6B
50
83
35
3D
79
E6
FD
45
28
3D
35
D7
61
98
CB
91
33
85
30
5B
BA
7F
2A
F9
92
07
BB
76
76
65
68
70
E0
EB
34
8F
84
0A
5C
F6
53
C3
12
3F
9F
64
CD
65
19
62
FB
06
4B
C1
F5
7B
BC
80
4E
C2
5F
BB
26
AF
58
2D
40
61
68
62
E5
49
47
DE
D2
3C
0F
BA
CC
CD
4C
F3
82
F8
CF
CD
3B
C7
1E
04
39
B9
C4
97
67
6C
8E
2C
C6
15
84
71
15
FF
0A
A1
06
DC
3A
6E
C8
54
33
EC
D4
EA
14
E3
A9
D9
67
3B
25
59
65
AF
62
DF
44
EA
6C
24
DF
2E
B4
8C
9C
85
9F
AA
53
F3
A5
55
EC
B0
E6
67
18
EB
40
C5
34
47
29
B2
A9
4A
62
23
EF
7D
C8
3F
94
6E
A4
5D
F5
3A
A4
1D
46
5D
AF
A3
31
41
D2
03
4B
5D
16
17
35
73
E7
D5
C3
E6
0A
00
37
D0
55
13
37
79
E5
22
F7
E1
E3
23
79
0C
B5
F1
86
52
8F
FC
00
8A
99
F9
25
E8
73
EB
5D
E0
E4
D0
30
30
1F
C2
2B
CE
B2
20
54
9E
77
60
4A
4F
08
98
D9
46
A0
EB
8B
63
33
EC
B2
B7
3D
B3
C8
90
31
E8
AE
50
E8
82
42
B4
E5
31
0A
4D
5C
FC
B6
3B
69
D9
01
FB
85
5F
61
15
32
A4
3D
6C
6D
48
CF
17
97
E1
E5
86
65
E2
C7
AB
F3
D2
85
D5
0B
D9
40
DE
ED
DE
F4
CC
AF
2C
FC
72
13
79
A0
18
7F
91
CB
28
80
5A
53
B9
1F
95
EE
FB
05
14
7C
D5
9D
9A
88
8F
37
B5
EC
F8
0D
60
80
CF
AD
84
B0
D2
B9
ED
D6
AC
70
5B
9B
F7
4E
85
8E
1C
0B
72
B5
FF
AF
E3
D4
C9
A3
DF
F1
DC
B0
9F
28
18
95
B6
67
47
C0
34
18
6B
BC
33
71
44
E3
C5
CC
D7
58
3D
F8
2A
BF
AE
D8
A8
DB
1C
D5
CD
78
C6
B0
2D
AE
3E
84
73
BE
F3
DA
31
1A
D9
E6
56
7E
97
FF
34
29
13
D1
4B
77
8E
8D
50
57
BC
CC
9B
A5
FD
8D
B1
40
56
AD
CA
CB
8D
60
D9
14
BD
81
36
1A
1A
6A
02
88
3F
25
5A
C8
B6
22
51
10
8A
32
6F
FD
C3
4B
9D
F1
01
28
52
97
20
96
68
D1
27
30
2B
00
FD
B9
F3
8D
35
6F
89
7F
45
9B
63
A1
0E
30
24
C3
D4
CD
19
E4
75
94
1B
F7
8A
B3
3D
7A
33
29
FF
E5
C7
9C
0E
4C
49
20
E9
16
A1
17
69
DA
46
E7
08
C6
32
F3
6F
0B
13
0C
FB
D4
E8
A2
8A
2A
09
E9
25
4A
D2
99
B8
69
4A
A4
1F
A7
93
05
A2
16
97
BE
C7
97
47
C0
32
18
8B
32
5B
C8
85
46
EB
5D
76
5D
DA
D2
0A
0D
41
4D
23
D6
39
14
EC
67
B2
54
91
92
6D
5B
E5
B9
01
67
45
1A
53
27
B3
AA
EF
13
10
0A
A0
8F
DB
29
0B
50
77
4A
81
E4
DF
38
07
05
19
15
B7
8C
B8
D7
25
58
D1
9D
58
26
CA
C1
09
AA
6B
BF
F8
46
8F
F3
43
04
F3
6C
FE
D7
43
47
28
42
12
5F
96
BD
AE
2B
29
9D
B0
E6
A3
03
67
E9
86
BD
71
05
2B
37
29
99
3E
7D
2D
50
E8
E3
E8
DF
3A
44
1F
44
AA
0E
6E
F0
E0
B7
64
4B
B1
1C
FA
62
58
FC
C3
21
2E
36
71
EC
63
7F
79
6E
94
2D
6E
A1
DC
10
C1
FD
A3
01
F3
0C
FE
70
D8
6A
4D
E3
75
74
EC
A5
6B
56
B6
FA
B8
BE
B3
E0
BB
70
29
FC
9B
AC
D0
26
EE
72
00
9C
AA
17
3B
07
C8
30
69
CC
23
E9
81
E6
F3
71
A9
AC
57
9A
F7
95
51
34
87
E3
BE
14
C0
A1
64
87
F1
0A
5F
B6
A5
67
4D
96
BC
B2
4D
08
40
C0
C7
42
79
1A
40
B9
BE
8D
B1
D3
47
91
02
DD
C4
FA
94
F6
DE
A4
55
AA
F9
99
B8
30
08
EF
D4
00
28
9E
CD
7D
12
09
03
1A
9A
43
82
5E
E6
85
5E
3E
A2
68
42
BC
39
B1
E1
AE
93
77
A0
08
56
C2
60
CA
02
1C
47
15
BF
8D
8A
3D
3D
31
4A
23
21
2E
FB
BA
D0
5A
34
A0
4E
F1
AF
D8
0E
02
B0
97
A8
0F
35
F8
B0
69
AB
81
51
88
B4
FE
CD
50
F0
23
17
75
D7
FB
FE
F4
5B
7D
EC
C7
27
95
46
90
8D
FB
93
D9
03
1D
F0
F9
A9
5D
34
65
CB
9F
15
28
88
0A
32
D3
DB
E6
3D
70
2F
D7
11
CC
EC
BD
41
1F
60
39
67
C6
13
19
ED
45
02
15
75
5E
D3
B8
CD
9E
1F
32
F0
A6
D4
D9
60
23
1E
DF
71
C9
29
5B
3B
BB
A1
AB
B6
7F
8E
B6
17
E9
4D
C2
C8
6C
10
24
07
81
CB
F8
5C
E6
E0
85
16
91
0D
49
41
D7
41
F4
E0
9D
FC
46
D7
56
6D
D0
33
2F
51
BA
A1
78
47
CE
CF
55
4A
2B
C0
6C
BD
0D
01
1F
1D
D2
39
25
73
9C
0D
A6
8A
4B
E1
06
68
49
ED
75
19
ED
56
6B
3F
0F
DC
D4
5B
CE
38
8C
0D
C0
0F
D5
03
DB
5B
A1
57
62
FC
01
93
C8
12
53
1A
C6
FF
A2
6A
05
03
FB
E0
1D
96
45
08
EF
E2
3C
F9
AC
80
C5
ED
4A
7C
0C
C3
6F
71
00
72
14
D3
92
B9
E8
45
97
97
71
18
5E
E2
B6
F6
B2
67
9B
5B
5D
B9
AD
F7
61
8A
7C
82
A2
73
16
6C
4B
FF
F1
8D
D6
E8
91
3A
29
63
8A
AB
8E
BB
3D
28
FD
7F
89
46
8D
CF
1A
B7
2A
8D
46
C0
E6
C5
97
C0
4A
3F
1F
80
91
E7
D2
9A
78
AD
21
1C
F4
54
16
A6
F6
FA
E6
FD
C6
E4
49
B3
FC
88
FA
5C
AD
2B
65
F7
B9
B8
48
E2
C3
7F
A7
1C
2F
45
05
E3
FE
76
AB
06
2A
54
C7
23
33
94
C1
25
A4
D4
E9
55
5C
1A
D9
88
17
72
0A
F9
B7
C0
33
3A
D9
BD
AF
9E
89
4A
8A
3A
78
D6
DB
ED
E8
69
F6
9B
5C
59
32
B8
1D
73
C0
D0
C5
FC
86
E1
9C
E0
14
B3
3C
10
EF
FA
11
13
A7
D0
25
92
3B
EB
83
91
7C
46
80
63
B1
10
8D
96
00
0D
C2
0C
F3
42
1E
20
08
17
92
C3
97
AA
51
52
20
0C
49
CE
84
5C
51
E4
94
02
31
B6
FC
38
DF
A1
06
FE
16
23
04
AF
B5
E1
7C
CE
EC
32
4B
8A
9E
86
82
42
95
59
A7
B1
61
D8
F8
92
96
78
9A
A3
C9
57
80
54
DB
3E
9C
46
62
31
78
E7
41
D5
49
E9
AF
69
AF
A7
29
BC
D5
A1
18
DA
32
B9
C7
CD
B2
93
9B
26
A1
A7
1A
B7
94
29
11
CE
70
C0
46
BC
C9
1C
CA
4B
E1
48
82
27
18
0C
EA
CE
17
35
74
9A
0C
77
94
6C
72
8E
C4
68
49
1B
EB
29
20
1F
17
C2
8D
3E
7D
AC
68
99
6B
52
50
39
5C
B8
C5
53
00
67
34
D5
A0
D3
24
03
56
ED
1C
B9
74
97
BD
BD
53
BB
78
8F
DC
C4
8D
DA
7F
45
66
A9
FB
B9
37
79
7D
A2
03
7C
F8
45
14
A9
BD
18
0F
C0
D4
24
87
34
71
13
A9
9F
EC
50
B9
2B
D6
78
E2
2F
CC
9F
55
A3
EA
97
EC
CB
08
C3
4B
AE
30
58
39
31
95
2C
1E
CD
59
2E
86
23
79
39
8B
65
C1
B1
B5
38
11
51
56
EA
1B
AA
28
71
E9
0F
23
C6
A5
DC
66
1C
9D
BF
DC
50
64
29
36
51
9C
68
C8
84
51
ED
25
D3
E6
F1
02
6F
C1
C9
B9
AE
FC
B3
F5
6A
BF
D4
C4
66
FA
01
C0
9A
17
4B
95
E5
5A
65
90
1F
7B
22
64
69
71
31
4D
BD
06
61
D7
52
7D
A9
A7
EB
97
29
90
77
74
63
77
65
6D
F9
C7
18
43
94
C6
2D
BD
D3
FD
0B
7B
06
7B
0E
38
03
35
5F
9C
F6
E8
70
44
75
3C
2D
30
BC
9E
70
9D
65
69
6B
9A
D0
40
F7
40
B3
FD
CA
25
1E
A3
BF
F8
51
AB
5F
91
8E
59
E2
07
7A
75
DF
FA
80
18
C6
2C
A3
FD
91
8D
3B
F2
0F
EF
43
5F
85
C4
D0
DF
D2
5C
70
B2
F0
83
F9
E6
64
AA
53
1D
B1
26
37
2F
B1
45
84
28
17
38
82
9C
A8
02
E8
73
40
C2
31
DC
E5
86
07
3A
12
1D
BE
25
75
19
6F
00
24
10
F8
AD
87
94
F8
46
0D
6B
DC
16
69
8A
79
D7
0D
8B
6B
15
84
86
D4
33
2C
58
26
11
3E
B4
3D
67
DA
1A
09
A4
87
DE
BA
54
FE
0E
BE
02
BF
8C
0F
67
F9
27
02
C6
2E
D8
38
DB
B8
29
2C
93
CD
75
1D
69
3A
3A
D6
83
6B
D7
98
76
55
B2
9B
29
E6
AA
5B
07
6A
45
7B
B4
51
31
EE
8D
B2
1F
95
91
75
71
3C
18
2F
67
A8
1F
39
3A
AF
44
54
C4
56
A8
DB
9E
98
CB
E8
3C
61
6A
41
BF
22
12
3F
D7
13
FA
AC
65
49
6E
FE
DE
BD
3C
90
AC
13
93
D8
EB
17
D9
56
6E
7A
E9
60
C9
78
6B
7B
75
77
C7
27
E8
FF
24
60
C8
DF
1D
B3
E9
97
31
55
92
34
78
30
2D
A0
2E
48
13
A0
34
F3
55
EE
8D
2C
C2
12
EF
06
3C
F0
B0
F8
F5
62
25
BD
19
12
45
6F
67
3E
91
88
BF
B1
99
AD
B9
16
96
C2
7B
22
73
E9
B3
E5
88
2B
33
A4
67
1B
29
91
0D
44
09
47
43
EF
67
3A
E1
E4
C0
6D
66
77
26
41
BB
E7
60
D0
36
CC
DF
0C
36
19
D0
D1
66
7F
4A
93
E6
9C
8A
EC
91
06
0B
38
31
2F
38
CA
11
04
84
A2
1E
B8
67
FD
6F
CE
4C
F7
D8
0A
0B
74
19
2E
3E
38
A3
9F
07
FD
88
8E
B0
C9
6B
22
19
7A
EC
44
AE
EE
48
AF
B5
0A
05
09
33
F8
82
40
A3
89
9B
29
A4
8A
51
32
6F
3A
11
66
A4
7B
27
2E
C4
04
A7
21
27
0C
32
E6
7E
2C
3B
0E
F2
8A
FA
CE
90
5B
80
12
29
C3
3E
56
73
EC
79
C9
5E
BA
35
B7
8D
5E
E5
C5
AC
C5
C2
E0
CD
B3
DE
98
B3
E6
C1
EB
5E
2D
D5
63
F4
FF
2C
A4
7C
A9
B8
0A
9A
CE
58
17
94
03
DD
B5
1D
78
8F
78
49
7F
D7
6E
67
61
A0
ED
35
BF
59
53
01
59
60
05
BF
71
4A
84
ED
CF
A7
5A
8F
8E
4E
69
09
61
35
86
4E
B1
BE
27
93
3D
F5
7F
54
5D
22
A7
26
FB
37
88
EB
6F
A9
D7
70
8B
17
C1
C7
E5
B6
C0
52
49
C3
98
57
08
47
92
18
7E
92
ED
42
F8
BA
DD
9D
FA
43
32
E4
17
A1
24
99
F8
DA
9D
90
2B
E8
48
7E
0B
EE
08
31
72
85
B0
BB
1E
54
FC
3A
A8
6D
98
27
28
9D
90
17
DF
0C
9B
54
72
2D
F9
9A
F0
5D
72
98
45
32
0F
12
A0
E0
E0
9D
72
1E
FF
D9
03
9F
3C
F9
A1
7A
82
98
2D
51
18
E8
A0
72
2D
3C
29
AC
5F
E1
81
38
FB
A6
BD
82
AF
F3
53
02
2B
44
B8
87
D3
E4
B8
37
C6
BC
70
ED
A8
5D
E6
DF
FF
4B
1E
17
84
F1
5D
BF
8A
44
C5
43
53
3A
9C
9F
EE
D9
8A
E7
BB
96
1E
CA
3A
25
C3
E6
37
12
9F
7B
5D
24
23
7D
6C
B1
D6
18
95
30
4A
E1
E3
A3
2B
96
A1
E8
75
FD
4D
0B
2A
B9
29
E4
E5
B4
8F
71
B6
A6
77
A5
97
C1
73
A0
D3
E7
F6
DD
A6
1A
63
B8
76
B2
FC
EE
C2
92
14
72
79
24
82
54
94
7B
84
4A
76
FA
33
D7
9A
3C
EA
75
A6
D1
A6
35
E1
9B
5C
C1
E7
C4
5F
28
E6
E1
05
EF
BA
36
FF
60
48
D6
63
0C
5F
E7
78
96
A7
62
B3
B6
57
AA
28
0F
22
94
C8
4D
25
D7
93
14
1A
BC
4A
E1
59
B5
56
38
A6
F8
62
74
8F
95
50
16
CC
BE
77
EE
6F
CF
02
DC
24
CB
5E
58
06
C8
7E
0B
71
FC
14
B9
DE
B1
9C
2B
4D
EA
12
A5
E6
2C
A8
2C
22
0C
97
0D
CE
B0
7B
F9
A6
E2
5C
4D
C6
00
C8
DF
7B
84
5D
70
2B
4E
05
90
76
04
A5
D8
4F
0D
82
75
42
CB
68
49
97
E0
BB
EE
E4
BC
CC
04
5C
6B
B6
5B
4A
98
61
F4
E9
65
9B
EC
F1
E6
52
5E
A0
61
AD
90
38
1B
1F
36
BC
93
DD
E2
F7
5F
79
5B
77
21
58
AC
D6
A4
BF
01
EF
BC
AC
6D
9B
62
F1
AE
D5
C9
CA
B4
33
27
8F
E8
DD
C9
F7
1C
03
9D
9C
80
12
4C
12
64
63
81
04
00
84
B0
30
97
F1
1C
D4
BC
21
8C
26
55
D0
CC
18
FD
68
1C
13
AA
D4
2B
BE
D2
90
CC
30
0B
22
EB
91
94
EB
69
1E
73
93
7E
99
BC
AD
C2
C9
C2
79
98
3C
4B
76
32
DE
FB
06
E4
21
97
FB
7F
D7
43
A3
44
0F
B9
6E
B7
7A
66
39
39
E2
6F
42
50
F1
33
B7
47
5E
B5
53
57
DA
07
74
0B
B6
46
B9
38
6C
E7
0B
EE
6B
7B
5F
53
0B
C7
75
71
40
84
8C
BF
8C
B8
1C
6C
8C
1B
8B
6A
B5
B1
7F
B1
18
94
88
E1
70
04
D7
B6
6B
12
27
D0
01
67
5A
C7
B9
4F
08
39
93
7E
94
6C
A2
C8
6F
04
C4
FF
30
C7
4D
41
24
F1
39
2E
51
B5
F3
10
A3
2E
61
47
17
1C
8E
79
6B
02
80
5A
53
BF
03
D5
F3
DC
76
3D
10
E6
51
7D
AB
CA
01
A7
C3
3D
DC
5C
A2
70
F6
D0
4F
46
FE
8F
6C
9A
4C
E4
D3
6A
06
AB
2C
E7
F5
67
D7
D1
BC
06
73
99
57
11
B5
2F
40
F4
8C
E6
4D
4C
A0
89
BB
A6
A3
E4
A6
81
50
A2
CB
DA
1A
74
50
C3
E8
35
B1
43
2A
51
95
BC
EE
75
5C
4E
DA
54
7C
AC
A4
B9
46
EC
4D
2B
F9
A4
94
BD
64
8A
98
70
07
58
51
D5
7E
51
F1
D3
0A
07
2B
47
96
7B
62
D3
86
A7
68
69
72
47
8A
73
A1
F6
2B
40
E5
B0
90
96
19
92
CF
29
FC
EF
95
45
F3
A3
6F
87
66
71
85
29
81
56
8B
5F
94
F2
FD
F2
9D
81
65
76
44
F2
9F
23
AD
29
CC
BC
1A
58
39
2B
31
CD
C3
D4
FD
64
0D
3C
E4
85
F7
17
E0
A0
B6
04
49
55
7A
94
16
00
03
25
66
68
DD
2B
E2
7C
E7
26
B2
C1
EE
5C
56
83
39
F1
67
FE
C8
FB
34
75
C5
B7
FA
2D
BC
CC
F0
02
13
E8
D7
8A
15
65
D0
87
5E
E4
14
56
D2
7C
A8
72
46
59
36
6A
F6
8D
72
71
83
79
72
5B
06
A0
60
5C
E9
17
25
5F
59
07
D4
A6
76
C6
80
2E
EE
9A
DB
27
28
CA
B5
E9
10
34
5E
47
9D
91
54
22
D5
A4
DD
77
D5
CB
64
AB
CC
37
D0
AA
16
9D
09
FB
57
0F
0A
3C
A5
A4
F4
E1
E0
6C
59
04
4E
3F
79
98
CD
89
91
CE
92
5C
C7
35
86
A3
CB
83
9A
C6
20
8D
96
B8
AA
43
15
40
45
90
19
B0
D7
69
EC
8F
21
70
89
30
DC
93
F1
EC
8A
1B
BA
DE
D6
5B
D0
03
9D
2C
35
CE
1D
DA
91
C9
BF
87
B5
50
32
1B
D9
40
45
A1
30
83
9A
14
FF
DC
85
F0
E2
B1
36
0A
54
0D
56
35
17
08
D2
F7
7B
65
CD
64
F6
BD
54
19
87
26
47
18
AE
95
BC
7B
09
68
76
11
8D
FA
CE
72
43
12
5F
18
8E
CC
05
EA
28
03
84
2F
6C
5F
DC
DF
71
F8
65
01
33
CD
88
24
46
A3
FC
5A
C2
43
FE
AA
B3
60
26
9A
CC
DB
5E
1F
ED
8B
84
4D
61
95
5E
08
C3
0C
AE
EA
BA
B0
CD
79
37
D7
E1
EB
A0
0C
0D
25
A7
66
A5
66
58
E7
6C
5A
35
E2
F5
F6
B8
B9
97
DE
2F
DF
2A
D4
2D
CF
40
C1
22
DD
D7
5A
35
80
41
AE
C0
DE
CA
FE
D7
B0
4A
94
FB
D6
B7
EE
CC
D0
C7
80
03
87
7D
E6
EB
36
5A
46
2D
E1
28
AF
FD
C7
7C
2A
DA
4D
5F
7E
FE
73
5F
A7
77
A6
6C
70
A5
1E
AE
A3
3E
F0
B0
B7
8C
61
2A
C2
47
3F
52
B2
EE
E8
D4
3B
E0
C8
E9
83
89
1F
09
84
18
00
34
71
DC
B3
9D
68
46
33
17
89
BC
DB
DE
5B
89
89
CC
BF
AF
B6
98
CF
75
4D
D7
FC
7F
B7
29
33
47
F5
6F
D6
DA
F1
C7
E8
B0
9A
D6
E1
94
B2
D8
C2
96
4E
7C
B4
36
1E
87
14
82
A3
C3
D2
C7
31
06
33
D7
0F
D5
73
67
32
E5
9B
23
42
26
A5
47
39
D8
A9
89
77
9F
C9
43
71
FD
CB
B9
90
0C
BB
08
CF
F9
43
21
98
22
33
94
9F
64
0F
F2
82
20
AF
DD
CE
D0
56
2A
4F
A9
4D
EA
CE
F7
79
89
E6
C5
94
E7
D4
1E
7A
8C
A8
E1
D9
16
C2
FF
C3
94
15
AF
93
88
3B
CC
00
61
05
6D
C2
63
88
E1
C3
3B
99
A6
AF
B0
CF
BA
3E
95
53
95
7F
B1
BC
84
AA
7C
BF
A1
38
86
4E
8B
FF
6A
2E
0F
34
04
FB
C9
A4
EF
E2
BC
9D
59
3D
89
D4
BE
C7
76
57
B5
1A
8F
6A
AB
62
D3
23
B4
2D
31
45
2B
32
47
58
D9
D6
AF
17
AA
E1
1F
30
8B
09
66
14
DC
B3
3F
81
AE
CF
E3
C8
35
6E
14
BB
B0
9C
8C
3E
CA
63
1C
38
CD
A4
B3
7F
99
E0
16
62
EB
BC
ED
FD
6C
A4
97
F9
28
79
C3
49
12
A3
C7
86
78
FD
91
0D
84
3C
10
6C
DD
41
38
88
1C
15
49
5A
FD
A4
68
79
62
2A
12
A9
47
DA
28
37
71
04
FA
54
80
14
B0
18
9C
A4
DB
BE
6F
46
77
42
F7
68
06
76
2E
87
7C
2D
48
DC
6D
F8
A8
73
DF
3E
E6
DF
A7
0C
CB
87
C9
4A
87
AF
02
CC
53
9B
9D
DC
98
D5
40
87
7E
E8
53
69
23
A0
91
86
6F
3B
9E
9D
E6
2E
83
AB
CF
B9
F5
D3
84
FD
6A
AE
08
CB
07
5D
58
6B
80
EA
D7
BA
3B
31
D4
D0
49
4A
C3
FB
07
85
84
3D
96
7B
B8
7C
86
DC
98
4A
9B
01
5D
49
0B
2B
B3
A8
86
2F
AF
F4
0A
BB
F0
05
3A
FA
2B
74
26
65
77
CF
2D
77
69
E2
A6
1C
6D
39
DC
28
99
E6
8E
03
7E
B6
D0
32
3B
AE
AB
BF
99
31
52
AA
C7
5E
81
19
9B
9F
D2
EC
9C
E1
8C
A4
4D
17
82
57
73
5C
B4
53
2E
7C
11
27
ED
47
FB
58
BA
AF
7F
40
54
88
96
B1
A7
A0
9D
86
96
71
83
B3
0C
E4
C8
D8
2B
4C
56
97
FA
AD
C8
46
0B
AC
5A
EC
B1
B0
CC
5D
4C
E0
63
4F
46
48
05
C3
7F
87
A1
49
DE
D8
53
62
4F
8B
11
01
E4
5D
75
17
15
AC
2C
6E
D1
A0
70
53
40
B1
3A
B9
4D
5D
F1
03
FC
9C
C1
0B
98
BA
62
2E
71
BA
A4
AE
5A
EC
28
08
4F
9B
88
8D
ED
B2
B3
13
BE
9A
AD
F9
D9
C1
D7
34
6B
17
1E
2C
46
69
0F
EF
D8
CD
6D
1F
DA
9D
72
1D
FE
3D
A3
BE
8B
D5
31
05
3D
2A
2B
90
EB
1A
5D
C8
C4
0B
EA
FC
32
25
04
40
2E
31
73
C6
91
07
7A
21
09
A7
FA
FF
0B
C7
EB
58
23
99
DA
D0
00
4D
85
18
40
BF
E2
65
75
AF
57
67
3A
83
FE
4D
7C
1F
9B
98
F7
E0
4A
FB
66
68
0D
D8
88
1A
7C
08
99
9E
8F
93
AD
F3
DA
5B
DE
66
C4
79
84
69
1B
C0
33
F7
54
A7
E8
F1
D6
DE
AC
A1
1D
15
F5
40
EF
FB
0E
E8
4B
12
3F
8E
BC
7F
91
A0
82
E2
23
D3
BD
1F
83
EA
9E
77
8A
5F
E2
6D
53
BB
34
07
A4
70
5A
CF
4C
1D
97
88
53
17
A9
37
A6
6F
F2
23
C9
D4
EE
1F
A9
5B
69
0C
7D
F3
EF
7C
EF
54
69
01
B2
E3
ED
8D
18
C1
98
A3
9E
77
CC
E3
AD
BA
E4
23
15
E1
88
48
62
4C
0A
C6
AF
E7
1B
C3
C4
1B
4C
63
E5
71
C9
C3
55
DE
4A
47
42
D3
99
24
A4
56
B7
F8
30
3F
B6
59
2C
72
C2
F0
6F
52
4B
BD
AE
1B
DC
61
05
D0
CD
7A
EF
60
67
1B
12
25
25
99
A1
81
A5
8F
18
52
C9
1A
F6
91
18
B7
49
F2
ED
C3
19
0E
FF
6B
8F
8A
66
FC
A0
0D
63
B8
55
89
61
D4
0A
15
41
0D
95
63
D6
B9
41
E4
E3
FF
1C
E0
7C
A7
A9
41
90
17
EA
3D
98
87
F0
30
EA
FC
FB
B2
DE
A3
F9
08
16
B2
8F
0A
74
99
F6
27
26
90
84
E2
71
D3
41
EC
0A
14
11
B8
56
C4
F4
4E
86
CB
31
18
94
FC
63
6B
03
D9
E3
D3
27
5A
38
1B
FD
66
CF
55
B4
7D
49
EC
2C
57
21
2E
E3
66
94
ED
2A
F1
9E
AE
D0
D6
2B
C2
D9
71
23
AF
9A
7C
24
4F
D9
DB
B7
2F
65
61
1C
DB
C7
AB
4E
78
47
3A
21
64
DC
7D
B4
EA
A9
DA
87
1C
86
28
84
99
9F
70
77
90
27
50
99
F8
3E
B1
67
CE
35
37
B9
3B
D9
FD
EE
2F
CC
CA
37
97
83
31
CA
7F
7D
BA
9C
86
93
91
88
6D
6C
D5
61
27
AD
74
6D
5F
E1
7F
94
04
7B
4C
6B
42
77
C7
D8
90
12
A5
65
66
F5
D4
02
A0
2A
F7
9E
83
35
84
C6
F1
B3
42
58
9C
A3
5B
AC
89
B2
49
CC
A4
2C
24
05
26
64
2F
75
46
53
C7
D3
83
3E
13
DF
BF
04
E2
6E
57
8A
6B
D6
EC
6D
81
A4
E0
64
0F
24
57
4C
63
2D
F8
96
D4
8F
97
92
CF
EB
94
59
90
8C
C2
1F
94
3F
02
06
8C
60
DC
02
AF
6D
78
42
E9
47
FE
A1
DA
2B
7E
84
4A
6C
B5
EA
E4
5A
43
F1
3F
00
0C
28
FF
50
6F
2E
90
94
5C
C4
C3
50
28
B0
61
8C
03
31
7E
43
57
AF
6A
11
EA
99
26
A9
8C
62
6E
FB
BF
76
31
FA
84
AC
6F
6F
87
47
6D
68
E3
AF
01
B7
39
85
E4
86
5A
7D
4B
F1
5B
B3
47
27
F0
F0
4F
C0
C8
55
12
4A
E7
61
54
06
61
8C
73
7A
12
9E
B5
B6
13
98
2A
39
D0
3A
2A
1A
95
FB
81
42
91
14
56
E4
ED
D6
94
16
1F
77
1B
C2
38
D8
4B
20
5C
F3
3C
40
55
A9
AA
4C
1D
13
42
8B
08
18
5A
FF
99
B1
4B
7C
7C
EC
57
34
C2
A2
94
E5
D3
33
AD
1E
3F
CF
3A
79
AD
62
E3
BB
38
C6
EB
AF
C8
6E
E2
9C
4C
A6
58
C3
75
F4
78
57
C5
C8
99
59
6C
3D
8B
8D
34
C7
0B
2F
8B
61
D9
83
E2
F4
AC
7E
E0
B2
08
C2
48
EE
85
BD
52
F4
DA
75
44
21
42
1D
86
3D
FB
A4
D8
2D
8C
86
D4
E9
AA
67
E7
10
42
F7
33
F6
94
EF
01
4C
15
2A
CE
29
55
50
5B
CE
A1
4A
57
A4
FD
E4
70
C1
D8
3B
77
00
95
48
77
B1
5D
CB
71
9C
A3
50
C2
F6
6B
BE
DC
8A
32
D6
52
B5
28
B8
C9
34
3C
0B
53
BC
FD
47
BA
D6
04
8B
83
99
30
D0
5E
5D
C7
EC
11
14
5E
92
5B
74
AE
2F
EA
99
F8
1F
D2
77
6C
19
E8
96
D1
58
80
A4
85
9C
69
4E
CD
B8
9C
AE
8A
4A
76
6C
0C
FE
D9
A0
79
99
49
82
3E
7B
07
EF
E6
7A
B0
E2
32
B5
E6
29
C4
A8
E0
61
CE
1E
4F
8A
04
FD
BD
A4
D8
C5
42
C4
7F
AD
19
17
5E
E1
FB
AE
F6
3C
3D
0E
EE
80
DF
AE
B4
A5
B6
28
39
FD
C6
42
10
BE
DC
3C
9A
63
98
BF
50
19
3D
18
A8
B2
29
C5
2E
0C
D0
08
A2
14
E1
02
93
01
B6
28
02
25
65
ED
1E
95
7D
69
6F
70
21
A2
34
14
FC
FB
61
4C
2F
6A
3D
48
F3
61
DC
25
B8
09
94
68
22
6E
76
67
1F
05
F6
AA
E4
F2
9B
E0
E7
7E
38
16
66
8A
EF
0B
3A
E2
E9
54
AA
DE
12
8C
E3
AF
8B
59
BE
08
A0
AD
F7
B4
4B
C9
31
A2
11
AB
CC
AD
A1
6A
80
1C
87
F3
63
A9
70
0F
06
80
46
32
E3
CA
93
EB
BD
2D
91
CD
63
03
5E
61
91
FE
F6
3E
3A
58
19
DA
F4
73
30
8E
4F
EB
26
B8
7B
EE
56
51
47
82
8B
4C
AF
ED
2D
2A
13
FC
F7
C3
14
59
65
81
45
34
AB
04
C1
C0
78
AE
FC
22
40
90
39
A3
6D
D2
04
D2
77
30
C7
3C
7B
70
17
8B
1E
EC
4A
90
9A
9B
AB
4E
D8
DA
77
74
2C
36
1C
7F
00
93
C3
D6
39
48
12
E3
54
E0
B2
7D
34
98
7D
E7
84
83
6D
94
54
04
A7
83
EC
9E
2D
B2
A3
A7
01
DF
D4
BF
2B
24
2E
29
B0
29
33
2A
09
94
5C
BF
45
3D
E3
BA
24
44
2C
DD
2B
A7
96
51
12
E9
BC
5F
BD
9A
B7
4A
89
EE
9A
51
A6
98
83
9A
1C
E9
5D
65
90
36
5D
99
A8
7C
B3
5C
52
DF
C0
A0
AF
80
DF
89
53
A6
A7
96
C7
5D
1C
06
FA
8D
7F
67
FE
E9
1F
89
0A
E2
0D
3C
9A
BB
CC
30
94
D7
0F
EB
4B
6F
3A
E1
2B
1F
AB
23
DD
36
4D
0B
70
D5
2C
FD
45
7A
65
A0
66
13
43
AA
AA
64
83
1C
87
A0
2C
6F
7B
58
C8
62
7C
03
28
34
08
B3
34
AF
48
A6
57
9C
A8
1E
B4
77
FC
74
86
C5
12
4B
96
61
D6
D2
D5
1F
A9
56
FC
1C
E4
E8
E9
AD
53
2F
87
57
78
D7
77
92
F7
E7
27
48
70
65
65
C4
59
B1
66
C4
13
F7
20
6C
94
3F
12
35
9E
DC
DE
45
A9
DA
6C
46
8D
EA
EA
D1
A7
D3
DD
FE
D5
A4
5D
0B
9B
15
2D
C2
CB
83
59
76
43
1A
C4
48
D3
78
F5
88
74
5E
90
44
45
61
5D
AF
A5
C3
62
C6
A3
CE
F7
C8
DA
6F
8E
89
7E
0D
7A
61
9C
06
89
10
69
8D
33
27
61
C5
CC
C0
7D
53
F3
0A
98
24
AD
15
A6
52
B3
74
F0
E1
93
4D
99
A5
59
C3
6D
D8
7C
D1
94
25
ED
FD
59
72
DB
D4
45
80
04
CC
81
F6
6E
12
6A
30
85
ED
81
C7
ED
C3
08
9A
BE
E9
61
78
D5
63
76
26
F9
C2
7F
82
CF
C2
67
29
CF
92
11
BF
E4
EA
A0
27
06
65
B2
1C
CF
02
D8
FA
45
84
A8
97
FA
02
72
56
72
B4
E6
7B
43
54
93
64
1D
18
56
D1
3B
DC
77
9F
7B
F6
BA
50
76
63
3B
23
50
42
0A
50
38
B4
BC
02
0C
CA
5D
19
D2
4C
3F
3C
7E
E2
68
03
2C
6D
91
52
F7
0A
9D
68
F9
46
53
D3
4E
5A
33
AC
BD
12
20
AA
60
30
3C
19
80
B4
9B
17
D3
D6
65
78
54
B0
E2
DF
DF
E1
ED
E6
19
9F
36
EC
16
25
14
0D
BD
50
0D
29
DB
F7
8B
AD
A2
44
88
3B
12
B0
AD
D9
7F
AE
37
97
B1
5A
5E
18
0B
20
8F
7B
ED
0D
52
C2
86
FF
04
AB
09
5D
AB
24
8D
7E
B5
46
28
B7
02
6A
1F
6D
AF
97
33
20
42
15
C5
52
EC
41
87
26
34
45
87
EE
88
6B
D1
3E
EE
30
B6
63
DF
E5
D2
C1
D2
47
D3
5B
7C
03
F1
3D
A2
F2
5C
91
E8
8A
A8
93
28
2C
77
51
4B
A1
39
E2
BE
CD
DF
C0
5B
8D
F4
9E
A2
1E
6B
8D
58
1C
15
81
26
DE
7D
90
94
80
A6
C8
9B
43
D2
61
47
8E
BD
7B
E1
64
FD
DA
87
BA
E7
7A
D0
1B
4D
FB
8C
BF
9E
99
22
FD
17
62
18
70
4B
A6
6F
86
98
11
1A
5F
80
6B
1C
D9
AA
02
25
55
66
B5
15
9C
99
C8
B7
06
EA
2C
A3
E8
83
67
BD
95
36
98
83
7E
5B
BA
22
02
D0
45
E9
BD
D9
57
F6
60
EE
27
FF
39
F6
74
88
8D
77
27
FF
CF
E3
3E
48
55
37
24
3D
98
5B
76
56
E5
2F
85
1A
E6
86
43
F4
1B
9D
2E
07
50
01
08
16
49
51
D3
A7
4F
FE
D9
60
1E
C6
44
C6
A7
CA
AC
8B
39
76
23
8E
A9
C9
34
A4
AE
B9
57
0C
B0
6E
57
BC
CD
CA
BF
41
A2
37
12
C4
AD
4C
CF
73
78
A5
59
EE
8C
F0
5E
C5
4C
53
00
7C
D6
40
48
2C
BC
97
90
DD
85
D8
B2
3C
72
0A
4C
83
10
C9
50
7A
46
99
4F
39
E2
38
0A
E7
BC
5A
A4
69
23
03
49
F5
DF
A6
0D
4B
94
F5
73
D9
7A
95
7A
66
C6
57
D7
95
DD
7A
E1
A6
27
34
1A
63
FE
FC
38
AE
69
ED
9B
B0
7D
C3
BE
E2
98
65
3C
51
23
51
D7
A4
00
16
6D
97
4B
CE
E8
97
66
0C
7A
E4
66
58
71
0E
07
B5
A9
9F
AF
E1
5A
5F
DA
20
7C
16
8D
6B
3F
04
5B
55
79
DA
0F
23
D7
85
39
2E
04
9C
FC
84
17
20
EF
41
A3
B5
B8
E0
48
6C
97
F5
39
54
65
A7
33
96
A0
F0
D7
A1
7B
06
02
40
D9
40
E4
6C
FD
21
E3
26
D3
B3
C7
EC
68
FA
04
14
C8
F0
1E
5C
ED
9C
14
56
09
4A
4A
61
A9
F0
5A
F6
AA
EB
48
7C
51
58
D0
7E
8B
5A
F2
AA
F7
96
2A
BC
4A
2C
B4
9A
74
75
80
2B
C4
A2
D7
C6
88
06
82
EC
C4
91
23
E5
24
DA
D5
2D
2F
DF
01
6D
C6
73
8F
3F
FA
DC
FC
8D
1F
95
21
13
D9
4C
A0
93
6D
FB
33
1A
F9
D2
94
7D
BC
F8
21
22
5E
FD
3D
39
5F
60
45
F1
2E
17
2F
80
CC
C4
63
73
A2
B7
35
29
86
DE
8B
5B
9C
C9
1D
34
78
FF
AD
4E
C7
70
57
61
99
83
D0
A6
8A
42
69
5C
6E
4D
9B
08
17
13
9E
E5
BA
51
D4
60
5E
87
88
D5
1D
60
4B
A1
05
41
67
F1
78
E7
A9
14
C9
56
F4
75
EB
F3
72
AC
31
80
FA
F5
60
50
3F
31
3F
46
66
03
FC
24
5B
A9
92
81
6A
80
39
70
7C
E5
65
78
4E
10
0A
3E
44
46
3A
BE
71
CD
26
DE
EE
9B
04
77
BE
7F
48
78
04
EA
36
5F
2B
E8
02
CD
D1
AB
AA
E7
AB
71
0B
D8
FB
BC
55
E1
28
89
2C
0E
F3
23
8C
1D
B0
74
F5
DD
7E
AE
47
06
34
CB
22
2F
6D
EF
B7
46
CB
CD
EB
DB
47
3E
F5
25
00
86
29
DD
B5
E5
C6
DC
FE
B5
0C
5D
B9
E9
9E
40
CC
A5
6C
5A
D7
41
66
7F
09
82
01
97
4E
0B
A1
4B
36
EF
41
A8
C0
AE
3C
96
7A
D1
33
CF
4F
B1
8D
CB
34
E6
AF
9B
91
46
BF
0B
75
AA
C5
19
49
63
AC
37
26
72
69
14
B9
FD
32
29
01
B3
F3
D7
58
D6
9B
8D
20
0F
9F
05
4F
8E
65
F2
F0
AA
16
96
5B
94
E1
53
80
C2
AE
A2
80
E3
44
BB
AB
BB
9B
CF
D3
45
8C
BB
11
AC
FB
5A
BA
C5
9D
45
11
2E
06
69
84
45
50
5F
D6
ED
54
5F
0B
91
65
D6
3A
BD
9A
B3
6D
AF
EB
E6
58
0B
A4
F5
32
0D
13
43
2C
77
8E
8D
C9
9D
8D
46
76
D1
C1
B7
9B
94
64
D2
F7
71
6B
88
2A
2E
00
C8
A4
55
DD
C1
6E
79
24
39
0F
04
E0
E2
A5
9A
87
5B
75
29
55
27
6F
F2
86
29
51
22
0A
BF
48
E3
04
EE
24
9C
FD
08
4F
D3
0C
E8
B3
BE
FF
BD
80
D8
6B
9A
43
D7
9E
4D
86
64
F6
11
B2
45
BB
8C
3A
56
D7
1D
23
71
5B
03
6B
6A
BF
2B
E4
6A
54
3A
97
43
9D
59
0D
86
01
4F
9E
A3
DB
4F
3B
92
94
69
B7
F4
8E
E2
33
7F
DC
95
BD
EE
96
EB
A3
7A
00
47
34
EF
5D
77
71
95
C5
5F
5A
BE
60
3F
25
05
CC
71
C3
9C
F6
54
B8
65
01
E7
EE
AD
1D
7F
2B
65
DA
C3
C1
1A
66
C9
A6
7D
83
7E
92
63
9B
B2
56
BF
C9
FB
0F
C6
A9
0F
AB
EC
E6
6B
7E
EB
52
45
99
BD
64
38
25
94
E6
31
92
9A
9C
E8
FB
3D
99
32
21
6C
A3
68
80
11
E8
27
4A
57
37
B7
39
F9
7E
27
23
DF
92
E2
78
8A
44
A0
2E
A0
4C
AD
BF
61
E6
D0
A9
1D
1F
22
84
A2
C3
79
E4
81
59
EE
21
33
F7
BA
AC
D2
B3
34
5C
8D
7B
4C
1A
4E
D8
9D
E2
E6
D0
27
5B
6D
C1
CC
7B
3F
24
AA
D9
16
70
8B
BF
F1
3D
5D
1C
70
97
2D
9E
84
64
50
65
12
E5
D7
B5
D5
E5
C5
23
44
26
95
3C
A4
F8
14
70
AA
08
4D
B9
CE
60
20
40
8E
99
6A
9F
BB
C3
4B
0E
65
9E
FF
4F
AA
F7
CE
33
E4
10
C0
AD
DD
83
A6
55
90
71
14
33
FC
10
32
A9
F8
F1
87
24
96
D3
16
21
BC
BE
4E
6F
1A
F4
C2
55
AD
B0
6F
56
3E
A6
9B
98
DB
CD
AB
40
6E
B6
55
92
CC
58
AD
62
B5
77
4A
59
3A
12
C2
3C
A1
FE
3E
63
97
29
D6
63
B7
BA
1B
A6
C2
92
9A
95
41
6B
9B
C0
AE
00
61
0D
63
EB
C4
E5
8F
4F
17
E0
79
8F
CC
59
73
CA
6D
18
6C
D6
A9
24
06
07
36
0B
17
34
E7
E1
76
76
F8
16
9C
DE
52
2B
1E
1F
2D
23
CA
E9
9C
C1
E6
A5
CE
DE
91
A6
A8
92
EA
98
C5
0C
F4
00
EC
3D
92
73
8C
F2
3B
C1
0D
C3
73
AA
47
2F
DC
B5
1B
F1
9A
17
25
F4
3F
00
F1
67
DA
CB
11
F8
F5
28
8B
C8
41
9B
DE
76
79
FE
18
FC
FF
13
8D
8B
1E
97
E0
31
B1
9F
DF
30
4F
67
CE
E5
11
91
9E
10
27
E7
0C
CD
18
9B
4F
32
85
D8
22
C1
66
4B
65
3F
23
0D
CE
E3
EC
93
6A
41
EF
5F
C7
44
3D
2F
0B
05
EE
FE
9D
00
9A
F3
68
A7
92
70
D5
A1
8F
A5
56
67
40
AB
61
21
80
C5
0C
B3
FC
6E
28
BA
63
05
9C
DD
4A
8C
71
C2
C2
92
ED
AB
F9
8D
B7
5B
89
2F
83
DB
8E
F9
58
45
13
0D
BF
F3
CF
20
9B
35
A1
52
6F
93
3F
99
32
74
61
3F
35
FC
B0
E6
25
21
97
E5
8C
45
F8
57
96
E0
F3
C8
57
58
A1
1C
6D
14
B1
EF
4B
AC
17
95
46
13
4C
D8
74
B5
1F
1A
61
2E
48
3E
FC
EF
93
94
97
5E
1E
53
35
58
A9
55
E9
12
AF
DE
91
DB
2A
F4
4C
FA
FE
73
CC
E0
5D
00
CD
4C
9C
94
86
88
9C
3D
95
B7
77
CA
A0
7E
C7
49
F3
D9
E6
E6
2B
56
A7
7B
C4
A0
EA
7D
3C
AB
D3
C0
25
5C
B8
B0
0D
4B
3D
F6
28
21
7F
71
5C
4D
20
BE
7C
58
4B
82
3C
AC
0D
58
B5
A4
27
68
4F
7E
4F
84
01
0A
D0
31
FF
D8
8C
8B
41
06
75
35
04
3E
FF
4F
B8
27
BD
B9
AE
5C
09
94
8F
D5
6A
BA
A5
86
2E
D3
9A
60
BA
77
F4
32
E1
50
69
79
DB
EE
67
67
89
76
22
45
66
8F
FE
F5
FF
B1
E8
EB
5C
2F
74
F9
91
AB
B6
D6
9A
63
84
D7
9B
32
7F
BE
CC
57
22
DA
75
3D
39
89
2E
22
D4
25
48
66
8E
F9
2A
49
FF
38
FF
6E
CA
EF
39
08
E8
9E
08
FD
A9
63
66
D6
FC
CB
16
00
C4
E7
E1
EF
5C
6B
3D
10
C5
A2
7E
D9
9B
AA
D0
7D
47
D4
C3
7B
02
E3
E5
AB
48
57
4D
C5
76
B2
C8
4E
27
85
87
84
9F
CB
90
9C
FD
37
AF
AC
71
FB
49
DC
E8
09
6F
D9
13
B1
DA
60
5B
48
EA
DB
26
CF
F0
CE
9B
4C
E6
52
9E
A1
09
30
AF
97
89
8B
AC
16
14
A0
63
9C
B8
2C
F0
5E
0F
AB
43
A6
E0
DB
53
A4
27
80
36
AD
B8
D5
23
1E
7E
E7
51
D5
E1
F0
D2
6B
A1
F6
B9
B3
F8
5D
27
14
92
36
53
2D
8A
FB
FB
F8
A1
21
CE
2E
00
FE
FF
9D
59
2A
B9
E4
6C
00
6B
6E
FC
94
4A
4F
4D
AC
2B
16
98
EE
71
27
55
F7
64
28
AA
86
85
D8
55
B0
5D
A4
17
34
55
74
29
9F
2E
61
C5
AB
B2
48
68
AD
30
43
35
3F
3C
2E
CA
DC
C4
35
05
C7
D7
64
DB
8D
ED
16
EC
85
0C
4D
F7
78
B1
CE
4D
7E
D0
71
1A
47
4A
F8
47
51
85
94
76
0B
1B
5B
D1
05
E2
B8
FB
70
39
95
23
A1
2F
ED
42
0D
30
D1
FD
B1
17
42
34
83
6A
1E
86
EA
1A
BB
3F
E9
E8
E7
A8
F2
32
35
47
E8
66
D8
B4
F1
64
AA
27
71
90
B2
74
83
F7
37
00
EB
3B
8A
5C
23
CE
9E
26
F5
18
B1
EE
0E
10
FE
7B
00
38
36
89
46
95
72
CB
A8
F3
63
B4
0E
79
19
32
B3
F7
70
C4
A1
66
CF
7B
2A
23
A0
91
73
CE
05
49
11
2D
F1
48
A1
09
C8
80
98
14
AE
B0
B2
B7
9D
85
71
79
CB
17
F7
6D
B0
B3
D3
71
D0
54
BA
6A
0A
4C
67
81
12
29
F3
55
D3
23
B1
D4
81
2C
82
FC
1B
8D
99
66
80
D6
C9
24
5E
DC
21
4B
CB
07
36
8F
31
21
23
13
1B
8C
2C
EC
57
0E
89
96
28
FE
BF
BF
ED
48
A0
F5
41
80
42
30
C5
A0
27
01
CE
A2
1E
0C
13
D6
D6
5A
5C
F2
1E
4F
92
36
31
FB
D7
FD
01
A8
EF
AD
2B
44
4A
BE
81
15
74
0C
2F
A4
52
03
06
DB
C1
D0
6B
CA
57
74
45
25
79
17
C4
B6
0A
57
1F
84
C3
6C
50
38
94
AF
20
BE
F8
3B
F9
E2
67
AB
27
1D
E3
10
A1
D1
76
9D
81
F2
E5
90
6A
01
24
77
C6
93
5F
1E
04
3B
C0
D7
F9
CC
D1
D2
34
F8
2F
B4
64
54
67
CA
BD
2A
28
74
96
5E
8C
23
91
F6
B9
F1
B2
03
45
81
5D
55
48
BB
F4
67
F7
C4
92
99
21
A4
A1
A6
89
DB
7B
14
E1
C9
A1
A5
D8
BC
CE
DA
8D
70
98
6A
95
22
A4
61
57
08
F0
93
15
F7
ED
76
0E
63
D6
56
E5
12
9A
28
B4
64
B7
4B
80
E4
D3
A2
A9
7B
B6
6F
86
97
E7
28
53
E7
B8
C6
28
B0
3B
43
07
73
05
21
EA
9E
18
5B
01
E3
43
C0
37
42
E3
80
10
C0
AE
7E
8B
F4
9F
F6
22
66
87
11
E7
10
C1
0B
9B
62
B4
98
2C
D3
37
FA
E2
64
15
AC
1E
A6
24
35
C3
C8
67
77
04
B6
C8
6B
D1
ED
70
70
68
0F
57
6D
AE
0C
5C
26
BA
1A
BF
C1
A8
8A
08
45
6A
B7
56
F2
D6
30
E0
71
42
46
1E
A0
1C
A1
CB
2F
2A
12
E0
4C
A7
DA
ED
23
27
9D
5D
75
8B
5D
76
9C
11
8A
7A
C7
D6
3B
43
33
44
72
D9
7F
20
E3
C7
1D
DC
1A
00
BE
C8
20
49
B7
A3
17
44
2C
3B
C9
A6
C3
D1
56
49
4A
B4
C3
6A
8D
68
90
CC
B4
41
F5
90
A6
6C
A2
40
9A
09
5A
5B
DF
1F
EA
F5
53
F7
E4
A2
D1
72
C5
04
10
96
D9
15
CA
78
A9
22
0A
EE
7B
64
EA
58
96
E8
81
43
60
76
03
00
4C
9E
B0
DE
CE
33
B4
29
23
11
CA
C7
60
EC
57
31
83
10
7C
2D
93
3A
20
D2
2F
22
85
A8
4B
81
26
84
13
7B
6E
40
C3
A6
63
22
EB
40
00
22
47
C7
C1
B7
84
FC
36
E0
80
20
2E
B9
B3
81
96
2C
B7
94
35
47
5F
9A
8E
E4
47
B0
C6
B2
3B
A2
42
60
3F
CA
E6
B5
57
4D
36
83
EF
58
33
48
DF
E4
91
AE
35
EA
8D
7E
8D
8B
D1
4A
DD
B8
75
EA
A2
42
56
BD
4A
6E
A8
8D
6A
BD
E4
98
91
25
5A
7F
41
D1
68
6B
91
B0
58
E2
CD
E7
60
8D
5D
60
DA
37
44
CC
1C
63
40
FD
A1
C4
C2
DA
BD
BE
44
97
29
74
B1
A8
C8
89
70
6D
F0
A0
3D
D0
70
A3
BA
91
A1
BC
3E
DB
E2
20
89
5F
1B
45
50
83
72
E0
DA
A2
EC
9B
F4
4F
96
84
78
DF
18
B5
B5
8E
B0
60
77
0A
F7
20
EA
A2
FE
EF
15
98
86
87
96
12
91
F8
A1
1F
95
CE
FE
4A
4B
8B
D4
B0
42
5D
44
32
0D
EC
0F
C6
02
BC
2E
46
25
22
63
8F
AB
67
80
49
F3
CD
C8
88
89
DE
52
CE
A7
DC
E2
5C
3B
BE
14
FB
7B
B0
5D
B1
FA
AF
B9
CD
CE
13
6C
3B
78
1A
05
7A
1C
DF
7F
3B
88
A3
1A
27
64
09
D9
62
50
B5
BD
32
8C
BF
85
17
B0
C5
44
EA
A4
25
72
35
97
87
D6
62
5F
E2
08
64
FC
BD
29
B6
83
15
D6
10
17
77
65
F5
24
F5
B3
F2
E1
CA
81
F7
D7
F1
55
63
76
19
42
44
D0
B4
31
5D
D5
BC
1F
9F
7B
95
5C
84
36
9E
3A
F0
0E
6B
9F
29
91
89
41
1B
E4
5A
36
A2
96
1A
47
D0
DE
C1
CC
AB
06
30
89
E5
63
F5
D5
3D
A9
F3
F8
CF
8D
95
A5
D0
A6
E4
3F
37
AB
59
D3
1E
A1
D2
6B
D2
83
FB
C5
50
FD
B8
7C
C5
19
18
F6
6B
DF
CA
A7
78
57
93
2A
C8
E9
4F
50
CA
CA
61
17
28
CE
4F
B0
DA
BD
0F
CC
92
C3
F3
6C
BA
05
DC
47
F1
D7
8F
B0
E3
64
BB
31
CA
FA
BF
49
4C
3C
01
9A
FF
91
E9
13
63
52
6E
CD
54
6E
0A
DA
25
DE
F1
09
26
F4
54
E3
C7
7D
06
99
3A
C9
C0
61
4D
48
AC
81
18
8C
BC
65
0E
C9
6B
EB
98
E2
7F
FC
BE
33
A3
19
9F
B6
BA
7A
2C
71
EC
4F
81
A5
36
5F
02
54
39
9E
DF
88
2E
3E
B6
CB
86
FB
3C
B2
42
F2
24
42
B3
69
4E
41
A3
E8
76
6B
90
4A
C6
9F
34
B4
21
89
06
4B
D4
30
E1
B8
BE
07
0B
4A
FC
E7
72
E3
E6
44
F8
C9
37
11
A4
73
69
3C
D9
D9
80
25
57
74
17
C4
90
DF
FB
5D
1B
A7
2A
51
5A
7C
A8
60
44
04
97
05
98
A8
A8
01
53
D0
80
A4
02
AE
4E
11
6C
C7
50
82
E7
CD
B9
E3
58
18
34
D7
5E
99
02
3E
9C
F2
9D
83
7A
94
19
95
76
D9
EA
66
FF
3A
91
C7
D7
37
4F
54
79
D5
48
BB
F3
1A
84
7C
CC
48
82
CE
0A
FF
DF
85
46
8C
20
DF
E2
AC
5F
0F
39
EF
AA
AC
5D
16
B2
A2
A4
DA
93
44
E2
CD
15
8B
4A
7C
D7
53
CE
A9
31
64
43
C6
2A
0D
06
DA
75
79
30
F6
35
B3
11
FD
7E
D2
7A
1F
61
66
12
7D
80
96
50
EA
C7
B8
EB
CD
59
21
45
E5
4C
DE
FA
00
2F
8D
D8
A6
B2
8C
20
FE
5C
29
FE
09
4D
52
2F
05
C1
81
0F
EC
9D
7C
6B
E6
E7
CA
56
CE
B9
6C
E1
8C
6C
BC
2B
98
9F
BC
AF
77
B8
DF
CD
01
27
3A
50
E1
A9
85
D4
CD
56
0E
D5
9E
00
52
AF
23
88
0B
D0
D1
72
95
8A
41
BE
8C
5F
71
99
17
0A
0C
A6
AF
D8
4F
7C
76
80
1B
A6
A2
95
6A
59
8D
CF
DF
13
B0
C3
C6
44
22
E8
B2
D8
E4
74
81
71
8C
FD
1D
19
50
B6
D9
CE
96
86
40
72
FA
52
EF
22
2F
A3
30
94
79
EE
9E
F5
7F
39
82
E9
48
5E
04
57
FC
FA
29
4C
44
8F
91
F5
57
04
0E
A4
85
D3
8D
F8
4A
40
1E
6A
A1
F7
B2
4A
6A
03
1B
01
39
07
E9
C4
9C
AE
64
D8
C8
3D
6D
2E
DA
A9
23
EC
6F
75
65
4C
2C
84
0B
2A
1A
76
42
82
29
B9
D3
2F
F5
E0
FF
27
90
52
5C
46
60
51
43
81
36
89
06
26
66
70
10
33
98
2A
43
3A
01
1F
32
CE
C1
45
B4
89
96
67
C2
C9
C0
0A
42
C5
8D
0C
D8
3A
F2
35
10
90
FF
0B
3A
C8
A9
D9
6A
1A
9C
A8
24
C4
7D
68
7E
01
46
FF
F9
71
6C
9C
6E
0F
9E
F6
41
B1
51
9C
4C
CB
63
C6
EC
13
C7
92
9C
8D
2F
5E
75
94
7A
30
E1
86
95
B3
7C
65
FE
BE
B0
2E
97
02
B4
35
E5
F9
0F
CD
8B
02
E3
D3
40
C5
BF
5F
FB
87
CE
0B
4F
EA
A4
B4
15
F5
25
7D
6F
81
EF
E8
3A
A7
33
C9
F9
07
EC
A1
16
06
8A
61
2F
C5
D9
ED
0D
3A
50
68
1B
1E
99
CD
93
1F
75
FC
E9
22
E6
8E
91
90
3C
36
61
2F
29
2E
E6
2F
77
DC
AC
A0
EA
A8
C0
A6
94
67
0D
3E
49
07
BA
FC
22
F2
CF
B0
12
17
63
3A
C3
3B
11
38
1A
7B
09
98
C5
3F
BD
E9
82
86
A6
A9
2D
12
7E
47
AF
41
D7
C3
D1
66
F4
F2
B0
B0
87
5C
2A
E5
43
AC
61
D6
46
C7
24
57
BC
A4
3D
33
4B
F5
BA
AC
7B
42
94
4D
E0
8D
28
CC
4F
B6
EC
C4
69
79
72
6D
85
5E
36
31
FE
9C
D3
AE
C3
42
15
14
2E
30
54
D7
32
9D
17
76
77
4A
CF
67
D5
96
0F
7A
19
BD
43
17
17
52
DC
80
33
35
ED
CE
48
27
CB
B4
27
85
BA
73
D6
61
60
53
00
D4
8E
A6
FB
03
43
39
12
F7
5B
2B
29
CF
60
B6
1F
00
51
66
EA
38
F1
D4
F1
0F
85
C8
5A
6A
92
AB
79
96
04
F7
FE
F4
80
C2
E9
B8
DC
87
81
BF
FD
71
D0
6A
E2
FB
37
8C
FD
C0
12
B0
7B
7F
2C
00
55
9E
81
45
CC
CE
E8
BF
F0
B8
B7
2C
C5
2A
5D
E6
C5
80
A6
FF
1B
66
90
BD
77
D2
EE
49
F4
BE
7F
4B
14
6A
E6
45
22
DE
3F
F8
CD
7F
C9
ED
E6
A9
D3
70
E4
BC
41
56
23
CF
BE
35
BC
4F
74
3B
48
92
2F
A5
70
A1
A1
F7
5A
8A
65
88
6A
E7
8F
7F
89
A3
09
DF
96
53
63
7D
55
68
26
96
7C
B7
A3
58
8C
6B
84
C4
7B
7B
CC
52
77
AE
51
18
40
E2
EC
2B
27
31
E6
20
54
30
33
31
2F
EE
99
BE
F3
52
5D
CE
6D
35
D9
E1
EC
BA
E7
05
EF
F9
99
FC
7F
78
AF
57
82
3B
36
9F
B5
E9
B0
9D
98
E2
29
5F
7F
D8
D8
5D
8F
F6
9E
93
01
4C
7C
71
00
91
FF
D7
5F
A6
23
1E
17
ED
C4
CC
F9
2E
37
D8
C2
A7
3F
38
E9
2E
7B
6F
46
F1
FC
8D
D3
3D
C6
8A
19
C5
0C
B1
A4
98
8C
50
63
CB
F1
B1
04
49
83
1E
26
46
FE
B2
D4
BA
A8
5B
33
C7
1B
5D
3A
A6
BD
50
6A
60
3F
55
AD
44
11
ED
3A
77
3E
C0
E8
28
AC
AB
FB
85
FD
12
A0
96
DB
6D
F7
95
37
CD
BB
7E
69
C0
46
62
48
1F
88
43
31
CA
85
76
38
4A
C5
B8
64
FB
D1
D2
DA
59
93
8E
69
29
3C
6B
D7
B1
7D
DF
35
D9
DC
42
F1
71
C0
34
5F
5D
63
29
C2
F7
21
86
12
56
B9
41
BB
20
08
E3
A3
05
EE
44
C7
30
4F
B6
A8
AE
BD
20
A2
61
CB
9D
F3
CA
91
8F
2A
2D
84
58
5E
1A
A3
B4
FA
07
00
22
42
B2
E4
51
DC
2B
92
D4
26
16
50
9B
19
36
72
8E
91
AA
7B
19
F7
03
8F
C3
6D
1A
F2
88
4D
2A
95
9C
D9
1D
6F
4A
8E
69
A2
3C
F0
5B
29
D4
E3
80
05
E7
E1
77
6E
BC
29
04
6D
5D
95
51
9E
6E
31
F8
80
50
DA
8B
B1
B4
45
AD
C4
65
B3
12
23
9B
D4
30
A5
10
B9
BC
8A
1A
9D
0B
A0
16
8C
73
17
1B
03
59
54
A4
46
16
03
AB
B4
52
A5
2D
C3
1D
B4
F4
30
1B
56
69
F6
D3
F1
4C
B8
64
AF
5E
09
AE
47
57
4C
14
02
6B
C8
BD
F7
CC
B1
1B
0B
6F
AE
E6
A2
B9
EF
A6
71
85
00
C2
F5
D1
6A
A6
66
A5
79
F3
0F
2B
85
E9
95
B8
A3
30
E6
43
75
2B
E8
1A
65
E3
1A
62
20
5F
5B
2D
87
F4
14
A6
B1
2E
D5
4D
05
40
C6
F8
6B
70
0B
2C
C6
BB
86
5B
B6
59
00
57
7A
2A
86
ED
64
6F
F4
88
12
42
51
4D
D3
3D
B6
D1
97
56
55
58
C1
60
4C
C5
05
CD
10
7A
21
72
42
4A
8C
F9
B0
5C
E2
FA
ED
0D
48
76
77
47
BF
AA
F7
EE
57
48
5F
8C
EC
02
CD
CF
D9
39
75
C3
94
42
F2
B9
72
9B
CD
B5
9A
2B
77
E0
78
33
3E
A5
F8
60
E4
69
76
DA
70
6C
B9
6C
26
F5
A2
95
DA
F6
80
60
B1
51
0C
2F
30
10
E5
5C
C9
9A
BC
9D
1A
2F
D1
64
C3
3F
76
C2
03
E6
58
C7
14
F4
98
26
DA
A9
90
B8
FF
E9
67
18
D7
98
A3
DB
E5
46
47
0F
91
5C
6C
5E
79
B0
5A
5D
6A
4A
31
94
C1
E6
31
5C
E6
90
BE
59
3E
99
85
49
A7
CB
6E
C2
89
12
BA
A2
A0
5B
52
86
DC
D0
4C
2B
5D
C5
56
88
2F
16
49
29
27
86
57
42
CB
CD
68
E9
65
A0
88
0D
47
9C
7C
10
7A
3B
6E
97
AF
7E
B2
CF
25
2D
29
C7
5F
1F
1B
42
CD
2B
3F
A1
9C
64
9E
2C
3D
FA
19
67
50
8A
8B
09
99
82
FD
0D
B1
96
0D
1B
45
84
79
28
81
00
DB
AD
84
AD
51
02
30
29
EA
56
31
8E
F2
A1
C0
19
9D
E4
E4
84
0F
C3
63
FD
3B
AC
F0
D2
29
4E
0B
09
97
47
B9
BE
EF
83
98
C6
CA
04
09
62
A7
7F
C3
76
42
48
A7
A9
BC
FE
23
C3
EE
0C
C3
19
8D
34
71
54
7C
A5
A8
F3
4A
05
6A
4E
F1
41
DE
DA
5F
79
D5
6F
4D
F1
C5
5D
AC
15
DC
25
25
FC
D6
CD
24
CD
44
81
40
EF
39
4C
B7
6A
05
E9
56
FD
A3
EC
BD
8F
F5
E5
CF
63
68
39
E5
61
0C
1C
8A
29
01
B2
8A
F7
9C
0F
24
38
A7
8F
59
E9
15
AB
BE
03
D5
1B
A7
E6
68
9C
38
12
9F
3F
05
D9
89
B3
03
C4
A9
B8
66
E3
B7
56
04
8D
28
BB
AE
51
58
DE
4A
AF
30
CA
76
E3
62
E9
3C
23
B8
27
EF
91
F0
9E
8A
DB
D1
66
33
C4
A1
54
7E
1C
AE
19
03
FC
53
17
CB
EF
07
66
23
B7
7D
CF
14
A1
A3
28
4B
DE
4B
D4
A4
4A
22
85
BB
9F
C3
E0
6F
C9
CA
19
51
49
A5
C4
85
A4
14
4D
98
5F
54
DE
71
4B
89
CB
36
7C
E4
00
9D
44
9D
8D
2A
A7
71
13
18
F5
02
F0
0C
B3
20
C1
1D
EC
22
0B
B0
B4
2C
BD
BC
6F
B7
22
F5
B1
3F
F5
F1
CF
DA
3D
26
82
BD
3F
FF
74
8B
A2
7F
0A
6A
16
18
27
54
1E
06
D2
F2
23
A6
9E
82
B5
2F
8F
ED
0F
56
6C
F8
BD
43
58
1B
CF
7B
B7
88
93
26
0C
3A
ED
71
B2
0D
01
5F
B4
5D
8F
E8
3D
14
AD
39
09
B0
9A
1F
86
DD
D1
EA
B6
9D
9F
5D
26
1B
EB
61
4D
85
BB
96
AA
82
35
A0
9E
46
DD
E3
81
65
C6
D1
32
5C
AE
8C
2F
2E
DA
4A
BE
E2
A8
23
D2
00
3D
86
4F
80
3C
2E
F9
BB
35
F4
14
D5
93
4A
33
E1
F7
66
27
7E
EA
41
CB
D4
AB
3D
04
7F
1D
05
B7
6F
97
5C
32
1E
D0
76
28
42
03
02
BE
54
DF
8B
0C
12
D4
4B
B9
3F
0C
F6
51
34
AA
0E
01
F8
20
F4
33
26
D7
CE
36
9F
73
AF
22
9D
74
5D
56
C2
EB
61
8B
0D
9A
FF
BF
37
1F
21
66
FA
01
FD
78
8D
2B
AB
82
59
E9
27
D2
BD
1D
8F
A6
0A
85
74
C5
C4
2C
C5
EC
68
4A
A4
72
8C
A6
E3
2F
59
96
BB
B5
AD
43
3F
85
52
32
C9
4A
AB
49
86
A4
82
7E
A3
5E
CD
C7
3E
0B
1E
08
F6
59
90
6D
FD
29
63
10
4B
CB
5F
88
AB
20
DF
50
A6
99
D2
E6
FB
90
52
0B
81
5E
DE
01
DC
84
FE
A4
4E
B8
68
33
01
8C
64
37
46
16
47
13
72
04
39
FE
D3
98
05
DE
8E
21
46
6F
90
A4
0C
4A
CF
BE
77
E2
D6
84
4F
6C
22
7D
68
E4
A9
CB
C0
94
40
33
65
09
5D
83
16
71
2B
52
11
95
82
2A
8D
27
21
5D
D9
DD
B3
EA
0F
5E
C6
ED
77
B1
8F
63
0C
1E
33
1B
B5
C7
E3
F4
9E
76
BD
1C
E1
E4
FF
52
EF
B7
F0
DD
9E
A4
0B
81
21
56
BE
84
8B
47
07
BF
69
8A
DD
3F
A2
CB
92
61
82
1D
85
BE
F8
2F
78
9F
A0
E9
01
9C
5D
44
0E
42
84
51
93
9D
6C
56
0F
33
61
A0
C8
18
42
52
23
BA
31
4D
3C
DE
32
2C
B6
75
09
A1
68
C4
3F
27
CF
76
53
F6
D1
8E
8C
78
B4
86
D0
50
A6
71
CD
08
B1
26
BC
C2
9D
B8
30
00
CD
EA
53
30
56
D2
95
29
53
B1
F1
BA
60
5F
E1
85
E5
00
C4
1A
7D
E4
D3
3D
6C
90
A3
BD
B3
D0
48
D4
E9
91
0A
5C
D6
BB
37
DD
21
E2
E9
87
58
CF
F4
F4
F6
A5
AF
9D
07
1B
19
24
7A
13
05
CA
DD
96
43
5D
A7
D2
B1
9B
8E
6C
1F
DA
7A
99
81
F1
DA
EE
7F
A2
47
7E
AA
22
A9
79
E7
7F
DD
D4
C1
05
B8
59
5F
C9
34
90
69
E4
26
66
C9
EB
5F
FE
BC
B8
D5
9C
05
6B
0E
16
FE
2B
C2
78
E4
11
6A
F6
B2
2F
20
01
4F
13
5E
49
1D
9E
13
3A
37
F6
66
34
1B
F9
11
FE
5A
83
79
F1
1C
E7
E2
75
5B
2F
0C
B3
1D
0A
58
E6
FD
43
E2
86
D3
C4
B6
4D
4F
47
D9
89
FC
03
F7
16
DF
44
11
4C
C3
9A
E2
AD
69
C4
C8
55
A1
A8
82
76
FE
E8
CA
0B
F1
D2
5B
E5
49
D2
28
ED
ED
36
A7
20
3C
22
F0
C7
4B
AA
A0
BF
C6
D0
5F
78
B6
09
34
88
CE
3A
14
03
C9
8A
9A
87
F9
C1
B3
03
43
D1
60
48
2D
2A
BA
E9
59
BC
69
BD
E4
64
A3
21
40
2E
F4
F0
A2
25
52
CE
31
A1
38
F6
05
65
4E
AE
3F
16
7A
D3
DC
8B
88
12
96
02
ED
61
58
4D
EB
06
3E
E3
43
35
05
36
23
D8
8E
E9
C6
6F
3A
29
73
69
5B
0B
36
F9
D4
98
8D
48
55
7F
26
78
B0
52
1F
85
E5
1F
BA
FB
97
52
27
0C
1D
95
B5
E3
48
0D
5A
9A
AE
DA
4C
AE
13
8C
13
53
D6
36
B9
C8
7B
43
86
E5
8D
C2
B7
4D
91
D3
E7
E4
09
F8
2B
56
08
1B
78
59
CE
87
5A
6E
B9
63
C0
5D
D5
DC
52
51
25
40
00
E9
F5
81
4E
22
6E
8D
E7
63
B4
6B
82
EA
81
7D
65
48
71
3D
C0
13
45
79
5A
04
3E
66
EA
6B
C7
21
CF
97
DE
01
85
A7
D5
DB
33
28
7F
97
FD
F5
2A
18
88
21
DF
F3
32
23
2B
38
C4
4F
4D
DD
C4
70
80
DC
5A
45
F8
02
C0
97
5B
CB
FF
22
1A
12
ED
68
7A
8D
7F
5B
2A
0F
9B
2B
F1
35
B9
CA
73
26
90
A8
84
6C
D2
DA
5A
F5
0C
39
A9
FD
33
C0
A8
07
3B
D2
B9
C5
24
AC
02
0C
D9
53
F4
F9
60
7F
17
E4
11
E1
C1
59
CF
5B
7D
70
3D
EB
15
5C
D8
FE
B7
2D
49
E3
67
BD
13
49
FD
22
65
0B
34
FC
B6
12
4F
00
2F
21
F4
26
24
19
C2
08
E4
08
54
27
70
DF
E7
02
AF
A0
25
43
2F
FD
05
8F
02
20
F6
1D
3B
B9
AF
B1
3B
E2
3F
7C
DD
DB
26
7A
C2
B5
E7
39
98
D6
BF
B1
10
10
1A
19
B9
DB
72
50
6D
27
B7
14
53
E7
6B
E2
2D
E1
26
C6
63
81
54
24
08
FF
A8
49
32
C3
26
52
67
63
B1
C5
F9
0A
3F
43
B0
03
F6
41
9D
FC
D7
91
04
2B
6C
FA
C4
09
64
39
C3
AD
F6
24
F5
66
CA
0D
B0
2E
7E
71
AF
7F
FF
A6
FA
45
03
8E
E5
1A
58
26
22
85
A1
99
EC
A4
F9
AC
7C
03
ED
31
03
32
76
14
32
CC
E6
22
5C
DE
5B
BA
F7
83
35
D4
2C
4A
13
E1
08
94
28
31
EE
A9
6A
23
87
38
FB
57
FD
D0
9C
5C
53
0A
19
B5
C0
EE
7C
29
59
A9
54
E0
15
3B
6C
FF
FD
9F
51
11
4F
2F
B9
1C
7A
6B
4C
24
FB
8F
92
0F
D5
25
72
20
34
59
DC
D8
E5
4C
DD
9B
0B
58
B5
C4
64
CE
38
5D
B3
65
5A
C5
A2
DC
D2
47
5D
29
73
EE
4B
C7
01
C8
94
AF
89
8D
82
F0
EA
9E
49
69
BA
15
1F
F2
48
76
4C
BB
41
1C
BC
EB
8D
64
B5
57
AE
D9
6A
69
0C
56
32
86
53
69
11
E4
7F
FC
6D
16
61
D0
1E
29
94
16
00
39
4B
29
B1
34
75
69
E4
93
24
7D
ED
39
C6
BC
E1
8F
BF
45
B4
A2
E3
D0
96
40
46
5B
61
86
0C
A7
50
05
F2
53
F3
90
42
FF
74
C9
4D
82
54
46
3C
99
F9
D0
BA
7F
DA
B2
00
6B
E9
AD
C5
F0
48
0D
4B
95
31
CF
AB
46
1D
A3
8C
BA
E8
8F
A0
EF
24
1F
6F
06
89
BD
D7
42
23
B8
3F
A1
59
90
ED
18
41
A8
46
9D
45
66
7A
74
BD
58
D9
30
18
5B
57
30
37
71
9D
18
4C
42
AC
F6
D1
F2
A7
CC
11
DB
EB
43
77
94
F9
D1
F5
D4
D1
36
19
59
38
A8
87
9B
E0
8F
EA
F8
2D
A9
01
11
61
CD
55
AA
F5
28
67
D0
A2
01
49
BD
62
A5
E8
35
46
EB
A8
DE
AF
89
D3
13
5F
9A
FE
73
EE
E6
98
B0
51
C2
C7
B4
8F
7A
3B
6E
06
10
07
A6
58
03
51
A0
E0
D4
BC
F5
53
06
F7
D2
D9
F0
A9
A1
13
24
DB
8B
DF
93
76
B7
C6
D1
C6
44
29
EE
B3
A9
CB
7A
F1
72
5D
80
F1
B1
DA
C3
99
BC
9A
04
F0
81
88
7E
ED
26
00
B1
F1
03
03
62
6B
30
DE
F7
C9
87
98
67
AB
09
31
8E
29
62
9B
26
E9
23
AC
0F
71
30
8E
10
9D
9C
D6
C8
C8
20
C3
EC
01
29
59
63
3B
EC
83
72
43
D5
A8
9D
28
31
B0
6B
63
1C
E6
70
80
E0
83
27
6C
A7
EB
80
1F
02
5D
0E
E2
E7
58
A7
F6
B3
08
70
3C
BC
28
E9
1F
48
D6
72
FB
4B
81
9C
1C
85
6A
1D
41
ED
5D
2A
2E
1C
D8
B4
42
CD
4B
B9
0B
49
C2
87
27
99
03
D4
0A
9A
3B
4C
B9
32
CB
A2
5D
F0
4F
EF
20
B4
84
E4
8F
CA
41
28
14
31
46
26
43
50
DC
AF
4F
D8
41
CA
14
D3
02
E8
03
C4
29
69
8D
2A
E6
28
89
94
02
15
CF
1F
5E
EC
78
E4
04
91
BE
92
B0
13
A7
20
25
E5
E8
2C
8D
F1
2E
13
01
E5
29
47
45
83
3D
DA
80
E5
BC
33
2D
72
9D
93
5B
E6
BD
E6
DC
01
AE
09
03
D5
91
FB
15
0B
D8
32
1B
7A
9A
A8
AD
B1
DA
3A
31
C0
76
72
14
54
90
09
B2
DB
1F
4E
3A
58
AC
17
63
EF
AA
7A
6A
74
23
D0
D1
73
C9
41
A7
DB
0D
4F
68
EC
C2
B7
02
30
69
2F
8C
09
39
CB
FB
D6
1A
38
DA
6C
31
0C
0E
47
77
64
11
D9
72
D0
07
B2
9C
C1
4F
C4
69
D2
09
4B
4B
3F
40
5E
D0
28
51
4D
66
AB
C8
3A
F3
DF
39
D9
3B
E9
24
F8
4E
4F
C7
D8
CE
C1
F6
12
E2
61
8B
21
2F
3E
78
4F
AA
EE
0D
51
6A
7F
35
6E
80
D4
56
2D
75
CC
89
2D
71
50
26
79
59
87
C0
DB
F6
C0
5E
89
6A
2B
3C
40
EC
02
DE
6A
9D
B6
F2
5A
7F
F7
18
FC
20
37
EE
F6
50
92
2F
F9
05
DC
A7
44
32
9F
63
6A
F7
FE
23
9F
14
86
6B
FB
5D
AC
BA
98
BE
B5
A1
CF
D6
77
58
50
C6
2D
66
3E
28
C0
F2
D2
23
33
FC
91
F8
E7
F1
DF
04
DF
AF
98
01
39
43
0C
CD
FE
84
78
81
89
BB
04
2D
DB
8B
9C
F2
14
97
A5
E6
F4
B3
EE
D9
16
18
51
CA
D3
10
A6
4C
8D
25
C3
11
C0
2B
D1
9B
44
7F
6D
AB
DD
BE
AD
09
1D
AB
72
49
4A
06
1C
66
38
51
5F
86
76
9B
3E
E7
D3
D9
FB
8E
5A
62
40
6B
A7
BF
40
32
C3
24
86
E9
08
74
7A
6F
E7
66
87
89
22
EB
8B
DF
23
D4
E7
39
E8
DA
C9
D4
B3
FA
97
A5
4D
20
9E
F2
EB
CE
BE
29
66
D2
98
E1
84
2F
9D
BD
D1
9C
82
CE
E8
ED
F5
72
9E
EF
A4
44
2E
53
FC
0A
79
9D
DE
CC
71
65
E5
92
5F
EE
8F
8C
C9
00
A8
D6
20
D3
A1
67
8A
B2
8C
63
33
B7
F7
1C
29
3D
EB
F9
70
9C
8D
9C
31
0A
B3
2F
D6
13
1B
BB
81
66
96
C2
3B
59
EB
B3
2D
9E
00
3B
60
26
39
01
7D
FB
51
68
C5
C4
D6
C8
1E
35
DB
89
AA
F4
0E
3F
54
33
94
4D
EC
A4
13
74
37
EB
BA
01
29
9D
08
76
61
EF
63
73
C7
8F
3F
23
BD
AE
8D
97
28
7A
AD
FD
85
6F
B5
AF
7D
7C
63
0E
28
B6
AC
B3
26
C6
68
8F
EC
63
41
EB
38
4E
14
F0
09
A0
7D
E1
23
55
C0
EE
CA
5A
F2
65
05
23
86
C0
02
69
35
47
F7
95
A0
9D
C8
56
C4
F4
B7
EC
FB
3C
2A
88
2B
50
53
FD
89
19
11
EC
97
8A
E4
F6
99
EA
0C
BA
68
8E
87
A5
54
21
14
60
0F
38
04
F7
A0
59
49
5B
14
73
98
E8
CA
93
19
6B
86
BE
43
D7
EB
99
50
BD
79
D0
DE
B8
31
13
07
50
9C
83
E1
77
1C
2A
52
5F
84
2C
8F
D3
9F
DE
41
02
4D
5F
DD
CD
CA
D1
7B
4F
85
EF
C9
60
6E
6F
07
33
B8
36
B3
3F
42
C1
DC
42
42
A8
4C
47
72
C7
BD
9C
AB
DF
05
65
3B
F1
E4
0D
1E
24
40
82
D0
22
78
5B
9D
4D
45
8C
18
06
3D
34
A9
C8
0E
D6
88
EC
BB
D7
B4
DC
12
71
39
6A
D2
6B
C4
35
DB
00
6A
43
71
CE
72
BB
A1
B4
CE
6D
07
0B
C2
EF
48
28
33
89
2F
BF
C7
D0
F7
13
F9
DB
4D
04
2F
39
0C
C8
71
F4
51
58
45
D4
45
1C
DE
21
50
B6
F4
32
F8
B7
E6
A7
24
D2
31
F1
86
AB
18
A8
DB
40
10
7C
C0
D9
D5
25
80
12
96
B5
4D
75
DF
9E
2B
F9
99
18
32
A7
82
6D
F7
44
06
2B
FB
89
33
18
38
4D
87
6E
3D
58
F1
1C
F7
85
10
87
0B
0B
13
67
D1
87
05
B7
EC
66
A6
0A
DB
13
CB
9F
67
AC
F0
2A
D6
6D
4E
E1
50
1F
22
F8
82
1F
CC
36
82
11
46
EB
85
8A
1F
92
02
FC
08
BA
4C
59
BB
B1
C6
E7
CF
33
CA
CE
BE
30
09
D0
29
C0
3A
B3
9A
6B
51
29
2F
7C
48
80
DC
C9
05
A6
E4
4C
12
36
DA
93
C2
64
73
F4
1D
89
D6
82
62
C7
B3
05
8B
D5
0C
25
BF
28
FB
51
94
71
CF
52
2B
79
EE
89
6B
3E
E6
5F
0F
70
E1
3F
75
63
33
07
0B
DB
83
81
84
74
4E
98
6F
95
97
19
EC
B5
50
C8
42
FB
7D
CA
FE
55
1A
4B
E5
C3
EC
7A
7D
62
6E
04
BA
2E
C9
79
A4
DE
52
89
EB
4B
54
0A
8F
0D
19
2B
7F
56
4A
CB
9F
3A
6A
78
01
5A
6B
C9
43
37
92
A3
D6
4F
DC
C0
19
EA
8E
2D
EE
38
D9
D7
D8
3B
BC
78
65
14
34
D2
78
4F
06
1F
96
9B
5C
D9
A7
F3
AE
BC
7B
1F
5A
57
22
E7
B4
4F
8D
A5
AE
46
B7
EB
29
97
6F
DD
A7
9B
48
13
6C
3A
74
36
3A
E7
09
23
94
B9
D4
49
10
F3
C8
91
68
68
0C
A1
E7
12
60
39
9F
21
F6
D5
E6
F3
96
D2
05
8D
C1
C8
AF
3F
95
68
AA
09
21
BD
3A
F2
A2
FE
ED
5A
AD
AA
9A
2C
8F
1D
E6
6E
4B
72
47
EB
06
FA
AD
A6
8E
CB
29
61
8E
50
F3
E1
07
2E
82
61
91
F9
A4
75
10
75
92
DA
BA
EB
78
92
47
50
47
D9
EC
2D
36
54
10
91
5F
EC
1C
A0
B1
CB
D1
36
B7
BF
F3
1A
31
18
FC
B2
3D
98
72
C7
6F
60
15
2C
3C
02
7D
D7
2E
97
A2
24
20
A6
D4
A1
8D
E9
24
E5
A3
CE
DF
8E
FC
54
59
41
D7
D2
91
45
F9
F2
C0
E1
27
99
88
49
29
A4
3F
E7
FF
DE
60
8D
B1
38
C8
D4
DA
73
41
E5
42
45
9A
B0
F1
61
B2
1E
0F
6A
32
DE
A7
FD
11
3C
D9
68
E4
4F
3E
D5
CA
E5
BB
FC
30
62
6B
8C
EB
68
05
8E
A9
E7
98
51
01
82
13
92
87
4D
7A
1E
77
72
B8
AB
49
42
A2
08
99
C0
FE
F7
26
4B
1E
0E
23
62
20
F9
BF
61
70
19
DD
3D
6D
50
FE
DB
3F
7D
77
35
22
93
67
7E
DB
82
18
75
35
D0
06
DE
54
59
C8
B1
8E
08
EB
56
DA
97
99
A5
71
29
EE
6A
B9
9D
DC
50
36
2C
35
9F
AD
1C
3F
D0
56
DF
17
67
7D
37
1B
E3
5E
8E
FB
25
22
1C
72
94
34
FE
45
03
FD
63
C7
9A
83
0D
8B
5E
13
9A
36
5B
C6
60
BC
CB
7E
FB
1E
7B
E0
2A
7A
66
E5
DA
09
EB
79
66
A3
29
17
96
59
5B
94
98
34
76
15
D2
9C
6B
5E
7C
0D
A8
39
AC
21
65
3E
C1
C3
CB
5F
16
8E
38
19
D7
FB
39
D0
13
86
DB
5C
07
50
B2
60
6A
B0
D3
16
34
B7
4D
DD
84
F1
64
EA
86
DB
58
B0
B7
C5
5A
4C
BD
10
E5
92
AF
50
0C
D8
A9
45
35
64
70
30
1D
B3
7D
0D
66
8E
07
85
9E
1E
54
BE
84
2A
9D
D3
3E
2B
AC
4A
67
B2
01
6E
ED
47
D0
B1
96
5A
0C
3A
E1
57
8C
68
F8
F0
8F
52
AF
07
54
55
A4
D5
CB
B9
BB
BA
1E
8D
DD
17
D8
57
1E
23
65
11
6C
89
22
F7
0E
C1
E1
9E
C7
A7
17
C3
DB
13
21
2E
78
FF
EE
69
62
5C
1F
44
92
EE
FF
42
12
4D
2C
AE
EC
B5
6E
74
96
D7
F6
7A
94
A9
86
01
BC
B9
F5
D5
D8
5A
4D
6D
F8
7E
F4
2F
67
1A
B6
57
8A
2C
19
D6
1A
D1
23
39
06
1B
CD
54
95
1C
03
F7
72
D9
90
70
6D
8A
E7
3E
5C
68
C5
15
C5
6B
46
B5
0C
2F
58
C3
C0
35
FF
70
99
03
A1
18
D7
FE
2A
23
98
18
4D
D3
6D
59
2F
7E
50
76
31
12
D8
10
96
68
69
10
08
19
CB
F3
B9
E2
7A
61
DA
98
29
22
9D
B4
5C
0A
D0
7E
21
22
79
B1
31
69
D7
FD
9B
5E
B5
85
7A
68
9D
45
E5
EE
E2
10
78
E7
F0
74
44
A5
B0
F0
50
B4
EC
78
2F
F6
9B
57
48
0F
60
3A
45
A9
BD
F8
ED
3F
A4
30
4B
80
E3
75
39
68
14
39
0A
AB
C1
ED
14
9B
E4
69
D6
34
EC
76
87
02
22
25
B3
CB
58
A9
19
A5
0A
84
D1
11
19
D7
54
36
CE
1C
82
67
DB
90
FB
9B
88
95
B6
BE
A7
01
E7
48
B4
F4
B2
8B
0A
05
56
9B
3B
F0
C2
2D
F8
7A
29
49
A0
5C
0D
84
DB
7E
A3
DA
51
84
B7
36
E0
05
8E
F6
C8
0B
59
81
60
6A
ED
46
30
C6
C7
99
1B
0A
D9
85
54
8E
0D
61
94
D9
4B
28
E1
44
7E
3D
F9
92
08
9F
AF
87
15
C4
58
67
CD
CB
4E
95
11
F2
81
4C
AE
17
52
A7
19
C0
63
F5
D4
C2
2E
FF
57
25
6A
08
B6
74
CE
54
DF
51
4B
90
D8
48
DB
FF
08
B3
F0
8F
43
60
C6
63
86
34
4C
FE
EC
1C
DA
65
7F
89
6E
DE
00
12
48
4F
8E
DA
0F
74
85
F1
27
CC
99
EA
07
C9
FF
FC
02
EB
BE
95
A4
14
D0
79
D4
A5
96
6E
EE
19
8C
D4
52
3A
BC
F9
09
FD
01
CA
66
96
86
FA
A1
B1
8A
7B
07
16
61
A9
2A
84
23
B7
C6
F2
69
52
D3
C1
79
68
F6
15
8F
FC
00
B1
32
D9
5F
7A
FD
03
87
A1
91
A8
EC
BF
90
A7
23
E4
22
E1
FD
EF
B2
7E
8F
BF
25
78
49
1C
D5
25
5D
49
82
9A
D7
05
25
9B
81
1A
7A
CF
4F
CA
01
C7
26
CB
0F
FD
D5
60
33
E2
B3
DE
CF
BF
51
58
F4
EC
45
48
6B
CC
C8
55
0C
7F
69
7B
DB
A9
28
E6
C0
1F
A7
3D
21
6B
C5
2D
2C
E8
BA
F1
71
E9
6C
1A
69
E3
EC
47
38
F2
69
66
31
02
00
1C
B7
BC
B2
5B
E1
8E
45
61
B2
F5
E7
13
BD
7C
D1
5C
BA
1B
B4
D7
A4
B1
87
26
42
62
C1
AC
A0
11
91
4D
BF
D7
9B
D4
08
62
8D
73
94
5C
22
6B
8E
BA
A4
5A
51
4E
5B
72
12
1D
ED
CF
C5
C5
EB
9A
49
1A
6C
64
F3
83
66
4A
D9
CA
21
C0
87
86
F3
F4
C7
BF
59
40
14
31
EF
D2
1A
24
71
18
69
94
F2
A3
EF
63
78
CF
A0
4B
06
50
2A
CF
C0
BD
02
1D
48
14
24
42
3A
FC
4A
4A
6F
9E
14
96
84
42
03
F6
49
BF
5A
42
10
5B
6A
FF
B1
06
26
C0
3F
81
E8
72
BC
11
3C
50
89
1E
28
B2
EA
97
B8
70
74
40
CB
16
F1
E6
95
C3
79
42
B4
57
59
FE
AD
85
3B
79
1B
92
4D
D2
11
10
BE
2D
21
54
4E
FD
8D
53
B4
56
2C
82
76
73
B7
99
B9
F8
AE
47
EB
DC
D6
C7
34
98
F0
65
D7
4E
96
93
CB
87
57
8E
49
37
76
27
C7
65
58
A7
FF
EE
80
49
B0
25
C9
4C
70
8D
27
20
67
01
A5
DD
52
C1
D7
F3
88
CA
67
F3
48
71
AE
AE
38
35
5B
5F
A9
B2
BB
17
08
C9
3E
8D
FA
8F
BA
6F
83
81
D8
80
75
25
8F
E9
81
03
8C
37
59
92
FE
B7
0E
64
F8
ED
0A
5E
34
01
F0
E9
66
D0
F6
92
59
60
78
83
08
3C
EA
26
9C
7A
C8
6E
83
EA
39
80
4F
6E
6E
51
F0
6F
76
54
15
2A
CB
6C
1B
C2
5D
6F
FA
29
28
36
49
FA
AE
CA
F0
74
48
28
97
7C
98
DD
90
1B
EB
09
D1
84
9B
57
AE
34
CA
05
F6
2C
B1
16
17
F5
CB
F3
74
F6
4A
B7
89
16
D1
A2
5C
AB
44
68
86
7F
FF
5B
2A
98
1B
B0
87
0D
C5
78
09
AC
4C
07
8A
6E
5C
15
13
26
F2
45
5E
B4
8A
F3
27
6F
1A
8C
C4
86
52
23
5D
40
AD
1B
20
48
10
7C
C2
26
6D
6C
EC
87
A8
27
59
A6
EC
80
0D
D6
64
41
B1
EB
1B
DC
35
EB
9E
29
F8
5E
0D
FB
52
D6
C2
56
7A
DC
60
CB
63
41
67
30
D1
E3
86
A8
78
28
F5
DD
82
BC
47
A6
1B
A4
70
A2
9F
21
1B
5C
69
0E
46
35
53
94
6C
8F
3C
83
5C
BB
D8
04
00
17
36
BE
A2
70
58
2B
FE
72
28
A4
A0
A1
93
C7
B2
01
9D
32
5D
D3
68
47
82
2E
FC
3E
14
EC
7C
AC
AC
51
2C
5B
F5
77
B7
AC
D3
51
1C
54
5C
07
7B
19
E3
F6
5D
98
20
41
73
CD
88
B9
82
0C
62
3B
94
66
92
11
3D
48
7C
59
C2
C6
0D
F7
69
C4
84
5E
28
F2
75
14
3C
3E
72
BE
A1
2D
BD
9A
B1
14
CB
DA
CC
01
F4
EB
8F
9B
25
B2
5A
FC
13
4E
CE
40
01
3D
6D
0D
C0
87
60
84
BC
E9
2E
5B
74
58
ED
1A
83
BF
12
63
FB
7B
F9
D6
B8
7A
4C
C5
AD
55
DF
BC
39
3A
B3
1A
5A
2B
6D
FD
AC
AF
C9
62
BE
8C
46
90
50
CB
0A
0C
2B
6C
9A
18
42
29
CE
F0
EE
5F
DB
5D
51
7E
03
11
88
78
53
05
4F
A6
B8
D1
CA
34
11
A0
62
13
16
38
DF
80
1A
BB
2F
EA
86
CD
97
B9
9B
AC
FE
EE
B7
27
DC
18
93
83
4E
7F
66
45
78
1B
A8
68
83
C6
B1
28
49
5E
22
2E
3A
87
F1
67
C1
15
FF
69
0E
41
96
07
ED
AC
D3
CE
C5
88
14
5C
94
85
CD
63
96
68
30
70
C4
3E
55
02
82
D2
92
9F
FC
5B
0C
0B
4B
7C
E5
EE
EC
DF
C5
1E
27
19
67
83
89
91
FD
94
07
E6
1C
88
A7
E0
82
75
CA
2D
61
07
1F
F4
3E
D6
65
9F
F7
62
B1
16
76
F8
4A
4B
99
A9
72
6D
1C
CB
B7
96
13
48
92
3B
F8
35
BD
BB
7A
0F
84
12
2D
BD
AA
55
CC
63
94
DC
F1
43
19
7B
77
E7
53
02
D3
74
F3
48
02
6C
0D
83
00
74
47
04
89
9C
8E
C5
A5
E8
41
55
8C
F7
04
E2
1B
F1
F1
90
F8
F6
A8
54
73
0B
3F
FE
D2
57
BA
D2
69
9C
4D
33
5A
FD
6F
56
68
E5
F0
55
2F
BC
90
29
D8
5D
78
36
9E
60
A6
96
F3
87
71
07
0B
F2
53
5F
51
4D
8A
99
7D
40
9E
0D
8F
F0
4E
2B
D3
31
47
5C
A9
DF
6F
2D
12
C7
D7
7D
23
12
76
B7
F3
46
6D
78
C8
C9
95
70
B5
B3
01
85
5C
8F
84
A3
4A
B7
01
01
8A
FF
61
32
FF
47
9E
8E
2A
56
44
A3
AF
AF
D3
5D
50
64
13
C0
D0
E7
F4
C3
C8
85
52
1E
54
D1
2D
D5
5B
0A
95
C2
7A
80
99
C9
5E
9B
D2
C5
65
45
43
A7
AA
B0
C5
8A
E0
17
A5
DC
54
AA
C9
B4
0D
D4
7B
64
6F
D2
19
EE
A0
30
DE
4D
4D
48
91
9D
7B
47
E9
27
20
A9
22
C7
64
F0
68
D4
81
67
14
A3
89
A1
3F
FC
C7
4C
CF
EE
53
D6
89
CF
A2
38
EA
2F
5D
47
92
C2
DE
8D
07
5B
08
57
64
B2
0D
77
23
8A
78
80
DE
4F
BC
7C
E5
5C
8C
7C
B2
53
14
CC
25
85
D1
87
9B
F5
7E
1E
D1
13
84
E0
60
D0
E3
2A
2C
E4
D5
67
32
B4
33
44
D6
14
D7
CD
56
3D
6E
DF
23
CD
C8
20
FC
19
9E
10
DB
0F
DD
62
7C
C7
B7
9E
AD
96
A5
D8
3E
1A
8B
FF
08
BC
5A
FA
F0
31
0A
A8
C3
A7
D3
64
53
C9
F8
33
46
59
9A
76
5C
DB
63
7A
C5
A6
C8
A5
FD
77
8D
18
55
33
44
18
91
88
EA
D5
BA
69
21
4D
47
1E
61
70
26
34
60
1F
55
8B
4D
30
B5
AC
55
FC
67
B7
95
DA
6A
DA
C5
44
99
B3
E2
C3
27
C1
33
85
87
CB
80
3E
96
FD
93
AB
62
57
4A
48
DE
2E
DC
10
04
2B
A2
3A
03
BC
76
49
D4
E5
53
31
B1
25
B0
19
D7
BB
7E
91
2C
D1
16
A9
08
49
1A
3C
8C
7B
42
0E
7C
C9
B4
AA
B1
F2
36
53
9F
C9
AE
0D
3A
01
82
19
59
AB
C7
F8
10
4A
F5
61
1E
9A
97
B5
95
59
E9
3A
D2
5D
7F
C6
6A
E9
96
69
25
8C
B0
0B
D6
44
21
D0
99
2E
9D
47
C9
74
2A
21
E2
EB
47
F3
B7
B2
50
96
2C
FE
9A
01
F5
8B
09
07
CE
92
AD
DC
08
5E
65
32
8C
CF
E2
2F
49
47
41
AF
9F
00
0F
35
F4
2D
F3
E6
83
D3
9C
0A
7E
9D
38
BF
E9
D7
B7
56
52
56
8F
BC
8E
B0
C0
50
0C
5A
77
CF
7E
D8
89
C0
E8
22
E0
9D
18
AD
79
51
80
7F
FE
37
D2
B8
12
33
B2
5F
CD
1F
A2
0E
B0
BB
69
54
84
44
B5
B9
28
C9
BC
72
8C
30
DB
EC
5B
BF
E8
AC
AF
9D
17
EA
BC
55
E6
60
80
E9
AC
7B
18
B9
F9
14
B3
D3
61
EC
46
F9
05
3C
F2
EC
59
D9
FF
5F
64
32
83
97
61
AB
70
C0
32
77
C5
98
08
7C
38
6B
DE
1D
EF
54
05
2C
DD
11
B3
1D
9B
73
6E
41
1D
8E
4F
46
60
5B
29
A1
FB
0D
3A
C9
CE
CE
F1
19
57
B5
48
C0
0A
0F
FF
52
2A
EB
2E
7A
38
1B
3E
00
92
8A
16
66
BF
FC
D3
35
BC
94
BE
4E
7D
41
3F
16
48
AA
B6
1C
B7
BE
AD
93
4F
ED
CF
5C
0A
94
30
66
7B
6C
0F
12
4A
51
F3
9A
FA
3E
C0
BD
34
90
3E
73
56
14
CF
C9
B1
07
9E
9A
0D
32
03
07
26
B1
04
17
49
14
49
0D
37
24
84
C3
FC
13
C6
B6
D3
86
F7
21
C8
22
75
B5
85
A4
0F
DC
49
04
0B
89
71
16
E0
55
C9
D1
D4
66
2C
BC
51
A2
56
CD
23
73
6D
3D
68
B0
F8
9F
7C
21
15
04
04
9E
14
82
08
36
37
37
3D
FF
DE
86
29
71
A3
B6
B6
9B
59
E6
0A
B7
5A
44
4E
51
34
CC
38
F7
81
7F
12
D6
7E
3A
6E
E0
D2
F4
0A
77
D5
C4
E6
CF
7C
3B
3C
76
5D
77
F5
51
5C
60
AE
7D
21
BC
E6
1F
68
07
6A
3C
ED
FB
C8
8F
F0
21
C7
72
E7
40
05
8E
0B
29
92
EB
75
2B
C2
22
01
E4
1D
9D
78
93
C2
95
AA
4D
BA
8F
2A
91
A9
86
95
1D
D4
03
21
30
B7
40
7C
2C
D3
52
7D
96
71
CC
A4
CB
8F
FE
9C
F3
F8
ED
D8
DB
F5
E9
35
05
D3
CF
44
91
3A
30
9A
98
DA
98
D9
7D
8A
6A
E1
6A
59
CC
23
0F
94
21
16
51
95
B3
11
1F
26
AA
09
FF
36
60
43
B4
C2
6F
31
CF
A6
91
4C
C4
24
A7
13
B8
3D
BA
CE
88
8C
2E
BA
19
CC
12
0E
F1
DF
7B
E7
96
BA
90
EE
BB
7E
89
9E
7F
C7
10
82
9B
46
C1
B7
CD
09
FB
9A
3A
9E
21
3C
43
5B
4D
E3
D7
BE
DD
C9
5A
C1
14
B7
9E
3C
93
CC
74
61
BB
F5
FB
6F
42
D2
C3
15
E9
17
52
F7
28
2A
FE
14
72
9F
5C
88
8D
8A
D9
5A
49
EE
04
3B
47
BC
1A
41
6D
2F
05
E5
CA
5A
EE
35
22
00
EF
9D
27
5F
5D
7A
C3
6C
06
F4
47
C7
53
62
5A
1C
5E
9D
20
9F
21
0C
64
17
09
DC
1C
A8
36
AD
02
4D
D7
93
EB
A5
DA
98
F4
38
CF
5A
0F
D0
27
A4
4B
28
EF
51
29
1E
79
9F
CE
D0
67
0C
D0
9B
75
57
39
38
C4
D4
D3
C9
E7
BD
6C
50
23
60
23
EF
66
8C
CA
A0
E6
4E
7E
2C
E8
BD
41
74
2F
FE
15
25
63
FC
F3
6E
3D
79
67
2C
AD
B1
C5
E6
63
4F
42
E2
07
61
E2
7F
A1
45
34
E2
88
66
15
1D
FD
2E
A3
3F
A0
11
19
BA
9D
31
B5
34
DB
B2
C1
BC
20
C1
53
FC
2F
BF
87
C9
A4
18
95
AC
D7
D9
D0
D0
92
70
AF
5C
88
7E
7F
85
16
DC
57
67
3B
43
68
08
65
4A
5E
D3
49
D7
8B
0E
98
34
F6
60
23
CB
18
6B
A2
9E
9D
6F
C1
EC
4B
6F
45
23
3C
E6
11
56
AD
2E
59
72
22
7E
80
FA
9C
87
82
5D
D7
CC
9C
60
56
4E
8C
DD
E4
75
EF
5A
55
F3
4B
19
DA
C3
58
5C
A2
44
66
85
B5
3A
19
2A
3D
B2
49
90
A7
C1
A1
7D
23
B5
5E
FC
6A
4F
43
F9
BC
E7
CB
51
2D
1E
49
DA
A0
D6
62
59
F9
5D
7E
15
80
65
E0
F3
71
59
1D
2D
79
AC
00
D9
48
98
2F
99
79
07
07
75
28
5E
7B
FA
DD
07
5B
CB
20
97
D0
C5
E9
9F
7C
D4
C1
5F
C6
BB
B5
B9
E4
68
2B
BE
B1
D6
4A
7E
87
85
A1
A7
05
24
A6
66
04
21
62
05
0F
50
EB
E5
2E
B6
05
ED
76
FB
AE
EC
47
1B
3B
8C
74
E5
7D
2B
1F
AD
DE
71
D8
33
FB
4B
A4
58
68
67
A5
04
1E
C1
2A
84
64
F4
7D
B5
5B
0D
74
02
7C
09
72
4C
6B
62
A3
D5
2B
83
92
31
54
B5
97
B3
27
50
AD
AF
39
50
6E
5B
07
1B
82
F4
1E
E7
8A
8A
E0
61
2C
44
ED
C6
A0
44
22
BE
BC
25
95
F3
45
57
AC
F8
07
59
D0
1D
86
B3
74
5E
CD
C4
C6
15
4D
9E
5E
34
77
24
FE
1E
EA
C8
6B
1D
20
F7
D3
C7
13
67
53
84
E2
35
D8
5F
EB
FF
59
DE
12
77
0C
5D
7D
34
A4
08
EC
6E
9B
7B
C5
27
97
7D
9F
B1
60
7D
E2
91
F7
5D
0D
41
AB
C8
F8
3E
CB
76
95
09
C6
FF
0E
7A
54
DF
8A
82
59
A9
9D
B5
2A
42
ED
41
AB
01
CD
95
BD
50
39
28
48
A4
85
C8
AC
5E
9E
99
A2
5C
0F
44
9E
20
37
E8
6F
07
25
0C
9C
62
98
73
65
08
C7
6C
01
A7
72
33
5A
8A
1B
0F
50
F4
47
6D
32
D3
86
1D
36
FC
0C
0E
7C
ED
46
3A
72
20
0A
11
F1
25
EF
FA
14
81
B2
CE
75
78
E2
BC
32
41
89
7F
5C
58
5E
7F
F2
5E
73
61
4A
B9
65
7E
E3
06
FB
94
74
0D
9B
1F
E3
6D
67
16
52
86
6F
57
D9
79
09
12
90
72
8B
E3
92
82
81
88
58
C5
4A
43
75
F3
DA
99
83
E0
D7
44
DC
9F
F4
71
71
DF
79
A5
97
9C
20
44
4E
8A
DF
8A
E7
04
DE
20
D5
BB
06
6C
03
46
17
B2
6A
90
17
2D
AD
B9
89
18
F4
B5
A1
9A
92
8B
39
AD
26
E5
3C
AC
AC
92
D5
34
38
B1
A3
44
78
48
D4
EB
F6
3D
0B
4B
EC
55
96
C4
DD
B0
FD
83
A1
D6
D4
2D
EB
FD
7E
C4
F7
39
84
54
FF
73
2F
37
73
F6
F5
9A
C8
FD
6F
B2
1C
9C
27
18
E0
8F
C7
A7
D7
87
07
B4
89
1D
3A
14
A3
42
C4
DC
A5
20
D9
3A
F7
CE
4B
59
0C
52
4C
0C
12
8B
2D
9D
15
84
3A
91
3A
4E
14
25
C0
9E
BB
66
1F
73
40
62
EE
C5
73
0B
67
3B
97
52
0E
E5
CC
41
92
6C
AF
65
40
5B
8D
EC
CE
3E
30
CA
BF
8C
49
C1
3C
75
AC
4E
02
5F
AC
A9
AF
38
BB
3F
99
AF
B6
91
F4
F2
DC
28
D9
EE
5C
B7
BE
C0
E0
B3
E6
3C
C5
AC
7D
35
46
E1
01
0C
28
BB
4F
48
66
22
D9
64
FF
40
77
DD
FF
25
B9
35
C6
52
4F
26
F5
D4
B4
05
B4
82
10
78
16
93
F1
8B
2D
EC
4C
B3
89
F4
73
30
5A
EC
62
76
7D
AA
F3
BF
DE
A6
D9
4E
B3
6F
52
73
91
7B
53
48
A4
A6
E6
2F
BB
F2
B5
55
39
78
F3
89
81
DA
20
0C
64
1A
8A
DA
DF
CF
35
8E
08
D2
CD
68
70
DD
04
DF
8C
F3
69
9C
CE
3B
D1
78
88
6F
38
9A
CF
B4
D3
9F
EF
E0
70
4B
1C
CA
93
D5
D0
C4
BB
71
DC
5E
C7
0F
AB
84
D1
69
7E
56
94
B4
4E
40
0F
EF
87
77
30
D2
AA
BE
6A
4B
47
4E
C4
66
C2
DE
B2
3A
B1
84
B2
24
97
FD
3C
E3
2C
EA
88
BC
88
08
82
FA
5C
B9
96
79
37
8E
E2
5A
7B
4C
18
FA
24
BB
A8
5B
DD
B1
A1
0D
2F
BF
DB
2A
F9
F9
57
57
3B
B2
07
00
DE
3E
AC
B2
1C
D9
91
9F
DE
C5
9D
2A
53
A7
89
7F
33
83
4B
EE
70
EB
00
0E
90
61
62
37
31
9D
9F
9B
27
DA
2E
2D
36
58
88
F9
21
B2
1E
AF
33
45
63
7C
B0
14
5F
62
AE
BD
21
70
27
E0
12
30
8F
67
41
29
B6
9E
0E
CF
22
41
03
5B
6C
D9
7A
F1
AF
DB
E1
73
B6
3F
45
47
5D
95
DA
B7
2A
18
BC
F4
FB
62
7A
B8
5B
1B
31
6E
C2
1A
5C
CB
A7
02
AB
7B
F2
1C
CE
D3
FB
94
2D
BE
DA
C3
34
30
D7
81
BC
C5
65
87
57
32
42
15
C7
42
C7
7D
3E
82
48
F3
DB
D8
48
78
EA
F3
E8
B2
26
2F
35
A3
49
98
57
E6
22
DB
D1
FD
60
AF
EA
B9
0E
3E
04
00
7A
B6
7C
67
84
1E
CD
73
5F
F1
A7
B3
C3
32
50
48
1D
96
AD
E7
BE
E0
52
48
14
53
89
77
92
7A
0A
38
F1
EE
55
1F
38
55
12
01
CF
94
DC
2E
FF
B8
F7
41
E4
8A
95
A2
81
0A
C5
FC
08
55
DA
77
A7
8C
D2
D5
CE
85
F8
59
8F
BE
84
09
C8
DE
6B
30
CA
45
0B
9B
27
29
3E
80
50
20
1A
58
E2
B8
57
ED
6D
D8
6C
A4
66
93
DD
F9
FE
5C
58
70
2D
D1
AA
92
89
EC
8C
AC
E1
32
05
57
3C
F2
3F
C9
C8
1E
6C
21
2F
BF
47
0B
02
9D
B3
2B
1E
C8
80
86
98
1A
B2
DB
D7
56
9E
50
33
E5
32
F6
10
31
1B
37
CE
7B
58
2D
1D
8B
07
13
B3
5E
70
E2
0F
2C
3E
25
4B
D8
27
6B
32
25
DD
AD
DF
53
3A
08
50
EB
52
BF
E3
A4
6B
D1
B1
AD
8B
68
AC
24
AF
B6
43
1F
77
8F
46
5B
9C
DC
49
3A
14
4A
CC
3B
37
2D
19
0B
1F
E9
4F
3B
CB
7C
50
29
6D
31
51
FC
93
53
82
80
61
32
FB
45
36
F1
8A
6D
CB
68
DD
B5
8F
FC
F8
92
FC
CE
1B
33
BD
8E
97
8B
40
F7
68
80
75
36
62
54
7E
13
87
C6
4D
3D
58
53
DA
C6
3A
5A
D8
7F
A7
69
ED
72
A0
37
10
2D
CB
BB
9A
93
9C
B6
B9
E6
33
6A
A5
A4
37
82
65
79
2F
65
4A
4D
17
C0
5D
6C
FF
4F
A1
08
A9
16
E9
E3
E9
99
3F
59
66
96
F8
06
12
50
B2
29
62
A8
B5
28
12
6D
9E
73
52
F8
E2
42
79
5E
DF
EF
74
4F
BE
94
A3
77
3B
0E
7C
9A
AF
B5
AF
06
A0
8E
1C
AE
32
E2
38
E2
6C
36
8F
72
16
FC
32
6A
FD
AA
E0
0E
3F
E8
B3
28
5B
0C
F6
A4
D4
A2
38
11
44
E9
AD
93
77
98
F5
22
61
6F
20
C8
F7
FC
30
49
CC
92
72
4D
29
DF
68
75
65
70
DB
BF
37
47
30
F5
49
72
9F
66
0C
5C
64
A7
7A
3B
BE
20
A1
BA
9A
3D
60
EE
D0
A3
D8
EE
38
F3
15
D2
83
5E
B7
05
D4
DA
23
6C
1E
AC
ED
BA
9D
2D
F4
29
33
7F
CB
04
14
40
A0
BA
72
80
D2
82
45
2D
FA
69
40
F5
03
3C
40
6B
96
83
17
36
4D
C8
C8
3B
12
77
AA
1A
4D
F8
93
2A
16
B3
79
3F
F0
26
2D
77
E8
15
33
C6
CE
F0
85
FA
6F
11
D3
9E
5C
11
DA
F5
41
BC
2D
99
EA
67
8B
83
D6
A9
4C
A7
68
9B
C0
6F
C8
9E
FC
30
E9
BE
26
36
55
2E
50
3A
A4
4D
33
00
CB
34
E8
AB
84
58
DF
17
D1
BE
1F
B5
C6
AD
BC
EF
0F
04
11
5B
52
C1
DF
4A
D0
93
18
D3
87
00
19
B4
D5
55
33
3A
41
F4
8B
57
66
06
21
52
A1
1A
7A
33
7A
AB
27
4D
76
E9
FC
09
B1
3F
74
6E
C5
25
90
47
7A
B5
61
FA
31
70
D1
17
C3
A2
F2
A8
DC
8A
36
D8
5C
27
FD
A7
85
88
F5
A0
FA
E7
C5
9A
CC
4C
17
44
A0
28
7F
35
DC
0F
8A
B1
A1
6E
C7
C4
C5
0A
B1
62
92
3A
FA
64
CB
19
7C
17
1E
01
91
43
00
36
D8
FF
4D
F6
05
DA
8C
A9
FD
DF
97
99
32
CF
CC
53
E3
55
9D
F6
48
F2
69
05
75
13
27
08
43
00
A4
8C
0E
7A
7B
06
E8
4A
CA
EF
01
68
CF
7B
21
AD
98
0E
84
83
CE
F4
64
3E
E2
20
A3
45
CC
FB
D7
5B
DA
D5
DB
5A
05
2A
34
A5
74
4C
29
0C
FA
7B
C9
6D
2C
08
06
E6
90
B6
82
66
51
EE
7D
D9
5C
F2
AC
34
A6
77
09
F4
F4
34
A2
7B
AA
2F
2B
54
34
37
98
1D
F1
EB
0D
AC
7F
2B
E6
4F
A6
27
0D
03
4D
62
4C
AF
5C
4A
35
0D
54
3F
7E
60
31
87
09
A0
E1
58
55
96
8D
33
F0
14
C3
75
88
73
09
75
16
AA
AF
22
97
40
7B
DC
A3
23
4B
42
48
05
72
ED
DE
73
FC
1C
40
CF
D8
11
A0
A3
3F
B5
4E
A6
A8
64
CD
95
7D
39
5C
3A
C9
C9
68
8A
4A
15
FF
E4
E0
16
B3
12
0E
48
03
04
16
23
E4
FD
51
6C
B6
78
9F
03
5B
9B
EC
F6
E2
28
DC
3A
4B
66
ED
74
A0
1C
72
E7
3B
8F
C3
92
BB
05
5E
38
CC
28
FD
10
66
F1
D6
0A
7A
DD
5D
D2
63
6F
27
86
79
22
BE
92
C4
38
73
1C
B4
65
EC
07
BA
60
BD
97
62
5E
F2
53
E5
89
D7
09
15
E5
D9
F2
F1
7E
6A
90
5A
E6
34
F9
48
A9
D1
3A
32
78
A6
17
3C
29
EF
52
A1
2A
B4
B9
58
35
44
D2
97
5E
5C
09
3E
30
02
25
01
7A
6B
5C
EE
CE
BB
9A
3A
08
65
7D
AD
2F
CA
8E
F2
F9
95
BA
D1
E3
46
70
E9
4C
0E
7B
CE
8E
F3
1B
62
90
E3
51
95
5E
6F
8B
E8
C7
0C
3C
9F
6D
DE
B5
6A
0D
9B
F3
71
06
9B
E5
0D
FA
1F
91
4C
08
C2
94
5F
D8
11
92
08
3D
36
F4
9F
57
38
BB
47
3A
BA
06
B6
0B
FB
9D
CD
B2
F9
66
1B
D4
DF
61
6F
9F
DD
37
77
C8
FF
DC
A0
44
19
D3
41
92
F5
C1
15
45
51
21
D3
02
FA
0A
FC
D0
C3
FD
9F
D3
C6
4F
0E
70
34
6B
E5
CF
BA
63
7F
CE
1B
2E
C5
8E
E6
38
50
4D
EE
C2
89
48
23
1F
66
63
7C
0C
B1
D5
30
8B
C8
DA
EE
2B
1C
2C
F0
78
B9
B6
00
4B
D6
5E
96
28
BC
EB
91
D4
A7
4A
B7
5D
70
6B
7A
C5
DB
C9
D0
A4
D6
B2
EF
DA
E6
1B
DC
68
20
6D
6D
28
34
06
D8
E1
1D
EA
F2
35
48
01
23
1E
8E
8A
9D
C6
1A
A3
EF
CD
31
5B
7A
2F
31
E9
9E
FB
37
71
4A
85
D1
FD
F0
00
4D
FF
D4
50
B2
F2
30
C9
DC
B6
2F
20
EA
54
FA
46
2D
64
20
3F
20
F7
0B
2B
DF
6D
65
A4
C1
AC
81
69
06
EF
54
5A
42
7C
7A
D5
6C
E3
97
76
EA
28
BD
E2
D4
4C
24
AB
A0
F6
07
FB
28
72
FC
D6
67
45
93
B9
0A
EA
D1
59
0E
C3
49
2C
97
06
D8
1C
66
81
97
FE
4A
C2
B4
D4
AF
5B
90
78
C1
AB
BD
D2
8B
BF
D6
2D
20
59
78
DC
CE
84
E1
0A
E3
39
CD
1C
A2
E6
E2
1A
92
2A
E7
E4
37
88
5C
EB
4F
F9
33
52
7D
A5
3E
54
EC
4F
52
63
70
56
B6
4A
75
CA
6C
46
CE
B2
13
73
08
01
18
0D
FD
A1
6F
C0
6A
BB
79
91
F3
22
8F
62
84
C7
51
50
11
8A
9B
37
39
89
3F
09
58
DD
F9
77
3C
5B
F5
47
9F
2D
EE
FC
A9
A3
89
3F
04
B0
87
5A
9F
9F
2B
E8
48
6E
40
2C
AF
9E
5D
FB
83
0A
50
B1
C6
BA
C9
A7
68
68
E8
35
3F
EC
01
F0
BB
33
1B
09
7E
41
BB
D3
05
AD
88
77
31
10
CB
19
5F
44
C8
9B
95
8C
72
2D
6B
7C
D1
85
5A
98
3A
00
70
CF
90
28
52
49
DD
92
19
5B
D3
4F
CA
DB
BD
2C
33
95
E6
92
7E
9C
5F
26
23
57
9D
14
9B
1D
35
BC
6D
8A
37
70
90
2B
76
F3
0C
3B
10
03
96
06
D7
C1
2B
47
AD
04
C6
A3
FE
83
64
67
D0
6F
F0
80
E5
A4
B7
D2
76
30
CA
61
3D
46
58
18
ED
F9
4B
B6
86
42
33
47
69
72
F2
9F
D1
3E
47
3A
0D
CA
02
4F
C1
29
58
06
A9
7A
09
40
8A
2B
1A
C8
71
F0
74
46
67
3C
1A
5B
D0
C1
E2
28
16
EF
EF
DE
E5
31
34
EC
16
9B
0F
EF
57
EC
7E
A2
79
8B
60
BD
A5
51
6C
88
4F
1A
D6
8F
89
B9
72
2C
B2
AB
E5
8D
A3
22
E2
CB
31
AF
5A
AF
CF
E4
AA
0F
3F
F8
FA
07
EC
1C
18
65
32
D5
63
04
BC
70
80
5B
39
76
1A
DB
DF
46
E6
91
EB
9A
EC
92
6D
87
3D
4E
BC
85
2B
7D
AD
07
87
FC
49
6D
D6
23
05
17
92
35
C6
15
B3
2F
38
DA
CA
A6
72
23
34
F9
F5
8C
A4
74
07
89
E2
AB
44
AA
AA
27
32
60
EA
88
30
CE
DF
ED
27
94
17
89
E3
F8
70
3D
94
CD
2A
86
DB
D0
FB
6C
25
E4
7C
B8
EC
B6
E5
9C
0F
0E
CD
93
26
85
D3
2D
7A
31
D1
FB
CC
98
71
96
48
F6
AC
3B
DC
E3
6F
41
70
5E
53
43
C2
A4
9D
62
63
DB
FA
85
F3
7F
94
22
F4
D6
7B
74
03
EA
44
DC
26
85
77
88
62
2B
02
CD
14
6F
82
05
A7
B0
BF
60
92
92
5D
31
21
71
56
5F
BC
E5
FA
9D
3C
FB
C8
56
93
30
41
26
5D
62
D0
37
2B
F0
76
DB
44
4D
CC
67
C9
D7
2E
5F
BA
04
49
78
65
54
97
2F
F9
6F
8B
55
59
C3
9E
5C
96
2A
76
D8
16
17
C7
5D
BE
2F
A5
28
2B
C8
C7
F4
A4
22
BB
BE
F8
FB
2E
9E
EE
E2
FD
DB
96
81
26
27
6B
98
AB
0A
C1
59
64
8F
A9
63
E6
70
6A
73
03
62
E4
2C
6A
B2
14
BC
18
F1
88
4F
7A
68
29
0E
6D
A3
44
88
A0
6C
B4
3B
0E
4F
DD
0B
A0
7C
D5
A5
2E
87
2D
96
17
3D
38
A8
6C
6D
A9
AD
39
A6
94
E0
90
AE
98
84
EF
66
25
54
FA
A6
F8
78
0A
39
85
8F
D7
20
52
E0
78
B3
09
45
D3
6E
A9
3F
18
8D
2B
D6
98
8A
C1
A5
3C
A7
9C
74
D7
05
81
BF
B7
F5
E6
69
AD
30
FF
20
71
FD
33
39
FD
0C
A1
A3
6A
AD
3F
94
71
90
90
6B
49
8B
DD
4C
0C
F7
22
B9
CF
A4
71
08
E0
54
95
78
F2
BB
B7
B6
EA
9B
69
B3
94
80
46
F6
2C
48
E2
CB
12
5B
5C
8A
4F
58
5E
32
A5
2D
9C
5E
09
A1
F9
56
8C
D2
53
53
F5
6E
FC
39
2C
72
CD
05
17
03
64
4A
62
E2
2F
88
96
2C
EA
4F
9D
C3
94
DD
33
55
A5
50
3C
EA
CC
39
BC
2C
A6
EC
6C
00
FE
A3
0F
61
2B
7C
60
68
89
B7
0F
5A
F9
8A
61
42
96
4B
96
FC
CA
65
13
B7
5C
D2
75
25
3D
1C
12
F8
85
6E
F6
75
C6
6A
34
F2
C5
47
8A
4B
FB
B4
8A
14
85
76
5C
84
34
2E
36
62
1C
7C
D7
BA
8D
C2
AB
B8
8F
E6
9A
70
DD
43
93
48
DC
93
00
B4
E4
08
28
67
80
93
4B
33
90
26
32
78
11
D4
BE
E8
2C
A7
99
80
4F
6D
82
E4
E4
16
4A
60
B0
8C
60
A5
94
8D
D2
A4
BF
4F
BD
2D
57
27
83
51
4F
86
D5
88
EE
D2
1C
F0
54
EF
63
BB
BD
41
34
2B
00
BA
ED
D2
29
8A
7E
9E
9A
8F
00
0F
BA
75
16
F0
C2
52
F8
80
75
09
B4
67
CA
4D
0A
00
FB
14
AF
A9
75
72
76
1A
B3
93
D2
CD
CE
92
CB
5D
92
60
59
80
0B
8C
58
6A
B2
69
DA
45
02
52
54
71
74
A0
33
DE
EF
EC
13
8A
ED
C3
44
CE
71
D0
D3
CB
F6
76
7C
46
FD
D3
85
16
5B
27
CA
2D
4E
9E
F4
57
6D
BE
23
B8
E6
15
5D
D9
EE
3B
09
8F
34
34
35
A6
6F
CF
4B
92
98
C5
01
EB
1A
A4
7B
E2
F9
C0
F1
22
5D
D9
56
0B
EB
40
B6
5C
5D
2D
C0
DF
14
40
82
08
C5
88
A8
80
71
16
44
B6
64
C8
3B
C9
A6
8C
21
14
39
3F
3F
F3
89
E0
94
E0
A1
4B
2D
11
7E
47
7E
7E
48
0D
C1
C7
F4
0A
02
0D
63
BA
55
38
F9
60
B1
70
49
93
F8
F9
8C
F9
AF
A6
02
45
9A
E6
12
CD
DA
C2
B8
90
B9
5D
D8
36
E2
A2
FF
33
7B
D0
A4
50
7F
DE
90
C9
7E
92
93
25
55
F2
B3
12
27
37
DD
F8
BF
58
59
F0
E6
9B
6C
48
47
48
21
19
9F
B0
F6
9C
1B
0A
7A
BB
C9
AB
1C
7D
E8
DC
48
1A
5C
22
84
B3
7A
2E
FE
41
6F
0C
DC
A7
D6
22
65
D4
71
D9
10
8C
0B
72
E8
54
2F
32
4B
49
28
78
1E
43
E1
49
99
55
D7
66
09
9E
D3
7E
3E
8A
2F
7E
FF
6A
50
A5
BB
7A
84
BD
07
3F
35
BC
CC
AF
DE
7C
6B
04
F3
17
A6
46
75
F9
F7
00
3B
24
FB
AF
1D
B2
04
8D
35
BF
2E
F6
29
71
4C
D8
95
FB
1C
E6
7B
60
2A
11
80
7F
3D
47
4D
1A
09
FF
A6
F0
F7
53
82
07
AC
87
35
A5
85
62
DB
76
60
3D
56
B2
38
6A
11
9D
2A
93
E7
5C
0B
05
E8
DF
2E
CE
E5
73
41
A0
CD
5E
69
40
6D
47
C9
6E
45
BD
13
82
52
F3
82
72
7B
D9
0B
EB
36
FD
C8
F7
A4
F4
FB
04
13
FE
3C
70
FB
5C
9F
F6
6F
C8
7E
C9
BE
22
C3
DF
AD
2A
2A
EC
8D
73
28
3F
07
DC
F3
C4
EC
0D
A7
9D
04
44
A9
5D
0E
15
CD
13
17
81
E1
81
52
80
87
ED
47
49
22
B6
97
75
61
67
D9
4A
07
A5
54
E0
D2
08
08
6A
07
1F
33
90
CB
F3
BC
FB
89
89
FD
DA
19
F7
B6
86
40
E4
5A
B4
3B
89
B8
34
5F
AA
9F
82
08
96
5B
E7
51
68
88
15
F8
3E
E3
73
DB
13
BE
6A
0A
C5
46
82
65
9E
21
7B
31
49
DE
6B
35
88
80
B1
B2
D7
E8
58
14
1F
3B
4E
89
5A
2F
37
2D
81
49
00
4A
C7
AD
0B
44
09
BF
94
53
E5
2A
94
15
79
4F
45
69
C0
EE
EC
7E
CC
37
A9
FB
5E
3F
59
32
8B
35
12
09
AE
35
2E
E0
66
5A
BC
DC
B3
4C
BC
78
99
F4
5D
4D
D7
00
3E
0B
2D
5B
07
9C
B9
3B
CF
81
33
E2
8E
74
42
E0
DF
C5
39
08
3A
07
A1
14
58
F7
7F
3E
A4
EF
EE
96
4F
B2
96
7F
2F
A9
E9
36
55
D7
59
EB
27
F3
B1
0E
14
71
CE
FB
C4
C0
DF
3C
6D
5C
28
82
2B
FA
0E
26
35
2F
AA
B0
47
CE
19
CB
FF
25
09
57
6F
C8
D7
D5
7B
87
5A
1C
21
A5
25
A6
72
C2
72
1F
BA
23
E3
E1
D2
99
E4
FD
E0
CE
F2
19
37
70
E0
3E
82
52
D8
18
C4
82
15
31
B6
DF
55
E0
80
44
8F
C9
D3
CA
1E
AD
9F
D0
15
3C
C7
FC
78
C5
0E
C1
7B
27
40
EA
B0
23
A1
5B
8C
EA
73
0E
A1
6F
29
A8
A1
65
87
8A
5C
76
D8
5E
F9
D1
04
86
8A
69
05
A0
F0
4C
47
9B
FD
58
92
B5
CB
7C
D2
F7
35
0D
14
3C
73
97
35
7A
AF
CA
8A
60
76
ED
59
3A
5A
A8
F5
83
B6
82
5F
BB
96
42
8D
D3
6A
C9
B4
B0
AA
CD
64
C6
BA
83
10
F0
0C
36
DC
E2
5A
54
C9
E9
E2
41
93
3B
D8
43
65
1C
91
E7
8C
CA
15
24
57
40
0D
C2
B7
B3
0B
FB
04
D9
1A
92
3B
44
69
49
19
A6
E0
E4
A1
35
81
F9
F3
08
14
06
0E
EF
30
A1
D1
D6
98
EC
BB
B6
3F
57
BF
C9
52
73
AA
A0
9B
08
4A
EA
EC
B5
3A
38
74
E1
6C
F9
63
4B
51
70
3A
49
BF
5A
3B
3B
5A
A2
9E
B4
7C
A8
B6
5E
B3
70
B1
17
C9
AF
90
18
74
5E
6C
1D
9E
54
4E
43
90
D5
7F
4F
05
AE
89
28
AA
43
DF
DE
78
7F
3F
C3
81
7C
AA
BA
06
BC
8A
7A
84
BE
DB
AA
AC
46
D1
FE
A0
96
7F
76
77
F6
EC
F2
CB
C4
53
39
6E
61
6E
FC
50
64
6F
96
32
BE
D6
92
7B
59
58
C1
06
39
5C
D8
AD
BE
94
BE
8F
B3
9D
EE
B0
5C
D1
CB
94
4C
A2
CA
C4
08
1D
A2
44
B8
FD
61
57
4E
9E
3D
F6
2F
FB
94
0A
67
49
CF
E5
87
94
E1
6F
24
14
9C
72
54
E9
0A
86
DF
B2
C0
B5
87
08
DB
04
5E
8E
14
40
A8
01
A6
9C
6F
67
7E
54
DE
2B
86
A8
F1
B7
6E
DC
EC
ED
8A
26
86
DD
15
78
C4
06
A8
BD
53
3D
2E
FD
6F
DF
3B
C1
1C
35
EB
C8
22
A7
BC
2E
39
13
22
12
2F
09
5D
81
14
EC
D2
16
B1
A0
FA
50
3D
31
93
97
A0
2B
50
64
FE
37
5F
EE
11
B2
88
34
88
43
28
93
2A
55
EF
81
BA
54
D5
BC
53
87
DA
99
86
24
F5
88
5F
0B
18
63
23
31
E0
2E
35
34
BF
60
19
3A
03
A6
4B
7B
F6
8F
2C
0F
28
4C
23
4D
B5
58
74
2E
9F
35
65
6F
B5
33
4C
70
72
AA
E1
E5
01
FB
D3
BD
DF
8F
DA
85
E9
C1
C0
58
AE
8A
11
42
D6
AF
DA
23
DE
7D
11
A6
B9
6B
7B
73
B9
DD
DF
A2
41
DE
DC
57
21
B0
CC
5E
F5
C7
67
74
16
54
9E
E3
E9
1C
0D
F6
69
4D
7F
71
9F
B1
80
59
12
FD
50
5F
E5
F3
4D
36
79
43
19
34
2D
1B
2C
C0
83
1D
D1
64
8C
28
7B
84
EA
54
EE
CB
7E
84
76
52
D2
B0
93
F4
0E
F8
80
DF
48
AC
BF
0F
06
F1
09
40
5A
C6
D2
28
4B
79
7C
A2
5D
68
C6
93
9C
C6
BC
CE
F5
00
4C
51
89
1F
81
2C
B0
5C
9A
43
03
36
45
E5
B5
C8
AD
D8
81
F1
8E
2D
B8
82
EB
6B
40
7A
11
45
4D
08
1C
21
C7
C5
6A
01
B0
8C
FE
06
5F
02
41
1D
4C
53
E3
9B
28
45
A2
F3
FD
0E
86
15
32
CA
3D
56
1A
43
28
4D
C2
EC
78
68
9B
E4
49
35
66
88
29
CA
51
50
EA
F0
7F
21
69
93
95
76
CF
B4
C6
EC
01
F7
00
60
60
3F
B7
30
8A
D8
26
FF
79
4C
0E
1F
63
41
8D
ED
D6
60
06
1F
16
47
2B
E7
8F
F2
75
46
0C
ED
F6
B3
A5
59
DF
1A
FA
92
F1
07
BF
6B
77
BB
D3
F7
37
80
89
D2
47
39
6E
C8
92
65
CD
BD
19
4F
1E
F4
EB
E6
B3
29
82
CA
1E
C8
58
65
2F
F3
C8
FD
32
70
01
92
23
59
DF
24
81
D2
30
52
53
A7
F9
47
48
8B
FE
E2
95
47
E5
15
AD
F1
9B
B4
A6
7C
6B
EB
F8
D8
6A
90
92
E7
E4
63
1E
DA
3B
E8
1E
56
47
B8
E4
2E
8C
B3
DF
8F
01
3C
2E
ED
7B
9E
B2
02
0E
0D
B1
C9
E9
87
CF
FA
EF
C0
CE
05
F3
08
4A
22
4D
EF
E7
D2
67
83
08
4B
4C
EB
F3
78
29
CC
8D
73
BE
17
84
8E
72
6B
9E
AB
03
50
B2
8E
0A
DD
72
58
AC
E3
01
33
7A
CA
50
94
28
C5
20
57
E0
DA
85
0E
3A
0C
DE
88
40
F4
35
72
43
90
CF
CC
2B
BE
87
79
19
E3
98
93
DD
96
13
CA
F9
3E
7F
B0
8D
52
CA
B1
8F
56
FE
0D
AF
A8
95
50
BB
CA
6D
C9
A4
59
77
64
2B
CB
C4
07
AF
2E
5A
04
AB
14
1E
B3
F6
E0
DC
AE
5C
7F
08
4D
0F
20
DE
26
8A
8D
C0
25
07
CF
FA
6B
A5
4E
A7
47
E3
B7
03
CF
07
EA
DF
15
5B
4F
24
C9
34
AE
28
D5
1B
97
F1
67
F5
5A
8C
DD
30
33
07
B9
74
1C
9C
B5
74
67
68
E7
3A
66
9D
A4
C3
29
4E
82
19
28
D6
79
90
BB
0C
9C
96
2F
78
49
B3
C1
0B
45
D9
1F
C7
A1
31
88
F6
68
86
A0
C1
7B
21
A9
BE
2B
26
FF
24
43
3C
05
52
DD
8E
B3
2C
16
4D
EE
CF
9C
DD
D2
F3
80
E9
84
D0
1B
52
B5
8D
01
4A
7B
7A
F2
C7
D5
2A
16
82
4C
E7
C1
4A
E1
27
9A
4F
FE
13
90
81
F9
80
35
35
3B
71
8E
B7
74
D5
F2
C3
D9
A9
23
57
D7
16
EF
AF
D5
65
73
B5
15
67
F3
96
C5
05
49
09
78
B2
D1
F9
30
7D
49
1F
F3
4B
3A
40
AD
14
77
F7
32
CD
FE
2E
34
4C
77
FA
50
65
F0
B3
60
BC
C3
21
38
85
71
50
A3
B8
40
FB
EF
BE
C2
6D
E1
ED
45
08
69
77
34
DA
65
C5
7B
1D
26
44
BD
9C
D0
FD
30
E6
D6
29
F1
60
97
63
F3
54
8D
04
E7
62
5F
74
ED
D2
E3
C8
F1
B4
D0
3E
D4
A6
DC
C4
C0
EA
19
F9
75
A8
ED
E8
E4
57
E7
E2
B9
D0
50
F2
42
23
BE
23
4A
40
11
A2
87
04
16
58
CD
45
0F
91
C0
A6
62
92
F2
48
2F
37
8D
2C
AA
AC
BA
81
9F
BA
D3
1D
31
B1
CE
ED
22
8D
00
1E
9A
CE
0A
EF
11
07
C5
E0
50
08
F4
EF
8C
50
59
50
0E
E0
B1
92
F4
E8
DC
FE
2F
74
85
E9
A8
E2
BA
EE
30
AD
B7
D3
6B
2B
FC
92
D4
9E
70
F0
B6
CA
79
2D
48
67
10
C2
DD
C0
02
93
37
C8
5D
85
00
16
B0
53
12
77
5A
FB
EE
9C
A6
7E
E9
29
FC
47
CB
AB
68
59
BF
DA
42
E4
0C
14
F5
0E
DE
4E
B7
82
8C
4B
C7
B6
4D
59
B4
6B
33
32
A0
4F
E7
89
1C
0E
7F
CC
DC
2A
1D
37
B0
20
9F
FA
79
3A
D5
CD
E0
A0
D7
0F
5C
9D
AA
29
17
58
EC
93
B8
23
AA
E4
23
34
24
81
7D
72
96
8A
C3
D6
05
AF
87
57
9C
D0
B0
98
CA
12
BF
76
CA
78
19
4E
F1
CD
E1
46
97
0F
11
7E
20
EE
C7
55
F5
8B
44
93
E3
EA
D0
B1
C6
59
9B
FC
2A
1B
0E
DD
98
8C
0B
EA
8C
80
9E
AF
00
FE
D5
0C
FF
82
9A
A6
20
14
3D
F2
89
1F
17
4B
24
D8
F7
88
FF
D1
90
7A
76
E2
CA
CD
7B
05
3F
56
4D
8B
FA
19
93
D7
A1
73
68
A2
B5
40
65
C2
C5
82
EF
E7
08
77
F8
D4
5E
A7
94
A2
5A
0B
D6
F8
AC
B0
E4
93
C4
EA
E9
AF
BC
AE
0E
FE
4A
6E
9E
E7
E8
5F
6A
78
EA
52
D6
79
EF
AF
8C
14
6C
24
08
CD
96
F9
19
C6
0C
90
86
53
05
F4
22
F7
65
31
00
0E
4A
AA
3C
49
0D
5D
8A
59
18
52
A2
5C
65
AB
CC
20
4F
E2
AD
97
62
AD
FF
53
5C
1A
51
2C
BB
68
58
2C
94
12
F1
FC
07
77
B8
30
F5
6B
14
2B
E8
3C
2A
47
24
AF
71
78
BF
71
AB
9E
B2
3C
77
B1
F4
BB
02
89
8E
69
A9
D9
92
CF
4A
8A
18
57
DA
3E
3D
7D
60
07
76
AD
64
08
1D
E4
56
A2
23
C5
22
39
6C
8B
29
20
BA
F1
D5
47
8E
EE
8B
7E
75
99
E1
88
34
2B
04
77
7B
72
39
36
C4
12
8D
39
FA
26
A9
2C
CB
81
2C
65
8D
A7
69
07
78
B6
6E
8C
51
21
BF
59
83
C4
46
17
D3
5F
27
DC
3E
01
3C
E2
F3
5D
40
52
58
2B
81
91
F3
5E
3C
80
45
5D
14
EB
D6
04
49
38
6A
4B
43
2D
91
F4
EF
8A
D6
DC
71
76
9A
44
29
2F
B9
F9
04
05
67
F9
10
A0
8A
D9
71
D3
1A
1A
28
3A
A7
0C
F7
E5
2B
4B
D6
49
CA
4B
56
89
8E
46
E7
0E
00
B8
BE
55
50
7D
18
4E
79
6C
38
30
7C
FD
64
9E
FC
A3
BE
EF
F7
4D
C6
24
D2
5B
25
6C
DA
5D
29
99
F2
A2
7C
D6
89
C4
AE
61
92
91
01
EE
5A
F4
73
8C
FB
F8
DC
CC
65
7D
39
31
B3
1C
87
10
95
EA
C7
89
37
B5
C0
31
87
3C
80
EA
A2
26
4A
CB
51
61
D2
22
D3
D7
FD
8B
B2
C8
9B
84
B5
B4
EA
D3
B5
34
E8
08
51
A3
CB
77
31
5D
67
83
46
A2
1B
62
75
AE
53
7E
65
E1
3F
65
25
1A
BD
8B
05
5D
08
83
EF
EC
7C
6C
98
99
E2
0A
11
BF
85
25
5B
A9
15
EE
36
CE
6E
20
2C
6F
51
D7
35
66
25
53
EF
99
55
50
B7
34
F4
83
BE
DA
02
83
27
87
6D
05
AF
32
81
C4
A3
C1
18
E1
8E
69
01
3E
F7
73
C8
A5
6E
43
99
72
E4
A9
B6
92
0C
D2
81
2F
76
93
04
9D
AE
C0
9E
7A
90
AC
94
35
C7
2F
32
1E
47
CF
F2
E9
78
C1
BF
41
8D
1F
DF
80
86
7A
72
5C
20
43
3B
62
D1
AD
09
69
41
2A
E4
06
53
E8
1C
7E
F1
11
B3
BD
A4
EF
A9
82
DE
1A
F9
35
BD
CD
71
B2
80
BE
74
14
AD
7F
11
D8
4A
90
D6
2C
75
2A
C3
C7
91
35
A1
C2
36
C2
11
84
33
E5
19
5E
ED
8A
B7
DF
54
E6
AE
F9
BE
21
C2
F5
EA
E1
90
9E
CA
39
AE
79
6C
D6
3E
0D
B0
8B
B8
35
B5
BD
7C
A2
3F
CE
FE
CB
66
FD
A3
30
AB
84
CF
66
64
13
44
26
4B
E5
70
F8
EA
32
A9
EA
FF
36
39
86
33
74
C3
BB
01
AF
76
E4
6F
64
F6
DB
8D
5C
F8
B1
D1
B3
41
74
DB
F6
91
C1
C0
E9
F6
B6
E0
62
22
D6
60
D3
F6
C0
D1
B8
AF
20
B8
93
CD
1A
28
5A
AC
73
8E
2F
F4
A6
CF
80
2C
8E
F9
DE
18
C5
40
31
F4
0E
5A
D2
FF
5C
1A
D2
E3
1F
E8
1E
05
A3
CD
BE
24
CF
0E
27
FA
8C
4C
30
D6
70
47
CC
5F
3D
F5
FF
79
88
78
57
36
30
BE
F8
88
48
40
74
2F
B8
24
66
38
2E
E8
DE
4E
B3
32
52
18
A3
59
34
4F
6C
34
CE
21
05
86
1D
A6
0E
D4
4D
30
3E
98
52
93
82
C2
3C
F1
1D
41
5D
C3
A2
F6
E3
F4
DC
F6
FF
FA
CA
EF
9A
B4
85
E3
7B
A9
A5
EB
6F
F1
1A
C5
0C
84
E7
87
A1
E5
B2
C4
B2
12
98
BF
12
39
EB
80
CC
C8
1B
3D
5F
E2
C7
5C
1B
2A
D8
1E
AA
6D
B2
6C
E4
73
64
15
FD
FF
12
E9
31
FF
B1
C2
19
E5
44
3F
CF
F2
B5
3D
F9
79
CF
8B
C8
39
9B
45
F8
1F
CD
26
B6
BC
5D
93
18
A4
85
71
F3
EC
FB
72
AD
7F
09
2C
B8
9F
52
79
37
DB
A5
AE
AB
9B
AC
67
1C
E6
BE
87
E6
23
33
99
53
4B
E5
18
9D
45
D5
8B
8F
41
FF
94
7E
6B
58
5D
44
9D
A0
6C
05
7D
89
7E
E6
9E
00
CB
4A
16
E0
33
04
F9
AD
DE
20
87
94
F7
7E
4A
E9
C1
19
42
C3
F8
09
74
42
6F
71
8E
9C
CC
8E
FA
88
6E
2F
4B
7A
E3
74
46
B3
27
BE
3B
3C
85
1C
74
EB
83
0B
E7
0E
A8
CF
94
39
C8
1C
EF
B5
A7
68
A3
73
5E
96
2D
9B
CD
39
FA
24
9F
70
A7
A9
6F
46
03
BB
FD
72
FE
28
2D
7B
EA
2A
CE
0E
B2
6C
23
C4
13
07
2A
49
DA
9A
EB
52
98
A9
80
07
92
2A
9D
C8
57
47
59
73
7E
F1
A7
17
0E
92
01
56
E8
34
02
33
67
4D
E2
8B
53
40
C4
17
27
CB
CA
D1
C7
94
6F
BC
1E
1F
91
96
15
D3
BE
4A
AA
6D
26
1A
08
88
B3
A3
18
8C
36
87
B7
AB
F1
48
50
30
B8
9B
3D
38
5F
E6
B8
90
17
78
45
A9
FB
B8
09
70
96
5A
76
2C
19
DE
3C
74
D6
AD
07
24
F6
28
7D
A3
9C
42
7B
26
D2
17
08
FE
5F
4D
D3
63
96
57
17
08
86
2D
6E
D2
2D
D1
0D
44
5E
03
D0
6B
95
E4
D1
97
54
03
1B
B1
A0
77
49
C8
96
AB
82
36
9F
F7
DC
A3
AA
79
0B
82
F0
2C
B5
B1
9C
C9
DB
5F
0E
D8
8D
1D
96
0E
4B
C0
42
33
F4
E4
3E
86
B3
CA
0A
32
03
77
D9
C4
DC
37
A2
DB
48
7C
C3
23
12
85
D5
35
1A
0A
61
65
C0
81
C4
16
C7
D3
E5
C8
33
26
14
74
30
4C
C2
88
D6
3E
95
FB
F7
FE
15
7D
F3
C4
A2
9B
29
B1
09
D4
47
35
3D
3B
E1
7D
F5
EC
58
1C
DA
70
75
F8
C9
C5
77
74
1B
A2
30
DB
7C
3A
83
F4
C7
DC
E2
0C
C0
A8
FA
81
1E
28
F8
CD
79
36
32
AF
98
95
D9
E4
45
BD
C7
A1
5D
0E
38
97
FE
C8
F8
67
D9
2A
59
7D
B9
80
85
F1
A8
E5
D5
C2
4E
3F
00
0F
6D
05
13
09
5B
A4
94
5D
E5
55
D8
0C
3B
B8
6F
24
9A
68
C2
6B
58
2E
D8
7A
21
39
C4
6C
74
8E
40
0F
E5
D1
4C
72
BC
D5
97
7D
33
75
0F
1F
A8
FE
5A
60
36
AB
5A
D9
E6
66
72
6F
5E
79
49
17
1B
6D
08
2D
A5
3E
E3
C1
8F
9B
2D
DB
E0
45
A1
05
A2
9F
60
27
E9
A9
51
DB
83
E0
51
26
C9
36
10
5C
D2
2F
1D
6C
0B
8D
12
CE
4C
A9
7B
F5
85
B4
7B
1D
4E
DA
DD
A6
11
11
7B
0F
42
C8
2F
A7
77
AC
4C
8F
03
F9
40
6B
B1
36
0D
EA
16
DF
A2
3E
D6
D8
02
37
D0
9C
A2
64
4E
C5
70
7F
00
44
DC
56
6F
61
33
CB
BD
55
4E
BF
57
7C
A4
25
EA
7E
EE
EF
53
11
20
89
14
49
B8
30
27
61
90
FF
53
B1
48
50
DF
83
0B
8C
E3
CF
F8
CD
1A
A7
5A
7F
68
D8
CB
B4
CB
20
47
AE
DE
13
2A
7C
0D
4F
1F
EE
3B
E9
A4
30
E5
64
91
C3
CD
4D
86
D3
91
BD
FD
64
10
12
A7
66
A7
82
B4
F4
C6
5A
57
F5
4C
F0
B0
16
16
62
4A
EA
8C
1D
9F
C2
A4
F8
10
B0
4F
31
74
AF
79
80
58
F6
56
7E
4D
19
6A
A2
8C
38
81
F5
A1
CF
89
86
3C
AB
12
A5
FF
10
10
66
DB
96
9A
05
5C
C3
90
BA
05
86
84
6D
64
4C
3D
60
04
48
AB
4B
58
D7
DC
C9
17
85
F3
C2
9E
6C
12
31
17
18
45
93
69
75
41
4A
B4
8C
45
00
0B
A9
78
12
50
BC
BD
52
26
26
3A
F0
76
0F
3D
8F
9C
80
7E
55
EE
94
11
DF
D4
F2
40
EC
8B
63
76
B2
5A
82
A3
15
27
FC
42
89
DF
23
F8
85
32
6D
3C
A3
AC
FC
65
30
54
AF
44
B7
BD
C2
3C
F1
21
2F
F6
D9
48
2A
7C
5F
8A
0F
1A
F3
AF
A9
21
16
BE
FF
14
52
F0
36
E9
B9
2A
31
61
51
3A
47
43
9D
B4
2E
18
1F
6E
F7
1F
03
0C
CC
D2
61
AB
46
6E
FC
06
5A
EA
E2
2B
12
35
06
09
65
E0
E2
8B
2F
89
B7
AE
91
90
F0
AD
9C
3B
A6
52
67
75
0C
84
E2
8D
60
7A
13
55
D1
8D
49
74
92
91
49
D1
C6
D4
97
7C
40
9E
62
90
3C
E0
86
F2
8A
EE
E7
BD
BB
B0
3C
6A
73
41
6F
C1
9A
B1
E9
98
98
12
46
2B
2B
26
00
7F
2C
4C
21
78
8B
74
6C
E5
76
1B
E6
EA
91
1A
C5
EA
82
2C
1B
E1
A8
30
96
BB
C5
C5
ED
65
BB
8A
D9
39
36
44
EA
34
98
73
DB
C4
C9
58
A5
17
35
A9
62
F0
71
04
97
32
ED
C6
44
31
3B
E2
D8
59
E6
72
E5
E3
37
4E
E7
3D
07
AB
3C
CE
84
B9
A9
AE
22
AB
ED
45
FE
DF
7C
55
2B
B0
A3
79
20
1E
B9
82
4E
3E
0B
66
4E
62
D9
95
8F
4C
65
65
52
50
39
D9
E1
8C
40
5E
FA
B1
23
40
DE
29
92
52
FC
38
01
A5
B5
87
1B
94
8A
41
99
52
7C
CE
BD
27
A2
ED
57
D0
47
0B
98
75
A0
28
52
AC
11
ED
75
FF
A0
29
A4
24
ED
03
BA
67
D6
D4
D8
19
18
23
F7
02
F9
68
E9
4A
62
27
5D
B8
D1
09
03
0A
DC
23
7B
37
E6
C6
1A
16
93
9C
3C
68
75
FB
54
A8
EB
00
34
37
5A
05
E4
4A
79
54
10
FA
EA
02
48
1A
76
BC
4F
E7
4A
10
88
6E
F9
3B
6C
87
92
56
3F
CF
04
54
9A
27
47
25
21
B3
19
32
88
45
3E
DE
46
B2
BF
E2
4F
A7
56
3A
88
81
86
4C
C8
0B
F2
D6
9D
FF
8C
76
8E
CE
E1
61
D5
B8
70
06
79
5A
D2
58
FB
8D
D7
A5
89
4A
4F
32
07
7C
3C
60
7F
E1
80
94
63
A0
E5
9A
FD
A7
79
06
35
F3
31
48
CE
5B
9F
1E
90
52
4D
B3
27
8C
C0
5D
E1
1D
85
94
42
76
B8
01
3D
BF
A4
DC
24
00
9F
2E
46
58
C0
DC
70
FB
8C
C8
29
E6
EA
BE
FA
19
33
11
F3
80
BF
87
C3
3E
62
85
7D
89
93
BD
2C
3D
9F
80
DD
01
E8
DA
11
D1
82
6A
02
9F
29
82
A4
6D
C0
5A
BA
9F
AE
71
21
C2
F3
5E
23
67
D2
24
BC
7E
AB
F8
6E
97
23
65
7E
83
58
10
26
1D
38
93
85
E5
66
1D
42
96
00
AE
D2
7C
18
5F
DF
8B
01
EA
10
C5
62
8F
78
DB
CE
D2
7F
2C
19
28
79
79
96
42
E8
12
63
6C
BE
0F
7D
6E
0C
36
ED
E4
C6
D1
2A
64
B1
D5
7A
41
B7
6B
26
03
D6
21
1F
28
B1
E9
05
1A
C1
6F
66
BC
7F
92
94
CB
4F
2C
66
D5
39
31
0B
75
06
F8
0F
38
02
78
52
77
3E
63
9F
85
18
D3
B1
4D
93
94
D1
37
36
B5
2D
AC
3D
5C
01
36
C7
5C
2A
9E
77
70
78
5A
F2
5D
24
BF
1A
9C
B1
6A
0C
35
B2
77
0D
39
5A
E0
E8
81
9C
EA
57
88
A9
F1
D1
AA
8A
B8
60
BB
F7
1C
D6
22
61
26
A6
7F
FB
E2
18
D9
02
64
56
14
B2
87
F9
CB
A4
D4
A8
71
28
50
31
E2
65
B7
CF
B7
2C
E5
E4
57
AB
E5
45
91
0B
17
D4
6B
83
C2
F8
A0
C3
A5
E3
72
24
BF
80
57
5A
EC
34
20
09
44
DF
2A
3C
3C
5B
F4
BD
1F
38
BA
CA
BA
A8
A7
1C
DA
45
8B
3E
B9
91
97
AE
68
AF
FF
DE
CF
EF
9E
A6
20
DA
D2
5C
1A
DF
3C
A9
6C
0E
E4
B4
2E
1A
4B
1D
5C
AC
1D
8E
C2
C7
7C
F0
55
12
FF
85
B5
59
13
C1
A6
CA
6D
6A
86
24
47
BD
68
8C
5C
8E
1A
8A
3E
B4
64
C9
3C
0F
54
28
92
31
68
13
CE
E1
D8
C7
7C
AF
A2
D2
FD
27
D5
73
89
EB
D5
41
D1
E5
8E
9C
86
19
81
5E
B5
CB
76
56
2C
76
7C
F7
58
C3
60
13
22
DE
F4
23
1E
BF
B2
46
81
D5
BD
23
A7
60
3C
F7
6F
07
5E
16
0A
00
9F
E9
C2
1A
E7
73
0F
3D
1D
F4
91
7D
7B
43
01
78
DC
64
A6
5D
81
CB
7A
24
18
41
84
BD
5D
3D
51
E1
FF
BB
38
6A
0D
D9
08
87
E2
26
CE
E9
96
F2
FD
43
1C
2C
26
C2
95
64
96
F3
8C
EB
B6
25
AB
CF
1D
EB
78
17
32
29
7B
97
AE
A9
8C
CE
86
E9
80
D7
6F
B2
E7
86
79
9C
92
B5
9C
F6
57
C7
57
83
26
63
F5
E1
FB
E7
E3
C6
FC
7D
96
D0
5F
92
E1
E8
A6
9E
81
D4
41
53
ED
DE
9C
4E
5E
77
BB
CF
E5
CB
D5
0D
53
DD
46
40
68
61
E2
79
25
E1
09
35
92
65
71
52
F0
CF
7B
2F
B7
CA
7C
51
8D
E2
6B
46
A2
90
9E
8E
84
10
65
76
2A
4F
6C
E5
08
5C
40
78
BC
8F
9B
DB
D7
27
63
0E
05
1B
AD
8C
41
26
89
D0
99
EB
65
E6
23
FC
65
A3
90
6C
46
70
D6
69
5F
9F
09
F8
B2
08
EE
D8
78
0A
26
34
AA
A1
14
E9
D6
D2
50
D9
F1
DA
21
4D
79
86
AC
41
77
D2
82
BC
7E
4F
91
8E
32
4F
06
92
29
B6
65
F0
A4
17
D7
CB
8F
DD
DE
DC
A6
34
FB
B1
92
E6
DC
FB
A3
88
67
96
0A
2B
12
D5
13
3A
25
B1
31
99
07
9A
C6
5F
1E
29
DB
FC
1B
C2
41
64
88
EA
79
33
59
23
B8
D4
98
C0
1D
E3
16
0E
39
94
82
20
8D
CC
CA
ED
E5
F9
31
70
0A
05
B9
F1
88
EE
A4
AA
53
A6
BF
80
2B
0A
14
C4
89
2C
5A
D9
C3
0E
7C
F0
20
53
3D
16
48
6A
03
49
AA
97
F6
34
C0
AA
CB
CF
BD
13
7F
34
A2
4F
43
18
FF
21
B7
46
9B
91
C9
68
3E
D6
D3
8E
83
CD
D1
FB
47
F5
2E
8F
40
8D
3C
D0
4D
E9
26
20
F0
01
21
C4
BD
3A
2A
44
30
B7
C5
E1
2A
DC
62
39
29
01
36
05
09
84
A7
76
FB
B4
31
D1
F4
04
DF
02
F9
54
90
75
6A
A7
02
C9
01
AB
9F
CD
6D
6B
71
99
DF
F3
A9
23
83
35
69
E9
C1
18
05
2C
A5
99
C2
3A
99
04
0F
AD
19
9D
B6
3C
9F
E1
A5
12
38
67
40
9A
FC
5C
FD
CC
F8
AE
E8
57
07
AA
3B
17
10
E3
C4
77
C0
2D
17
A4
6A
7A
13
EA
90
92
90
DC
AF
35
C6
14
CE
52
3A
F4
FD
46
9A
48
53
77
17
E0
1B
F8
5D
ED
67
EC
8A
43
41
C6
58
09
82
FB
A5
09
CA
9F
65
78
60
90
F4
97
31
42
1A
D7
14
71
CB
21
2B
9A
F9
A3
09
CE
3D
27
CA
D9
D3
E0
83
15
C2
1F
7C
60
0C
39
31
95
9B
51
47
F0
82
3F
AC
B6
94
63
E8
EC
50
7E
40
2C
0E
5E
92
20
56
F5
57
6D
4F
EE
06
3D
EB
B4
98
EB
17
D8
CC
C7
A9
AA
78
96
FE
FC
E7
60
9C
29
37
9F
14
A9
1B
E7
5B
27
1B
A8
A5
07
83
99
0E
94
FD
73
D0
57
9A
41
8A
6F
92
BA
46
A5
BA
3D
72
80
1F
3D
3F
4F
D3
8B
35
09
60
F3
BE
2C
4B
8F
10
CE
34
51
3E
7C
2E
E1
C3
85
FB
79
69
DC
DE
69
44
1D
88
DA
EB
E9
7C
70
D4
B9
09
CE
F9
C2
3C
50
C9
F5
EA
4A
08
89
D4
58
AD
25
FE
CB
45
34
D9
6C
EF
96
00
90
9A
2B
2E
BE
B6
49
CB
2E
C1
55
6B
7A
80
B1
BC
2E
3B
6D
BE
3F
67
F3
CA
BB
05
8B
95
B7
51
79
21
25
F1
81
EE
01
4B
90
0A
2F
FF
8F
D4
BB
CC
21
9F
27
7C
E9
75
65
97
2C
85
A4
43
73
AA
7F
FB
FF
51
99
FB
0D
4B
81
87
77
22
A0
B2
7B
2A
48
B8
52
42
4D
E7
A2
2F
CE
23
4F
91
A6
7C
EB
AC
B8
39
C0
0E
E0
9C
F2
56
1F
A9
32
BA
11
F8
20
EE
4F
4B
11
9C
C0
64
90
A4
E2
20
C2
73
97
29
7C
BF
5C
39
69
6E
FB
20
95
DB
73
92
33
4E
79
8D
88
12
A3
9F
B3
A0
2F
38
B3
B3
09
42
8A
84
96
B4
66
AF
92
83
46
F2
95
3C
22
F8
3D
78
47
4E
E2
B7
C3
F2
A4
9D
46
04
56
EF
19
11
2C
30
E1
2A
29
8E
09
F1
F0
B7
8C
F4
89
D8
2B
09
49
15
BA
5C
3A
9E
FE
59
51
15
D6
72
80
60
B0
C6
04
85
9B
71
B5
58
C9
2C
1B
97
DC
26
55
1C
68
E5
69
4C
FF
BA
B7
1B
CF
B1
45
15
24
C6
83
31
C8
4E
C3
7A
52
0D
48
80
22
43
06
3A
F7
CE
4B
E6
1E
6A
46
87
8E
9A
19
28
0F
38
C4
FB
49
32
82
48
06
E9
2D
51
7D
9F
FB
4B
A8
2D
49
A8
9C
20
0D
1A
FE
09
53
78
F3
9D
A6
CA
72
18
EE
51
09
66
23
3B
C9
8E
8B
1F
D3
C6
A7
A8
94
23
A8
2F
EA
64
6D
34
8B
61
EA
42
5F
46
9E
E5
9D
8D
6D
E6
30
A9
6C
31
7A
F5
C2
C8
CA
FF
92
3F
CE
CD
BD
93
BF
7D
C3
A5
A4
D1
39
28
A3
3A
61
06
16
0A
5B
A2
06
7B
2F
B1
00
C1
B3
29
0B
26
96
A6
5C
FC
29
3D
68
0C
3B
44
AA
C7
8C
EA
17
00
EE
BF
C5
1A
78
B6
55
8C
A6
83
A7
DD
D4
79
BE
E1
76
DB
50
D7
BE
66
33
70
53
DF
6E
39
6B
D6
F7
01
B7
DC
D3
FD
35
69
1D
A6
BB
92
B5
5D
0D
D2
5C
AD
3D
FD
DA
A8
E2
8E
EA
B4
2B
21
26
1F
B6
36
F8
BD
0D
A2
E8
71
1C
69
8A
D6
09
79
30
7E
7F
39
8B
D3
0B
D3
56
DB
F6
FD
9A
9B
FE
59
95
2C
08
A5
43
01
D1
83
9F
F5
A8
01
C3
C7
D4
74
3D
E0
97
0B
98
34
94
8F
1D
96
D3
06
5B
20
2A
8D
4C
9E
75
24
1D
A0
7D
E6
CD
BB
9B
6E
38
B5
7D
98
F3
65
85
C0
5D
B7
3F
34
94
5D
BA
36
53
99
8C
BA
D7
87
A6
58
E0
9C
22
D2
48
E5
E1
B9
00
68
FB
B4
B9
DE
72
41
A4
4C
CE
C8
EB
C0
A3
2F
58
DE
61
A7
01
6B
5B
F1
0E
5E
5A
BE
EF
81
E6
67
F2
72
D6
44
91
4D
E1
BB
BD
0D
05
D5
6A
D0
54
D2
1C
C9
09
27
D5
C8
3B
28
8D
81
51
6B
19
BE
7A
7D
73
B8
BC
6E
85
05
60
65
25
47
EB
94
68
B7
6D
7E
8D
38
49
4D
84
E4
61
1C
C6
0E
5D
3E
4B
B5
10
39
EE
71
F2
68
7D
58
82
F2
EB
6F
91
AE
A3
7B
11
48
BD
BC
05
BD
CE
BF
EA
C1
D9
97
B5
09
D8
B8
C8
DE
38
61
81
C7
C1
70
9B
A2
DE
EA
A3
EE
C6
EE
0E
3C
FB
6E
74
25
0E
F6
1F
D4
01
F6
82
48
0F
A8
69
96
F1
38
05
41
D4
37
E7
C3
28
86
0D
14
62
27
F1
5E
86
D4
F4
64
61
9B
B1
FC
B6
2F
6E
30
B2
4A
20
4F
1B
06
FD
D5
6A
57
02
ED
CA
BD
7A
AD
12
D5
CC
6C
F6
60
54
D2
0F
02
C6
92
1C
06
AC
E0
D8
6D
DD
8D
7B
58
AE
CB
E7
14
27
74
EF
7D
FC
5E
D3
77
5D
0E
54
59
A7
11
E3
A8
A8
EB
55
A5
E2
98
D1
7A
E4
3F
4B
8D
7F
97
0F
28
F8
6D
0C
C9
18
3C
C1
7B
FA
1D
FA
FC
E7
1A
95
F3
61
7D
87
66
2B
BD
56
72
90
6B
0E
60
AA
D9
96
30
92
BC
CF
58
23
5A
11
2F
A8
5A
E7
9F
25
BC
41
53
AB
C8
60
2A
A8
EF
95
98
9C
DF
30
E4
69
BB
45
A7
E2
49
ED
81
9B
C5
98
D9
B2
46
46
04
D1
45
1C
10
ED
B5
56
BB
3B
1F
46
38
87
93
48
D9
23
5D
73
17
9D
06
EA
42
08
82
71
7C
6F
0C
90
A9
A5
2A
00
67
F2
62
43
F3
B7
EA
04
DC
55
21
E5
54
21
0C
99
7E
07
25
F3
9F
13
A0
36
43
6A
9F
67
CC
3B
96
8D
C3
4F
69
B7
F4
F4
DC
14
0C
9D
57
1D
FF
CB
4C
89
99
9C
DE
1E
2F
3B
92
83
B4
8C
29
83
D5
9E
5B
B2
8B
2A
5A
DF
56
CF
C0
D0
37
89
F9
2B
FA
68
39
53
A7
B2
B6
0C
AF
2E
5F
1A
94
7A
B5
A8
AB
2C
28
4A
7D
57
B9
F9
B5
96
F6
27
B2
C1
D0
3C
34
1F
20
E9
E0
EE
7B
7D
B7
4A
E6
A8
19
9A
71
24
4C
28
9E
96
95
DD
67
C2
28
02
E6
D8
76
D2
15
9D
EC
0E
5B
B6
5A
1F
24
FC
26
A6
54
E0
F6
B3
C7
72
83
5E
5C
0E
EF
E2
9C
BB
B1
02
03
56
6F
11
F3
B8
FF
22
CF
3B
21
DE
43
5A
54
B9
6C
D9
EF
64
7E
94
7D
A4
36
2D
38
A5
B7
8D
12
55
02
E7
4C
1B
92
E6
02
F4
82
E7
B5
60
CE
B8
13
A0
EA
A7
AB
8D
45
E3
1F
51
04
D1
32
05
56
AE
61
3D
80
56
AD
CF
04
49
8F
15
15
AE
DF
65
E9
BD
BE
79
15
23
97
4A
DE
C5
3A
06
AF
9D
13
71
FB
80
F6
2F
12
2C
8F
64
A2
99
76
0B
F6
47
AE
16
EE
07
A9
9C
C6
83
66
70
41
FB
DE
C1
7C
72
D8
2E
0F
65
1C
EA
7D
5F
3D
02
13
FB
05
9A
4A
80
B6
E8
E9
9E
47
D4
8D
F6
1C
57
44
96
58
88
81
98
12
7A
67
73
7D
16
A4
62
7E
03
FE
8B
EF
9B
F3
BA
3C
BA
58
BA
44
C0
79
A8
E7
1B
9F
1A
D5
95
8A
79
07
40
EF
E1
49
34
41
26
20
B9
86
AF
62
82
CC
77
F8
C7
24
D6
95
E8
77
FF
59
8B
67
04
5F
2B
7B
13
38
B4
28
CB
FA
DC
A5
55
3D
0E
74
DE
AE
BA
9B
91
5F
C2
75
7E
04
B3
6B
36
DB
7D
00
16
45
0B
AF
CC
B4
64
E6
2F
E2
6A
B3
83
A2
F6
49
D6
30
1C
D9
AC
BA
37
BB
6F
02
7B
F6
6D
6E
CB
EC
64
4B
33
A3
01
C3
D1
C5
37
B5
C7
11
44
D8
BA
9B
E6
08
03
0D
19
65
79
81
0D
F0
FE
2A
28
BF
52
87
31
60
92
D7
DC
D7
1A
35
4D
09
15
05
4B
E4
F7
56
81
94
22
51
26
C9
46
73
C5
D7
15
B8
57
DE
E9
82
69
1A
56
16
FD
19
53
49
E6
02
49
6D
F9
8E
E2
B2
27
B3
8C
94
29
FA
1F
00
B9
3D
5A
35
E3
44
C8
D7
C4
18
DB
D9
8F
04
88
B8
6F
73
DF
A0
78
FA
04
13
9F
BE
87
91
81
FB
CF
BF
D7
D5
90
C3
CA
FD
78
1F
6A
8C
1F
CF
08
25
84
02
1D
B0
D4
79
5E
C3
79
25
53
A9
D3
FC
3C
4F
FF
74
B4
10
91
D2
BB
43
98
34
20
82
D7
E8
A7
35
EA
59
18
77
C0
55
A3
20
F6
DE
41
EB
D3
FF
96
9F
BD
18
AC
B3
8C
63
AC
24
8C
19
24
B3
9D
9D
F3
5F
15
F1
6E
3C
E2
DC
4B
55
AB
5D
9E
56
B4
4C
C3
5E
94
CC
8D
69
45
54
50
9D
D9
D5
37
76
6F
78
9D
4A
C3
2D
91
E2
B9
58
97
6B
55
F5
92
D5
D2
56
AF
29
26
62
55
65
B6
C3
0D
D6
19
DF
24
0F
C8
DE
91
62
D5
4C
48
B2
4C
CB
49
F3
EC
CB
A6
22
8A
A9
16
43
10
82
90
20
79
B8
A8
B3
FB
89
29
C7
86
78
FE
F2
CB
48
62
BA
BC
AC
5C
48
EB
98
60
47
DD
6C
43
34
7D
08
80
69
A6
A4
22
37
E0
77
52
12
30
6B
16
EC
18
E5
5C
F4
40
B8
7B
87
41
B4
6E
60
A3
73
91
26
BD
27
B0
D7
0E
DA
3A
33
91
0D
B4
3B
D0
C8
80
43
F8
CA
43
71
60
9E
5E
2A
43
51
39
82
15
46
5B
86
A0
94
0E
7F
0C
92
43
B0
4B
6E
6F
10
9F
9C
37
5F
08
41
D2
D8
1D
F2
E6
1B
59
F0
5C
ED
A5
8B
71
90
8E
88
C4
4F
EE
8E
27
A6
DE
08
73
60
DD
D3
F5
20
E1
F3
64
8D
C0
7E
B0
12
B0
F2
E5
7A
05
EC
B9
E6
04
BD
28
0A
C4
4A
D6
81
87
C1
26
8E
B0
73
15
C2
B9
73
9A
63
11
79
86
67
2C
15
FD
48
F0
EA
42
93
78
D0
EF
E8
40
C8
1D
96
9B
C3
1C
C7
41
3F
C6
A2
98
C2
DC
32
27
19
80
E3
A2
C7
EE
FD
AA
27
25
8C
6C
EE
8F
C2
82
1A
33
21
83
B6
8E
8E
A8
18
30
DC
FA
E0
45
6D
D7
DA
86
BB
52
D1
25
2D
3C
21
9C
45
B6
BB
5A
87
5D
73
84
23
EB
DF
A5
3D
F3
02
5B
8E
D1
50
B3
A9
B3
5F
90
12
B3
04
20
BA
7F
65
84
D6
47
D6
AB
5A
8E
1C
A6
1B
FD
80
B9
3C
4F
22
91
0D
49
41
75
A0
43
82
26
01
90
41
74
2C
94
38
28
E0
E8
B9
49
D4
7E
29
0A
0B
D5
66
30
E7
5B
8F
5D
76
94
97
D1
07
A5
07
25
76
79
22
19
E8
46
B1
0B
1A
FB
CD
FC
C9
04
1D
33
E9
A6
AE
73
05
45
B4
D0
13
CC
35
43
67
95
FE
87
94
C2
E4
A9
72
2B
2D
86
C1
3E
5B
B3
FA
3F
34
FE
D0
C1
9B
4B
4A
AA
D9
EF
54
8B
30
EE
69
44
1A
6C
30
10
09
90
7A
EC
FB
D6
66
2B
E8
F1
C7
7A
63
EB
57
D7
E9
C7
CE
55
58
66
B9
01
FB
C8
1B
A5
35
8E
17
6B
6E
66
F7
BF
70
E6
6E
47
46
A3
26
BA
8B
0F
D1
33
03
13
34
BC
CA
B2
7A
9A
57
D3
DB
3A
AE
9E
92
8F
F9
B4
04
AC
56
CA
06
AA
C5
C2
AF
23
7F
17
92
A4
F6
C9
21
2C
20
A3
A7
26
9C
41
A3
D4
0E
D4
B2
3B
D3
D9
06
94
5C
54
29
B4
7B
98
AC
7F
BE
11
64
71
AC
88
9F
80
4C
BA
F2
D3
E3
4D
8C
60
E3
A5
DE
7E
68
F3
50
E3
F5
45
00
D2
FB
AB
A6
C8
BE
33
1D
9F
FE
8C
CD
F4
46
00
70
B5
EE
A2
CA
93
3F
6A
AA
1B
C1
9C
E4
15
EF
83
26
C6
C6
D1
EC
4A
7A
94
B6
26
5D
FF
54
0B
86
AE
B0
3A
71
4D
2F
C4
E3
59
3B
EC
75
34
47
2D
7F
A9
EF
48
42
96
D8
99
F0
A8
EA
DF
6E
E3
27
9B
D4
AA
30
B3
73
E4
1A
28
67
64
9D
55
4E
57
81
01
7E
7A
63
99
11
ED
8E
61
AF
03
3B
78
FF
0B
7D
96
DC
F0
2E
A4
11
38
98
AB
6F
CC
65
9D
CF
49
24
25
A6
98
31
32
9D
E9
D5
B3
9C
15
22
B6
E2
9A
A8
73
ED
FD
09
7E
A2
8C
E4
CA
F1
3C
B7
F9
B9
1D
21
4A
E1
04
56
A4
DF
2D
4B
65
B9
BF
40
60
1C
D5
87
02
CF
13
C0
ED
8C
78
79
83
4C
0E
0F
0A
4E
C1
83
A3
A8
0E
4C
05
B5
2C
02
FA
23
93
B3
CE
73
DC
98
7D
CC
86
A7
0D
4A
21
85
F3
68
46
41
FC
09
1B
6C
20
A4
E2
33
CE
84
BC
80
C0
F0
83
6B
4C
F1
59
2F
56
58
B7
75
90
58
35
2F
DB
2B
FE
F5
7E
A7
91
CD
79
E1
89
BC
70
0A
59
CE
D1
DD
B9
D8
A6
D7
C5
46
7D
2F
E4
5A
5C
DF
56
60
0B
60
C2
5F
AC
2C
CA
F9
29
75
03
E0
B8
45
C3
4B
14
64
6C
CC
7F
ED
FC
7B
22
3A
51
1D
70
92
4E
8C
76
25
FE
A0
DB
81
99
BC
D4
F9
49
34
A3
60
E2
B9
0F
B8
6B
4E
16
D2
4D
6E
4B
F0
AC
D3
A5
40
06
FA
13
35
36
7C
B4
86
64
9B
23
DA
76
1B
58
B5
FC
8A
05
14
32
74
8F
08
9A
90
BB
9D
34
6D
16
25
BB
3C
00
E8
66
9C
DD
57
20
39
77
4C
3B
B7
54
02
C1
AC
F1
FE
C9
5A
CB
58
93
CE
15
CE
2A
2D
04
3C
EF
7C
56
66
BE
8D
A7
0B
3C
FB
A3
A1
87
61
20
DA
B3
3B
50
32
81
46
D4
47
77
EE
76
9A
2D
6F
E1
E6
76
4E
07
46
22
54
9E
2F
52
B3
90
1F
F0
0B
B0
E1
31
B5
9F
05
E8
BA
F2
08
C6
3B
CF
EA
54
55
58
2A
76
E6
89
DE
9D
E9
15
A3
6C
54
00
A5
5C
9B
94
B9
CF
CD
71
D0
0E
61
F0
78
E7
70
64
02
38
7C
34
62
86
78
4C
88
E9
C0
3D
C6
82
A2
B8
F0
B4
3C
AF
21
8A
58
21
FB
07
DE
5F
9C
56
47
1C
45
28
8F
A1
D5
8C
FB
B7
63
9E
15
9A
2C
50
14
1C
1B
D9
8D
F8
6E
AD
58
85
B0
46
4A
B3
5F
DB
5C
E7
8A
2A
6E
04
93
AF
10
CB
96
5A
A9
C8
C6
65
AE
EA
7B
78
10
D7
3F
23
A5
3D
D4
B1
05
A9
FC
0C
FE
7A
5F
CB
9F
67
82
6A
77
B6
97
60
53
D3
1E
82
FF
02
6B
F5
26
85
6B
9B
C8
99
DA
B7
5A
F3
E9
10
87
80
56
D6
89
5C
66
54
AC
E4
6F
C9
A9
F2
4E
DC
C1
18
43
82
6D
4C
3D
17
26
88
11
05
4C
37
B2
6E
DB
DE
40
6B
FB
B8
BF
29
39
A7
7B
9C
B1
01
9C
79
C5
73
71
24
53
3C
42
3D
01
B6
05
F4
A6
1A
AF
DD
68
4B
55
EA
CB
6A
0D
57
FA
72
AA
57
1E
D8
33
F5
E7
F5
30
9C
B1
31
27
7C
6D
A1
44
B8
78
4E
FA
97
D7
21
F7
7E
16
FB
3D
0F
07
29
AE
26
5A
13
4B
D9
91
C5
38
34
EB
2F
99
BA
03
96
78
10
02
EB
82
45
5E
42
B6
54
3C
15
17
50
E4
64
58
A6
17
EB
4B
AF
46
32
CA
45
B2
39
9A
97
F3
CC
D9
17
D0
5F
9B
6F
AE
05
22
4F
7F
AF
14
49
FC
D1
6D
F1
D8
20
A2
1D
02
1E
E2
87
28
22
C2
64
C3
D2
D2
EA
C5
EE
CC
E7
6E
86
0D
FF
D1
8E
06
91
4A
DE
2F
B9
2F
3C
91
54
F9
E4
C0
82
4A
9B
2C
8B
20
C9
17
9E
57
A6
64
D2
58
74
89
DE
87
C0
0E
D4
A0
AD
2F
7A
9E
DC
83
71
73
C3
83
46
33
83
10
33
AB
C7
15
5D
02
E3
95
8F
46
13
09
5E
7C
31
3A
77
81
A2
AB
89
84
4A
41
D8
91
EC
FD
76
97
12
BE
81
F1
51
8B
68
FD
72
F5
B0
57
D4
C6
E6
53
0E
6D
6B
AA
14
12
76
96
E7
5B
A1
E0
ED
74
AB
CA
EC
D8
A7
C9
AC
D8
29
81
19
CD
2A
0B
3C
97
9D
B4
BF
7C
45
32
1A
0B
B7
4A
CC
1B
17
1D
01
EF
EE
F0
95
33
52
8A
CF
A4
2B
A5
EA
C5
6D
9B
72
DB
79
1C
0E
9D
74
65
1E
99
F2
EF
2F
64
D2
02
FA
59
9C
18
43
0E
8B
36
04
D3
58
54
15
F7
51
AA
66
D3
C3
B4
D8
CF
2F
17
84
F5
54
4E
ED
44
D4
54
09
E6
36
45
85
5F
88
56
57
01
B5
AA
C6
81
E2
A3
03
B8
9E
FF
75
B6
9F
0B
28
65
93
20
DC
2E
B8
42
7D
94
E6
3A
2D
85
3B
AB
E5
15
DC
AF
EF
25
94
FD
FD
3E
DC
F2
AB
21
E5
6F
32
AF
EB
09
BC
06
34
A8
CA
6D
A2
E6
2C
03
65
EB
6D
92
E0
FA
38
F7
B7
66
B1
5B
02
A2
FD
F4
39
A3
74
1A
98
26
05
11
EE
56
2A
AC
D3
41
48
41
73
C3
31
7B
DA
CD
E1
F5
44
5A
AA
0A
D5
17
BE
9A
59
C8
25
A9
D0
A4
DD
0A
AB
89
E0
91
CA
30
CE
BB
6B
EE
1C
68
30
70
62
71
5D
3F
B5
C5
71
F9
25
41
2C
BF
56
84
89
D5
DB
F4
C1
CF
D7
E0
3A
12
C9
7F
A5
74
1A
C4
3E
65
DD
FF
9D
73
4D
77
E7
00
D0
15
71
23
07
AE
F0
FD
51
5F
E1
FB
5B
10
55
14
AD
55
98
DB
F1
44
DA
41
EA
1A
A6
0B
25
35
1B
86
50
86
4A
23
57
AB
1B
02
AD
3F
0F
7E
DA
28
A4
C1
10
77
EF
E5
6F
78
F5
42
F4
EF
05
EF
68
E0
1D
09
F0
AA
27
FE
7F
81
2A
1B
65
2D
EC
64
6B
99
71
57
6C
74
8B
5E
CE
75
A7
A0
C6
7C
0F
F9
B7
D1
AE
8E
F0
EA
56
35
B6
F3
E7
3B
42
B6
B6
2A
CA
A1
5F
70
5A
83
F1
1E
76
C4
50
6C
32
28
F9
37
81
06
62
28
EC
D8
E7
2A
06
D9
F4
CE
68
67
4E
BD
2F
F5
10
8B
26
9D
4E
69
F2
F6
F0
72
20
DC
B3
90
3C
94
4A
6E
91
BC
C4
62
7D
9F
31
13
EF
0A
0A
09
24
79
09
39
B8
25
A9
CB
BA
15
53
8E
51
B4
0E
74
D5
16
E9
9E
5C
EC
FA
F5
44
FF
92
4A
13
E2
A1
A0
AD
03
A8
EF
5F
DF
0F
F9
67
60
4F
D8
B7
AF
AA
81
1C
DB
0B
8E
57
74
7E
C1
1F
64
5A
D2
FD
32
6E
5B
23
CB
55
F3
B1
E3
63
51
80
3A
90
11
94
F2
5A
CC
31
C2
5C
2C
64
75
47
FE
3F
D3
F3
D4
1E
5B
AC
BE
B3
8C
CB
0A
FA
5F
EC
83
31
FD
CD
4F
27
6F
74
8B
25
29
5F
17
9A
9B
E2
4B
CE
5E
99
B9
7E
F0
5A
E9
E4
50
45
BA
2D
86
78
0E
4E
31
AD
21
6A
32
2F
70
DC
57
34
3B
7E
31
27
41
CD
02
8E
85
00
46
47
A3
AE
C6
03
CD
2E
A1
E0
E1
F4
A2
F4
65
34
62
96
8F
F5
51
F3
B6
91
38
CA
FF
8E
FD
C7
04
E2
9C
71
42
9D
2E
A8
53
75
47
9C
F8
BA
EA
8B
DD
A3
7E
F8
CE
79
D9
AF
E0
C0
20
ED
15
2E
01
9E
84
3C
F4
69
01
A8
62
9C
28
62
61
4F
CC
C0
8F
C9
6C
D9
B8
AC
06
E9
1D
32
C5
85
42
CB
F6
4B
61
D5
F3
0A
A7
9C
79
F2
87
E5
01
C1
AE
F3
A9
57
72
13
83
20
CE
59
95
72
4E
20
FC
73
DA
4C
FA
02
40
0D
E3
27
EB
EA
84
6E
DD
66
95
38
26
8B
7A
84
36
33
EE
53
EE
24
DA
33
9E
B2
1A
96
B8
2D
22
87
B8
48
DA
B0
F7
BB
22
95
9A
3A
C0
38
3A
04
C7
4E
F5
40
E9
A5
05
70
C3
AE
FE
46
29
0A
8B
94
F3
9F
B4
AF
86
50
58
9D
89
A8
5A
D9
4D
19
B5
7E
79
9C
E6
49
EC
28
BE
BC
23
57
0A
71
9B
0A
9E
A6
A1
A0
8D
23
85
DC
62
70
1A
64
4B
F6
C8
B9
68
E0
76
F3
E6
A8
BE
80
BA
8D
70
B4
8E
49
F8
F9
0A
20
1F
27
CD
9F
26
C8
FE
A5
D1
7A
B6
81
F7
5E
E8
8B
79
0E
E1
8B
6F
B8
BF
12
47
B7
21
6F
11
5E
80
23
88
3B
00
CF
08
83
C4
E2
71
7E
76
9A
B0
97
95
20
DD
C4
1F
18
6D
61
46
95
E2
EC
8B
2B
84
0C
AB
0F
A7
FF
8C
AB
98
10
A4
91
55
BF
1B
A7
87
68
F9
91
F8
AC
65
DF
A9
E7
36
0A
66
2A
F8
3C
4B
BE
55
28
7D
E7
61
95
50
93
F8
28
D6
E0
3D
3F
8D
4B
B4
AA
8A
67
33
87
27
91
8C
BA
85
43
7D
7E
5C
CA
12
E1
72
10
B6
62
87
A6
20
CC
47
CD
F3
E8
1E
AB
28
6E
48
F6
68
DD
1A
42
D8
1E
27
09
24
BB
54
ED
FA
6A
07
BB
B3
77
10
BA
17
C8
EF
49
43
0D
D5
3F
65
5A
02
33
E4
06
32
D4
05
51
73
0E
12
82
C3
DA
B1
2C
B7
86
48
B1
07
84
58
BA
07
C8
2D
E1
F6
16
DF
A3
69
6A
E1
2A
05
EA
EA
0E
7F
5B
2B
EF
36
B9
A0
C5
7B
3A
A5
D2
71
4C
CD
DF
3A
34
5E
1C
D4
C7
56
FE
1E
47
72
BE
4C
28
B7
00
48
39
53
89
96
2D
33
EF
EB
4C
A3
1B
94
ED
41
E3
4F
C2
AE
16
C0
40
DB
F8
A5
B9
BC
96
CD
E0
1B
F8
E9
8A
00
CF
6C
67
9E
66
3D
BD
4F
70
D2
28
3A
18
00
41
26
3B
CB
B6
9A
37
FB
40
F7
98
EE
DF
FC
42
E8
72
CA
38
80
A0
53
21
35
DA
16
E1
E3
36
B0
D2
80
93
C2
46
87
8C
AA
00
FB
98
A4
62
D4
83
A8
4E
94
77
7A
E4
92
D9
F8
FD
D6
8A
72
32
BB
92
66
35
E8
11
C5
42
E8
EF
F1
0C
65
63
29
47
C5
21
71
67
2F
BB
3C
80
CA
9E
0D
73
B9
5A
71
F4
12
C3
4F
B2
8C
54
D1
9C
CD
8F
81
4E
C5
92
BF
C5
BA
E3
E0
D1
75
B0
D1
44
E5
53
3C
D7
FC
E1
21
27
1A
A6
C1
2B
59
62
27
D1
2A
D4
0B
10
DE
22
9E
C7
90
7D
42
6A
D7
11
2D
FD
7A
9F
4B
31
EB
8E
47
BE
0E
04
E6
A1
19
AD
F8
F0
FA
2C
16
86
98
F7
EC
E4
62
90
20
6A
E2
2F
F4
52
EC
0A
67
5B
AC
6F
72
C8
CD
32
95
A9
AD
DC
C9
F5
B9
F2
ED
29
E4
B0
25
08
51
87
C2
68
28
0E
96
6A
C0
A3
B2
B6
BA
D4
1D
EA
6C
96
5C
8D
1C
66
A3
C7
E2
89
EA
FC
75
DC
E9
22
AB
02
AB
32
4A
14
E3
1E
F4
89
B7
95
71
D6
D0
06
26
2B
34
66
CF
30
FF
C0
14
DD
88
BF
77
34
AE
C3
D4
B3
18
88
25
1F
AD
C3
4F
BD
88
CE
87
DB
5B
E8
5F
48
53
B4
0D
19
2B
01
92
39
9A
B9
5A
4A
CE
98
04
87
E6
AA
ED
73
8A
2A
A6
0C
D2
41
40
5A
E9
47
A9
1F
02
9B
BA
26
C4
D1
14
DA
0E
42
9F
F0
3F
18
94
D7
FD
BF
A0
2F
86
FE
0C
AE
EF
87
AF
7A
C7
E6
60
87
40
3B
31
43
37
94
00
73
D2
78
0B
C2
20
95
5B
05
00
20
EC
B5
67
2F
08
44
04
4D
0D
82
6A
B1
A1
D2
DF
BA
75
A0
DF
92
E0
87
B5
4B
A1
89
F0
1B
85
00
3E
63
1C
A0
1E
3D
E7
57
09
C2
0E
97
BC
57
BC
B5
7F
0C
5A
48
32
31
70
2C
F4
AE
76
96
0C
A2
34
A4
5D
D6
BF
53
6F
88
E3
37
48
92
DE
AF
80
C1
0B
8A
F3
C6
C9
72
8C
71
24
41
B8
54
75
D3
1F
04
DD
2A
EB
FE
E1
09
23
F2
6F
4F
45
AB
DE
C6
37
9A
56
C3
66
E9
93
61
C9
40
67
12
AC
0A
CD
62
92
59
95
4D
4F
05
72
7A
44
01
B3
96
84
E8
BB
B8
61
DA
57
24
22
60
64
80
2D
3E
22
C5
F3
04
8E
79
1B
8E
7E
5D
B9
0F
BA
9C
77
6B
0E
17
E4
30
19
73
2A
72
AA
41
35
63
5C
76
47
AC
9D
90
18
62
3B
72
9E
CC
B2
07
E2
13
63
B6
CF
4F
4E
E6
9C
27
ED
71
7F
02
22
71
18
95
74
26
33
B3
2E
5F
EE
E6
8E
C5
04
33
01
00
3A
35
05
A7
58
3D
95
74
0C
2B
08
F1
69
4B
AA
3F
36
58
7D
62
FA
0F
46
7C
8F
56
9F
4A
93
B3
D0
C1
12
88
01
31
3E
B0
8D
98
7B
C3
AF
8D
3D
8A
47
B3
DB
F1
51
C5
17
3F
85
10
28
EF
F3
C6
E3
84
AF
19
8D
36
40
64
37
06
5D
99
F6
C9
71
24
CD
0F
27
59
D0
A6
B6
53
69
AF
6D
64
10
9C
F2
2D
67
0E
3E
90
89
40
B2
D0
A6
99
27
66
5C
DA
29
46
4A
AB
E7
EE
56
71
00
13
9E
57
24
D4
86
30
55
07
07
59
2F
AB
F2
77
4F
97
3F
9A
21
E7
B2
36
72
23
EF
58
54
77
6F
D6
6A
CE
C5
9A
7C
58
75
87
2D
89
2C
F3
43
EA
24
10
1B
27
09
7B
6D
40
E4
9F
16
3E
A0
22
0A
44
9B
46
08
19
24
D3
FF
E6
DA
0B
E7
29
56
66
09
59
A3
72
B5
60
3C
B4
A0
98
E5
5E
05
F3
6E
20
BA
F2
37
A3
5F
66
BC
EB
96
04
A8
82
24
D8
8A
A8
E5
ED
A8
E4
B4
14
D1
A5
5D
C5
68
A2
39
01
65
95
4D
F8
A7
F8
35
B8
64
E2
B4
8C
E4
93
4A
E3
1B
50
1C
9D
56
01
2D
DA
EB
7E
90
EB
61
05
52
0C
D6
78
74
F4
9C
F8
A7
90
E4
26
91
A1
C2
CE
93
53
1A
8F
05
FF
C4
A0
FA
5E
AD
84
56
A0
E7
FF
D6
91
10
0E
EA
49
30
6A
08
C1
36
3C
06
14
B6
88
01
C9
0D
BA
5B
76
3F
02
4E
5E
C6
93
63
9E
81
98
CF
77
48
AD
10
F2
04
31
AB
5D
75
D8
08
DD
DB
65
E6
60
F0
3C
DD
49
69
DE
3F
2E
9D
AA
0C
B3
BC
AA
72
B7
0A
57
1B
5B
C0
7C
5E
13
B5
E5
37
B1
7A
83
DA
66
4D
C6
EB
7F
E0
8F
9A
4F
2D
D4
12
5C
BD
AA
F4
07
86
A0
20
DB
94
3E
8E
19
91
40
D6
AA
7D
B1
ED
A1
35
83
F5
77
D5
E8
FF
9D
D0
EF
4B
7F
93
76
A5
E0
57
86
E2
0E
B0
F9
2F
CE
9B
F9
86
45
34
04
EC
FF
7A
E2
7D
66
C0
1E
EC
0D
45
BC
84
89
5F
4A
A3
E3
EC
F3
4A
26
5F
F7
22
55
5E
39
8A
07
93
50
F5
EF
A9
FB
54
34
6B
29
32
26
2D
B8
36
CC
3A
A9
F4
DD
21
38
1F
6D
F7
34
20
A3
46
0C
0E
F7
1F
0F
85
09
7F
11
F2
45
FF
27
BA
99
22
F0
F0
01
75
2D
18
13
03
16
D8
26
A1
29
53
4D
3E
89
62
C3
30
6E
CD
B6
41
37
53
56
2A
B2
80
39
E5
37
AE
BB
3B
63
B8
A6
21
5E
BF
34
08
95
D7
3E
E0
35
67
2A
47
DA
09
69
D8
ED
E6
F4
0A
67
9F
21
25
75
B1
E9
24
B5
6A
93
5E
EB
76
96
4A
5B
05
2E
7C
6D
1C
FB
EE
AB
36
A0
6F
53
A9
1A
F2
C4
5F
A5
DC
BC
57
40
35
AF
0F
EB
3A
F1
4B
4D
40
37
36
01
91
FA
FC
70
90
D3
B4
AC
29
78
53
C1
8A
AB
DB
EF
73
3A
A6
9E
DF
F1
55
F9
AF
5B
F1
26
57
53
B7
12
C7
6D
CA
45
5F
10
09
73
AC
64
BE
45
4C
E7
13
22
10
25
39
AC
BC
80
A2
2F
28
B0
77
B4
4E
16
65
0B
0C
44
59
44
90
53
E3
75
8B
69
50
1E
36
E2
24
A3
72
47
F4
C7
05
AA
AF
31
0F
75
EB
DB
08
D9
11
47
E5
63
0D
DD
75
0A
A0
E9
5B
FE
E6
EC
3C
68
2E
40
D8
E5
AB
00
76
AF
A1
CE
EE
11
7B
3B
F4
98
EB
17
E0
29
54
3D
65
8D
AC
27
0C
DD
9E
97
09
20
29
07
DC
A4
FE
71
E6
F1
4E
10
CC
06
DA
23
62
B7
35
28
E3
86
CB
D6
70
CA
A2
45
FA
56
3C
99
A9
4B
60
0B
15
47
C1
71
77
EF
EB
01
9D
AA
EE
F9
0F
C7
D6
F3
95
15
06
BD
64
BD
CC
C1
68
6A
4E
F9
D9
B8
AD
D3
C2
87
CB
A8
FE
70
D5
38
AE
74
16
9F
AB
45
3F
67
66
DD
FF
3D
A8
CA
A3
69
23
CC
6F
6A
C4
51
F7
05
20
4E
98
0C
D6
AF
70
A5
2D
17
EB
A9
E6
70
D9
03
33
0A
89
26
45
98
B0
17
D9
2D
05
F7
06
06
6D
82
17
72
DB
84
9A
80
69
05
2D
51
72
FB
44
E0
B4
92
47
0E
C0
D8
C1
CD
26
1D
18
56
A1
AE
58
C5
98
6D
9E
24
08
AE
95
1E
D6
A0
A8
3F
FF
40
6F
D3
9E
54
75
E9
45
1A
F8
DF
1B
C4
5D
C3
F2
B4
78
4C
4E
4C
A1
26
90
A7
0C
5A
F5
C9
F9
D8
FC
1D
78
80
33
B0
20
5A
9E
D4
4B
99
92
B5
0A
CF
