F0
25
ED
C2
DE
DE
01
8D
A2
49
88
81
D8
D3
0D
E1
CE
5B
29
3D
C0
32
AE
32
F7
9E
0E
BC
2D
98
E9
94
DD
CD
96
66
25
EA
6E
56
FE
81
83
B7
15
CB
73
0E
F1
76
BC
8E
87
F5
03
2A
F6
96
3A
9F
1C
81
A2
03
08
C1
88
D3
55
61
83
5D
B7
6A
2D
DD
14
F8
A6
B1
E7
A3
80
B5
F6
91
74
52
B8
85
E1
EE
3F
28
2A
AF
88
EC
2E
57
41
E9
04
5B
CB
3B
90
04
02
6E
72
25
19
3B
B6
73
1F
2B
AB
25
30
F7
B3
2C
9D
93
8F
A7
38
61
28
C9
A4
EB
6C
C5
49
16
39
6B
01
44
19
56
89
13
E1
72
62
6D
AF
F6
40
BE
3D
45
A8
D2
65
B8
57
96
29
78
80
77
73
8B
25
1B
12
D6
DF
18
47
EA
36
B6
78
05
F1
4C
FE
6D
C9
88
99
82
66
AA
A5
FE
54
A9
64
91
14
DF
87
5F
80
9C
3D
5B
AA
F3
60
8A
51
19
65
D8
73
26
25
1E
56
4E
3F
12
A2
9C
EE
93
C2
FC
75
A5
BC
46
E5
55
5C
D7
F1
8C
E1
06
60
E2
2E
64
F8
F9
EC
44
40
22
DE
56
A3
B1
ED
27
92
87
6D
46
6C
EA
82
3C
B7
8D
86
CB
B8
8E
9A
46
88
68
56
7F
EC
0D
34
6D
E2
DA
1C
7C
5D
EA
4F
CA
34
CE
B2
C8
66
67
22
88
E5
26
CC
C6
BC
7F
9F
B6
E4
BD
D6
A3
8B
9E
D4
1F
F8
1E
4D
69
D2
28
F9
A0
A7
29
9A
DB
44
E6
0B
2A
AA
26
05
10
4B
88
F5
4B
EE
BC
40
8C
42
9C
0E
36
4B
42
5F
2D
9E
D2
64
EB
C3
19
0B
3F
28
9D
3C
90
EB
1D
56
04
0E
E3
7B
C5
3A
58
B1
E7
69
A8
13
59
2F
3D
CD
29
F6
4F
CD
1D
88
0B
CB
FA
1B
C0
9A
8A
DC
9D
EE
EF
3C
89
1A
11
E0
C0
E2
59
55
0C
6F
B9
EF
B5
A5
03
A3
26
90
81
B1
11
FA
E0
DD
06
1A
BD
60
13
43
53
5A
64
2D
18
C1
A6
83
89
62
4C
31
0C
DB
71
27
88
97
D9
15
4D
A3
0F
F9
44
99
AD
FE
5F
8C
53
3C
90
29
F3
65
9E
0A
B1
97
5D
BA
16
69
D8
CA
73
A5
7D
6F
4E
AA
7F
4E
40
9B
BD
3B
31
7D
87
AB
67
89
3D
D3
01
67
22
AE
11
6D
CB
85
AF
92
36
66
87
26
6C
B1
E2
C4
A6
AE
79
3B
BE
31
DB
79
BF
DB
C9
F9
58
0E
71
DC
57
9E
86
EC
1B
21
4D
72
32
4A
B4
C2
3C
95
DE
73
1E
1A
96
69
8C
90
E7
AD
68
0A
55
4D
BF
46
26
AE
08
36
42
23
CD
7A
4B
8D
06
18
ED
9D
C8
C4
18
47
C5
49
69
A8
89
8F
49
51
11
EF
06
B3
DE
C8
A7
19
B2
76
AA
F9
33
A5
20
3A
7E
B1
98
F1
DA
15
90
F0
F9
EC
B7
24
37
87
B9
94
55
7E
F3
7E
07
1A
6C
D5
F0
A1
79
15
75
B9
0B
8C
CD
F5
AF
CB
38
A0
EE
23
64
D4
0A
95
E2
C1
63
B1
39
1B
A3
8A
BD
CC
BD
B1
D7
C9
B3
3E
6D
77
D2
73
29
E0
A8
01
42
48
9B
A9
9A
FB
73
61
3D
49
1C
FF
71
80
08
1C
8C
E4
C8
D4
8E
C4
39
36
A4
01
07
A7
66
60
77
B7
7F
CC
2D
63
4D
73
7A
F9
AE
81
31
91
17
54
5B
ED
21
91
93
A7
F3
72
A9
40
C9
58
A4
A0
F1
77
3A
A8
DF
8C
17
F9
FE
04
95
51
BA
CB
48
3E
26
10
8C
B1
D8
F8
5C
4D
EE
6B
2B
20
ED
30
2D
B8
85
7A
75
E4
F4
2B
AB
61
62
55
F0
EC
BD
5D
1F
3F
6C
99
15
2D
08
81
F8
FB
45
98
97
AC
15
23
7A
4A
C9
69
F3
92
71
8B
7B
5C
45
AF
BD
DC
C2
66
2B
54
28
5F
3A
8E
D1
FA
AF
2E
9A
30
FF
7C
CD
27
97
C7
FB
08
01
8E
C3
9D
EA
3D
74
BB
B4
91
4A
63
70
1B
DD
BA
23
2B
F4
90
AE
9E
B9
3C
8E
00
0F
12
79
FD
C0
56
4D
ED
53
98
B6
D8
39
00
57
E6
1C
64
B8
02
AE
AC
C5
DC
CD
9A
77
8C
3B
B2
52
04
33
82
0D
3E
CC
F4
8E
A7
58
15
43
7E
D0
AF
FD
CA
E2
F1
23
05
B6
7E
B0
62
8C
3A
0B
C5
0D
43
B2
C6
6E
08
74
F4
D5
DB
D6
29
87
F0
73
04
DC
85
DD
EC
50
E1
D4
DB
2A
61
CB
E9
A3
BB
BD
D4
81
75
AC
C9
BE
49
55
07
ED
BB
CA
D1
08
6D
61
9F
0E
FC
1F
36
B2
83
09
A4
E1
D6
B2
E2
9E
5D
F9
21
C0
3D
44
18
C2
DC
0B
26
A6
23
8D
B3
1D
E5
DF
0F
F9
5B
75
B7
18
05
7A
4D
B7
9B
64
D0
55
4A
D2
05
5E
E5
7D
4F
C4
B6
32
17
47
45
DB
92
B1
60
77
26
C1
89
5A
64
F9
C9
4C
D4
17
6A
38
EE
30
14
53
45
99
35
62
38
64
36
53
6F
CE
D6
03
BC
FA
5E
6D
64
29
6A
94
77
D7
D7
2A
05
41
39
CA
07
B0
6D
9E
C2
EE
59
A6
EE
41
F9
A0
A7
E9
D6
4C
24
CD
9F
37
1E
3A
C5
30
11
EB
67
01
EF
4D
66
53
F3
5C
40
7A
1A
A0
24
CB
2F
6A
27
19
84
53
2A
0F
34
16
66
AA
20
60
DE
7C
AC
9F
B1
98
77
E0
4E
6C
54
51
EE
88
20
31
F1
03
5F
80
BD
69
2E
31
3D
7A
36
EE
CB
E5
D9
7D
91
6C
23
46
F2
85
2C
B2
CA
1C
4A
D9
A5
BB
54
9B
19
0A
EC
69
41
DA
8F
B4
D2
0D
A2
6A
2B
D9
E9
C1
12
BB
EA
06
AE
E6
39
71
BE
72
69
E6
FA
3B
24
DA
B3
92
49
DA
6C
A2
FF
2A
55
36
97
E9
26
57
03
A3
BF
75
88
F4
79
E3
80
69
1E
74
4A
10
01
CC
89
85
42
2D
0E
2D
52
16
C0
A6
CA
80
7F
8F
92
D4
F9
1E
1F
2D
62
17
E7
AC
CF
E1
7A
CA
DE
1C
49
15
92
74
E5
CC
1B
BF
D2
96
A3
B2
6D
FA
55
92
3A
29
08
E6
1E
84
8E
56
A2
C7
18
04
67
43
C4
75
DD
0B
B5
A6
8F
46
1A
C7
E3
6E
95
59
E7
4F
97
53
75
8C
DA
9F
FD
19
D2
CC
33
33
93
5B
AD
01
FA
D2
D8
F4
56
EC
27
5D
B2
78
9E
64
8F
6E
B4
76
87
48
EF
E9
EC
1A
7E
1C
69
E3
39
3D
83
9C
9B
FB
C0
F7
A7
F3
3E
F1
5B
78
F3
9D
71
0D
E0
C3
C9
29
16
49
43
56
8C
77
63
E2
02
E4
96
FC
9E
60
34
D3
6E
53
37
45
61
BA
68
4B
2B
F0
27
88
E4
58
F9
93
7B
70
EC
0F
98
C8
CC
BB
21
05
B4
3E
1E
2E
C9
17
16
D3
22
49
C5
7A
03
B8
56
29
33
D2
64
D3
1B
19
56
89
4D
11
CF
91
86
D5
12
3B
92
A3
34
F2
DC
93
52
41
A9
5D
55
BA
49
4F
02
82
77
51
B5
A1
8A
6B
C9
91
CF
FF
90
28
49
70
87
60
11
F9
9B
52
AE
92
DD
54
11
19
CE
4C
CC
32
88
36
BD
B5
B5
F9
1B
E2
06
92
94
D1
27
7A
A3
DF
DD
38
74
B8
EC
AA
38
F6
64
DB
44
7A
A6
8A
1A
80
D8
F5
DD
5A
EE
CB
9E
3E
EF
32
B8
79
60
04
D3
25
89
8A
38
16
65
32
0D
5A
28
6B
24
BE
0B
10
03
66
D3
A4
6F
28
35
44
6D
F9
CC
E2
42
FD
1C
1F
D9
98
49
E0
59
3F
B8
A5
7E
FA
CF
52
C6
5C
54
DA
DA
2B
68
BF
CB
A2
8D
F6
DD
CC
37
08
1E
47
3C
26
3B
FE
CC
6D
68
12
BC
4A
B4
FB
61
5F
72
91
5E
ED
2C
B4
C3
46
FE
F7
80
8C
5A
06
8B
1A
0F
50
54
D8
6D
17
04
B2
FA
9D
37
B3
17
94
D3
11
A2
23
7E
FA
33
59
E8
6C
3C
E3
44
55
82
D9
1D
C9
57
50
A0
95
7C
63
62
2A
D2
73
16
5C
EC
E6
AC
63
7A
EF
A5
EA
5D
EC
6B
3F
2C
74
F7
23
01
FD
CE
FA
59
61
1C
0C
C5
05
E4
6D
26
13
48
4E
32
D4
23
F0
7A
05
15
0C
AD
D8
14
43
6E
E1
01
D3
90
F2
B7
0A
27
78
D8
BF
44
24
D1
01
0B
62
BC
40
50
B5
1D
DF
1F
B1
0F
82
B4
86
68
ED
85
B4
BE
10
6E
7D
4A
AA
B6
AC
6A
75
97
5C
39
76
6F
19
59
E1
88
5C
29
4E
BF
62
C0
07
03
55
3D
D6
86
4A
54
1A
6F
7D
56
B3
88
0F
77
F1
8A
B3
53
F3
47
BE
2B
ED
5D
91
EB
03
6F
DD
1D
58
1E
9D
86
D3
F7
D3
AE
2B
9B
BD
09
7B
CC
AF
02
63
5A
D9
E5
AE
38
16
89
19
EA
B1
EF
43
A7
12
D7
E2
43
D5
EC
3D
DE
B9
41
04
0B
89
9B
9C
EF
CC
36
BC
07
F5
E7
DC
9D
04
55
8E
BA
3B
FB
79
F2
DC
77
7E
C0
9A
12
8A
DE
6E
01
2B
D5
7A
9E
D9
79
A0
8D
7E
53
A4
9C
87
0A
B7
23
88
0E
36
31
94
B6
CF
0F
F1
C2
4A
3F
C3
9F
A2
12
3E
28
87
B3
02
55
A4
BA
CC
68
A9
8B
4E
60
08
96
B5
92
72
AD
82
3B
1D
07
37
DC
C9
37
24
88
49
05
6A
EE
8F
96
3A
37
8E
FF
08
E9
64
8D
68
EA
48
CD
4A
34
F9
77
AA
39
DD
6C
3F
40
BD
23
AB
20
B5
9A
68
FD
9F
53
0F
D2
CB
73
B4
15
F2
6F
6B
71
AC
E7
38
E5
0E
E6
BE
52
92
F1
68
B0
12
57
B1
EB
20
02
FE
85
A2
08
DF
95
AB
81
E3
23
F1
43
B6
96
30
8D
50
A4
3D
8C
A5
65
4A
F0
5F
C7
92
F7
CD
AC
3A
51
7D
04
B8
2F
72
5C
F6
48
C3
56
50
12
F2
81
C6
15
8C
63
75
62
C4
3C
50
6A
40
75
BC
CA
77
D3
C4
73
9D
91
A4
63
D2
92
DC
BB
4E
5B
C7
C4
92
23
05
C8
E7
3F
FE
B0
9E
FB
95
C8
F0
2A
00
46
00
A1
B0
A4
66
33
87
F6
17
D3
1F
C8
CA
AA
17
7B
0E
B3
01
A0
51
C9
87
ED
55
86
A3
0A
5E
8B
57
25
CF
8D
12
91
50
E1
74
50
28
19
BE
B6
71
A0
A6
0D
C2
3E
04
3A
8A
92
A2
1A
96
EF
7F
9E
F7
66
12
5E
5B
7F
AE
90
9C
0A
4A
FD
4D
F3
8D
CF
06
2B
62
DA
EF
4C
07
A5
A9
B3
D2
D3
45
F8
D2
65
E2
D6
81
A8
E7
2C
79
0A
21
5D
B1
63
DD
5E
7C
9E
0A
ED
A6
36
36
87
D0
68
6C
76
26
85
72
9A
DB
DC
4E
8A
DA
01
E8
86
F9
76
89
0A
1A
88
9E
EB
35
20
6C
95
0B
5E
F4
DB
90
8A
CA
A6
7B
EC
7F
F9
F8
5F
E7
BB
64
AE
0B
8D
5F
44
E0
14
5D
47
83
94
D5
72
CB
C6
A8
5B
E1
23
5D
08
A4
EF
AC
2D
E9
F4
59
73
10
24
C2
87
1B
E4
1F
A3
EB
48
A4
EC
07
26
B8
28
EB
25
CF
F9
81
EF
A7
22
B6
18
1E
51
FF
B0
CF
9C
E6
29
63
86
BB
52
FF
C3
E2
C9
4E
F8
7B
FA
CA
32
38
9B
61
F9
2A
EB
31
CB
7D
BA
4E
F8
FE
5F
9D
86
E1
C9
5F
87
50
A5
A3
A4
6F
E9
CF
86
BE
75
50
27
FB
FE
E9
6A
32
52
5A
7F
BB
C7
51
93
D2
D5
97
C2
FE
CD
D0
3E
31
0B
EF
16
59
47
37
6C
1E
34
A2
05
75
92
F0
63
23
2B
C5
D8
7E
F0
BA
FE
C6
09
90
83
13
D3
B0
AA
EA
99
90
BE
0C
40
36
4E
CE
82
77
55
CE
04
F2
30
57
FF
90
6F
00
C3
B1
B9
D2
81
5D
2A
5B
5E
BC
C0
5C
64
51
8A
81
7F
94
57
58
3C
F8
E2
24
B8
4F
82
78
DA
5E
AB
5A
92
8F
64
F1
13
65
1E
B2
FD
40
21
EE
3B
B1
CD
3C
A3
E1
E4
DA
6E
85
6E
D6
22
5B
5B
F3
DD
02
06
C1
3F
C4
81
EE
BB
F9
E7
9F
8D
16
C2
DE
FE
81
B9
1E
B8
E0
91
35
7F
DB
AA
8E
CE
BA
A7
E4
FA
0E
89
A2
79
1F
92
BD
01
A4
43
67
3E
80
E4
B3
32
5A
EB
89
54
A5
13
97
2F
FA
FA
13
E0
F7
C9
91
9E
73
27
9E
21
F7
85
8C
52
BB
C7
01
09
26
9B
E6
69
51
92
23
E7
27
79
09
A2
A5
FD
A1
96
8B
FF
B8
46
5A
37
B4
22
A9
AC
29
F9
EA
C1
6F
18
41
E4
99
2A
DA
52
47
C4
D5
E4
87
D5
14
35
B4
69
5D
6E
18
B6
A9
4F
DA
88
C4
2C
D0
FE
8B
D6
96
35
70
49
60
70
62
0B
EF
3D
1C
B6
C5
57
E4
24
A4
69
E0
DF
9A
12
4B
B4
E7
4D
06
71
B3
25
A7
2C
26
AB
B6
B3
0F
59
7A
BB
36
4F
83
89
38
DF
70
5D
80
5F
6D
7F
A5
6B
84
20
DB
AA
C9
7B
93
9E
4A
93
96
B0
83
4B
40
6B
74
2B
DD
9E
83
25
49
0F
99
F6
1A
48
AB
BA
88
00
32
6F
C6
D4
33
73
26
2C
A0
1F
1E
15
85
D0
90
12
CC
D3
52
5E
A1
C3
8E
42
09
87
79
DF
46
7E
83
6B
2C
92
A8
D9
0D
5A
06
A2
A1
08
A6
38
53
A1
8A
30
FA
6D
AD
FC
E1
68
C6
5F
FF
9B
09
4A
95
85
FD
B3
D1
8A
6A
0A
C9
90
18
AA
08
F6
DC
2D
12
F3
3D
FF
07
9E
70
9C
DE
FE
B6
40
24
02
39
1A
B9
57
E9
1A
08
EE
2D
6A
5E
50
79
39
C5
6A
F5
20
55
D6
8D
CD
FE
45
72
0D
A9
70
38
4D
8E
9C
9C
C1
EE
67
A3
AA
23
92
55
4F
BF
EF
76
01
2E
A9
6A
4B
4C
CB
61
F8
1D
1A
31
8B
40
F4
E4
18
FE
64
3A
E6
C1
FF
F8
D7
54
24
77
0E
71
28
85
7D
B6
E9
78
E3
94
7F
BA
EF
D9
78
BA
57
A5
B8
A4
2D
3D
C8
BC
6B
A5
1D
96
3F
52
4E
BE
67
8E
5A
5F
36
95
5B
42
A6
72
4B
74
57
FD
61
1F
14
7E
D1
88
F9
C7
92
5F
47
5A
85
AE
0A
40
4E
36
50
FC
C0
D8
7A
1C
92
60
95
39
50
BE
02
C7
ED
E1
1B
98
3A
B9
23
03
CE
65
0C
0E
38
21
D3
9E
64
BC
13
DE
00
F9
CA
E5
B6
3B
B0
04
DF
37
93
E7
3D
67
9B
B9
5C
C3
66
79
0E
BB
2E
DA
A0
9A
7D
0B
77
68
E0
3B
11
86
79
DA
6B
0A
DF
10
53
9A
A1
42
F0
2D
58
06
DE
5E
71
B7
BB
72
8B
3E
7F
6B
C7
E6
FB
D7
68
4D
3F
C9
A6
63
D1
62
D3
F9
60
8A
2C
7A
52
B1
D6
3A
72
07
BD
1B
FC
9E
22
2D
2E
BA
42
A7
C6
CE
F8
1A
A1
31
DB
EB
01
8A
E7
83
A9
59
EC
55
00
00
3A
78
6F
2B
8F
3A
F6
83
BB
AB
34
1C
70
B5
3B
BE
8D
58
77
92
72
CC
0B
4D
E0
14
8D
23
67
90
72
42
C2
1C
BC
FA
42
E4
87
5E
15
D3
9F
2D
02
BD
CA
B0
51
39
A6
A1
4B
E9
15
83
D5
69
8F
24
41
B2
F5
31
79
BB
DE
8D
74
A1
4D
C2
A7
1E
0E
20
E6
58
C3
95
8D
B7
5C
DA
75
29
13
1D
AE
F0
CE
9C
48
AF
94
77
FC
BA
39
BB
B0
5E
50
5A
EF
F8
EF
C1
B3
AA
DA
91
AE
8A
A4
64
85
85
02
BE
EE
2F
9F
57
D4
32
37
03
DB
FD
09
68
6A
EA
D4
15
9D
14
25
00
42
49
DC
CE
12
32
25
B3
AB
72
8F
C4
8D
94
A5
7A
8C
65
72
76
69
C4
19
CB
3B
89
2A
FB
25
2B
D0
25
EC
51
D0
76
74
79
1D
84
6F
A1
98
B6
90
9A
71
B1
B8
B6
79
75
DE
47
35
F3
1A
30
FC
3F
4B
20
C0
92
D8
F7
EC
EF
B0
54
C2
32
0A
A7
7E
85
77
58
FB
17
37
0D
9B
F4
AA
BE
84
65
8F
FD
88
24
40
E5
7C
A1
C7
EB
C9
B2
C1
DC
7F
12
EB
93
38
8F
30
22
1B
B0
27
C3
B5
4B
40
B2
81
2F
80
C7
2E
01
63
D5
2D
00
54
F9
6C
A3
C2
32
00
35
33
97
0A
FD
55
F8
4A
F6
75
54
E5
1D
93
C4
60
94
4A
26
B1
84
73
4D
9E
D3
BD
CE
D9
24
A7
70
41
8C
51
10
F4
F2
A8
C6
06
55
FA
F7
3E
67
8B
09
05
B0
AB
2E
15
9A
6C
39
06
F0
02
08
93
BE
39
08
68
CB
31
0D
3A
F0
DF
AC
2A
4B
E6
C6
4C
8C
08
74
24
93
05
97
6C
FB
D9
FA
16
CA
C1
40
27
19
D4
57
DC
02
40
83
D7
81
79
34
64
BB
96
BA
A6
A2
2D
A1
43
5D
CF
F9
3B
C3
E1
49
E0
44
9F
B1
63
15
0F
B4
3E
06
21
03
C2
74
10
AD
CE
FE
2E
13
D7
E1
E4
65
94
A9
05
92
A3
D5
FE
DD
C0
49
52
FB
01
DA
57
69
55
49
3B
8A
F7
83
5F
E7
CF
C2
FD
48
40
A6
D9
13
7D
2C
00
40
06
BB
89
97
3F
A1
9E
74
18
C4
B3
ED
8E
43
28
45
A5
2D
18
74
12
FE
B0
E6
FF
D3
FD
53
DF
10
5F
12
7D
06
97
7F
51
F0
EC
A8
8A
98
70
23
EB
67
46
31
9A
42
73
44
3E
41
29
F3
61
17
C9
B2
36
96
48
09
73
75
EE
E7
96
79
C5
37
D5
95
76
5F
01
6B
4A
6F
5A
2A
A0
5C
76
77
B0
68
82
C5
20
24
D4
28
A7
52
D8
6B
E9
8D
7A
1E
86
0E
DA
A4
07
D9
50
7A
42
1C
25
D5
9B
0B
22
C9
AC
76
8B
1C
52
27
3E
34
DD
D4
98
54
32
89
62
6E
8B
14
C3
12
BA
DF
03
72
5E
B2
D8
15
06
F3
21
D5
30
FA
60
13
96
68
5B
5A
01
F1
42
64
F3
1B
CA
E2
A5
CD
21
E2
CF
C7
0D
F8
F2
45
29
A6
95
17
91
C4
14
B0
3A
AF
41
8F
6F
54
0A
AD
14
58
30
E3
61
F9
5B
46
D5
90
82
7A
4F
3C
9B
20
32
50
C7
48
20
00
90
75
92
BE
A5
18
13
2B
FD
A2
92
8A
37
AC
78
EE
C0
B4
AF
BC
75
76
6D
22
8B
6D
44
69
3C
E8
22
75
A9
3D
D1
9E
E8
0E
EC
43
D9
DA
43
F9
44
F7
D0
F4
60
6C
81
DF
12
2B
72
A4
D8
12
43
71
0A
AD
F7
6A
A2
AC
1A
57
AB
11
FC
9C
B8
F4
4F
2E
6F
5E
8A
B7
30
9D
B1
92
4F
2D
09
61
1F
EA
84
EC
36
E6
A9
C0
AA
C7
F7
27
E8
3E
9B
03
FC
8B
81
2C
6D
29
F5
9C
9D
F6
7B
62
20
A8
85
93
31
01
F9
60
F7
AB
29
92
76
39
5F
1B
D3
BF
08
F2
F9
B9
2B
84
3D
0D
FA
FF
1C
88
82
75
C5
C2
A8
A1
59
E8
9E
D0
55
7E
D3
41
52
A1
B0
40
B4
BE
7E
22
95
BE
23
AB
CD
B7
B8
2D
BE
08
18
52
7E
AC
A9
61
AB
92
A9
3C
46
F6
36
4E
95
3F
88
AE
68
27
2D
71
40
E9
FB
76
86
97
50
27
DA
0A
3B
2C
CE
B6
70
13
8E
DA
F4
28
A7
5D
A3
2C
49
43
7A
0E
31
5A
28
13
9D
DA
23
D3
21
26
44
93
89
CD
1C
5A
E8
E0
E9
4C
E3
D6
28
13
B8
1C
E2
B2
3A
C3
4C
D2
DC
75
F2
22
49
11
FF
AA
C7
98
58
B8
E5
BA
8C
52
A7
58
BE
F4
A6
8A
D4
B1
FF
B0
AC
BF
73
22
25
F7
3D
7D
A3
CE
3C
BB
56
2A
7D
F5
93
58
ED
6E
2A
73
3D
93
7D
07
45
BD
E5
24
98
02
BE
AA
68
C7
40
28
83
96
D8
6B
82
1E
D5
62
EC
67
0D
0C
7A
8C
AE
8C
D6
22
32
51
8C
61
C1
10
14
98
4B
0A
A3
5C
25
59
F7
5A
96
BA
C4
35
A2
32
95
1F
FD
43
F3
54
BF
80
A2
7D
D0
9D
AA
3F
87
55
C5
F1
F2
27
85
C0
6F
9B
F5
DD
84
B3
1C
44
01
CD
57
F4
F1
41
7E
15
12
71
97
17
81
FB
88
8C
0F
A7
35
CA
F6
91
C3
0A
11
CF
08
6C
D4
29
39
F9
0B
54
6F
E0
7F
61
0C
44
27
7B
CD
B3
E1
E9
02
DB
3C
B4
F4
BC
2C
8B
BB
DC
62
D0
B4
53
96
95
05
D6
0E
6D
23
B3
89
FE
70
4C
1D
76
3B
B3
1D
4C
12
43
46
0E
FD
F7
D4
4D
1A
EE
A2
4B
11
F0
BB
6E
E2
46
B5
4C
18
52
44
5D
30
17
A9
C7
6E
AD
A4
F9
0A
73
54
21
CA
80
18
F6
6B
5E
6A
29
B2
D2
D2
B7
5F
9C
17
77
C4
CB
95
09
CD
C7
D0
BF
8E
E5
0E
8F
7A
2E
8E
EB
6D
A7
26
F9
8A
2F
76
3F
1C
3B
16
C3
C8
1E
82
D7
5B
FC
C7
51
CA
2B
2E
CA
EE
BA
CC
69
44
BF
4F
FD
51
E8
01
70
34
1C
C7
18
8C
5D
58
36
F9
A1
73
7A
65
CC
7F
56
D6
9A
4F
0D
40
80
61
46
05
4C
79
80
77
8E
42
5F
4C
25
3B
05
BB
4B
7A
19
BC
09
D5
B3
AC
7B
15
DC
E2
11
3A
01
D1
F2
CD
A6
05
CF
34
5F
99
2D
CF
E4
6A
29
BD
BB
20
E5
B5
9B
6B
89
BE
6D
AF
60
23
92
13
2B
18
BA
97
00
25
D3
44
5C
D8
00
DB
87
BE
D3
17
CB
83
3C
31
48
04
12
5A
27
1E
78
B0
D5
28
EF
3B
BE
23
38
6D
2E
B7
E3
74
00
74
80
26
FF
D3
5D
16
10
B5
82
ED
A9
21
49
82
B5
5C
E0
0B
58
77
82
07
81
FF
D1
5F
E4
EC
B6
0F
04
D2
33
7A
D0
35
FB
AD
97
01
6C
52
24
7A
87
20
4C
63
7D
D1
F1
05
D8
F7
60
D5
8A
88
35
AD
DC
57
96
4A
C1
69
B2
12
64
AF
DA
19
4C
1A
3D
BF
90
E9
78
28
B4
EC
B1
0C
F8
E7
81
E9
3A
C8
BE
FA
C1
CC
ED
4E
3B
CD
55
7A
20
6A
95
5D
21
BA
9C
5E
7C
ED
54
60
13
FC
5D
BF
6C
69
24
16
ED
A3
E0
8A
52
BF
53
95
89
C8
54
5F
43
7C
C3
0E
92
2F
F1
86
6A
79
53
03
D2
F1
D9
61
F0
76
B7
8F
51
09
C1
45
2D
5B
FC
60
F8
67
02
8F
AA
42
EB
7C
49
DB
B8
A1
E0
CA
4A
C1
4C
34
A1
96
96
8D
5B
2A
58
B8
5A
CB
FD
25
A1
26
3F
84
1E
A0
84
31
C4
B7
18
1F
DB
59
64
86
D4
81
3A
44
23
84
A6
89
77
50
FD
4F
48
8B
A0
30
71
3E
A2
5C
F4
EB
29
9C
0D
F5
3C
41
06
25
1E
94
62
C8
A5
6F
0C
0E
86
3E
32
9A
1B
84
31
5C
89
86
50
94
1B
D4
A9
F7
6D
47
BD
AB
B8
3E
00
DB
89
A3
36
F0
C5
2F
31
23
53
C8
AB
B9
DC
6F
10
E3
70
5B
9D
73
A4
2A
9B
DD
D2
BD
A2
58
9F
7A
E9
AF
55
7A
B7
39
6D
8F
EF
48
FB
31
00
28
8E
F7
A7
E3
43
53
C6
4F
3F
EF
82
A9
61
48
F2
5D
BA
D9
71
EF
D1
2F
5E
C7
C0
AC
94
0C
48
96
D4
23
CE
6E
04
FE
28
86
F5
C4
EE
01
77
82
54
42
E1
0A
62
38
86
8C
DD
D2
EA
13
A9
17
AD
5F
C6
A5
28
1C
0C
26
27
2B
09
44
46
EB
F6
6F
12
F5
57
12
E1
D3
2D
10
51
D3
41
5D
30
D4
FF
86
F3
E5
88
A7
52
7C
97
8B
19
75
07
39
01
4A
31
2F
07
4A
E8
C4
A8
66
94
73
7E
FC
C2
A3
72
72
DA
1C
FC
D6
45
08
51
52
83
CC
4B
F1
B8
60
75
B9
D3
01
63
D7
76
D9
96
FA
15
B3
52
85
3F
E7
7E
A2
E7
43
43
CA
2E
BA
A9
03
31
5A
30
21
1D
A2
AE
9F
03
AE
61
AE
CB
45
81
B8
7D
6B
86
CF
4C
ED
9A
20
50
4E
C2
2A
03
F8
2C
3B
67
5F
0C
7F
58
FC
6C
FD
FE
C9
75
8C
45
8A
D1
92
AD
E2
62
24
38
90
B7
BB
A2
C0
50
6F
B1
6C
72
86
13
41
8D
E8
D1
D1
3A
61
CC
D5
F1
03
05
28
EA
0E
CA
A2
AC
D1
E0
00
3D
19
B3
BD
52
96
45
F1
01
0E
1A
C0
ED
8D
EB
D4
05
CD
EF
85
7A
F7
4F
9A
03
14
A9
EC
9B
82
DF
B0
33
28
50
F1
C2
44
95
E3
71
01
41
CE
AF
4C
EB
8F
0C
3E
D8
82
37
29
B3
EE
49
1E
87
95
4E
70
3F
9D
09
DB
55
CC
94
5D
0E
A1
16
D5
AA
59
20
B3
57
C0
F7
F3
13
A2
57
34
E7
A0
30
56
52
3C
80
92
AF
F6
C7
EB
FA
E0
1D
27
7D
1C
61
73
83
76
DA
B2
CB
27
8E
8A
5B
B0
C8
D2
C8
4E
7D
18
25
24
89
E7
41
61
73
EE
B0
A2
2D
CA
26
99
9A
EE
2A
A1
66
F7
16
79
1E
71
3A
CA
B8
90
0D
19
28
F5
EE
57
65
AA
09
40
A3
E1
BF
20
20
00
46
CD
1E
8E
DB
D5
1B
87
5F
39
13
D7
A8
26
C8
0D
3D
05
65
EC
30
7E
88
B3
96
90
F6
8A
24
29
D7
D6
33
E8
EF
28
90
80
DF
98
4B
C7
41
CE
1F
06
61
A9
BA
BA
E8
B4
BE
E4
5C
01
DB
6F
25
FE
3B
65
F3
0C
F2
2B
A4
40
45
BE
E2
25
72
F0
AF
E5
77
A7
30
66
4C
82
5D
CA
43
B2
2A
74
11
B7
66
A0
AC
57
F9
7E
B6
5B
43
A7
88
D8
7D
8D
F2
52
8F
A4
D0
59
EB
72
27
C3
B5
E2
E2
26
A7
BD
AC
52
3D
67
5C
0E
78
01
11
5D
FB
4C
78
F0
61
3D
9C
80
F0
6E
FC
8B
A7
68
49
1A
9A
6D
B8
C7
11
98
D6
C2
55
29
82
11
3E
EC
C8
4C
4D
89
79
D6
20
9F
3B
A4
AF
C6
BB
AA
F4
65
43
63
05
D6
9D
56
DC
27
C2
12
96
9A
B3
E7
51
FF
48
6E
05
CE
01
34
44
2F
93
03
CB
CA
EF
9C
9F
87
FC
82
66
27
4B
87
36
AB
15
DC
44
0A
6E
36
B5
FF
78
61
AF
0C
1F
B3
FA
5F
D7
A3
A2
7F
AA
44
9D
6D
D5
E3
4F
5F
00
80
D1
B5
79
D0
A1
26
7A
31
39
05
88
BB
D9
28
D8
4B
D2
7A
76
09
F3
EB
7A
3F
B1
81
1C
DA
7F
38
F8
44
3F
AF
62
92
DA
A2
15
75
7F
A3
1C
E6
28
27
41
AC
B2
0E
B9
15
A7
8F
6F
B9
33
51
90
6F
E0
08
14
FF
97
34
F6
04
55
54
DB
ED
85
6D
FE
FE
6B
DA
D5
54
29
7F
E0
DE
EC
5F
79
38
14
8D
FF
A9
F3
F8
96
EB
17
F4
9E
63
47
20
8C
07
A6
03
70
27
14
09
A4
84
CC
AF
44
A1
A8
DE
58
1C
9C
59
D4
DF
C7
11
B2
11
3C
3B
4F
D8
A0
E8
0A
8A
98
71
D4
92
BC
FA
C8
E4
46
22
AC
79
3D
0F
E7
41
DB
26
A3
C9
EA
54
27
96
00
2A
53
7F
93
75
0D
74
7C
67
9B
79
39
08
86
92
17
1A
C1
01
5D
0D
DE
7F
7D
D1
1F
6D
09
CA
14
E1
B1
87
EF
5C
0E
29
FC
E4
1C
9D
29
99
4E
AB
40
C9
31
58
C6
28
D9
F5
8E
EF
BA
D3
5F
D1
61
58
23
F1
7A
71
49
A8
A1
C7
5D
DC
F1
F5
01
CE
22
21
1C
27
04
39
91
9B
D9
22
A1
E0
F2
36
8A
9B
47
3A
42
5C
6C
BF
3E
9F
1A
CC
69
3C
72
5B
F9
62
0B
99
AC
1B
D1
63
85
8F
79
3F
86
69
CC
5A
05
49
71
43
62
17
88
9D
FA
E4
C0
5D
FA
B1
3F
A3
92
4A
24
AA
34
14
F7
92
67
08
11
91
DD
52
A7
A7
BB
5A
F6
36
00
F9
D3
C0
FE
62
06
83
68
DC
BD
9D
A5
56
10
CF
32
C6
56
79
2C
2C
1D
CA
9C
E4
8D
D2
0E
4A
84
7C
89
1D
C0
E0
6B
3C
50
5B
56
88
8C
7A
57
E6
F3
39
FD
F4
5A
59
DB
10
89
92
A8
36
9A
1E
0C
F8
C5
8B
6E
04
1F
36
E0
CF
A7
E3
4A
76
E0
59
D4
8F
CF
16
DA
E3
61
FD
8F
16
B8
74
AB
A5
8D
33
C2
B4
23
CF
B4
BF
60
FD
C4
8A
83
51
77
2E
CA
6F
2E
CD
A3
65
BE
9D
54
D4
77
C6
F8
3C
31
68
41
25
82
E4
61
7C
3A
57
CC
43
21
A9
A0
0C
D9
A8
33
7B
B3
C0
2C
4F
92
D7
3A
34
14
26
EE
81
CD
67
41
56
5D
DE
9C
5E
10
17
8D
35
F9
5A
AB
16
FE
17
50
40
78
E1
E8
6D
57
FB
B6
EA
5D
29
3B
D6
E7
B3
DA
DA
B2
6A
9E
37
8B
90
3B
82
FC
6A
DA
08
16
4E
42
5C
EC
28
A4
6A
B7
49
31
2B
36
08
B6
7E
32
EF
33
96
C0
0B
38
CC
5D
AC
C1
D3
C7
D5
9D
E3
7C
8A
41
CB
4B
40
8C
36
C8
28
CE
C8
93
E8
01
7A
F3
52
27
2A
BB
B8
D1
9C
4A
32
B8
2B
CD
1F
89
35
E3
CC
3B
7F
C6
72
E5
01
38
4D
FC
92
B0
22
D4
2B
22
A9
F8
6C
FA
00
79
63
65
FF
0C
E7
0D
A8
FC
60
E1
F7
52
3F
C9
12
52
EC
1D
84
83
4E
3D
01
ED
D6
63
D4
56
1B
E4
37
32
7C
C6
86
D5
0A
45
70
52
CC
EA
DA
D7
EF
DE
D2
32
60
17
5D
5C
BC
F7
3F
94
FE
37
B9
62
0D
A8
18
45
D0
74
EC
13
42
E8
23
32
7E
1C
61
5B
E8
01
3D
A9
88
CD
99
C9
32
2B
6F
00
BC
1F
B6
37
53
77
1D
ED
7D
77
CC
8B
3C
F8
C8
2C
EB
B0
47
48
02
D9
6C
40
E5
2B
1B
E8
B0
2F
BF
FA
F3
13
A2
3F
98
B4
05
6C
D6
10
49
13
46
36
C3
EE
77
E8
05
BA
49
46
A6
32
1A
76
67
33
C3
5C
8D
4F
EE
F1
00
4E
5B
6E
C7
85
75
32
C6
32
56
FC
8A
9F
A9
02
8E
16
A9
FC
CA
1F
54
FB
55
A0
B3
8D
85
5D
E0
E1
97
C9
01
FA
52
72
C2
75
41
B8
6B
AA
6F
0F
C7
19
2F
CA
00
5B
FE
C1
DD
1F
47
18
A8
BE
75
7F
F8
ED
D7
46
17
D3
9A
29
32
5A
2C
3E
D6
B0
B3
38
D3
11
6B
68
9E
5E
50
40
CF
BC
CB
2C
2E
86
E1
03
AC
98
F0
11
3E
47
62
67
48
01
6B
DB
10
26
B5
17
29
B4
E8
BA
C9
24
F7
07
3E
E3
66
AF
A3
D6
F6
D6
91
86
02
36
8C
43
35
EA
72
9F
F3
F2
31
0F
94
4E
7A
F6
72
C5
F5
F5
AD
37
E3
15
F3
95
48
2E
DA
A2
6F
EA
D6
90
D3
81
7C
C1
33
4C
A6
DD
1E
7D
3A
85
08
3A
3F
41
BC
66
D5
92
C7
70
C5
41
D2
10
DA
4E
36
EB
3D
0E
F6
99
FD
7A
FD
DB
51
56
F8
6A
C9
F8
6F
C6
2E
97
72
4E
16
73
B3
0D
27
DB
45
24
FD
85
10
04
63
E2
29
2A
C6
29
9D
55
A2
92
A1
1F
05
E6
6E
EC
49
15
C0
BB
47
37
96
1D
AE
A2
91
BD
F0
B3
2F
3C
56
40
10
C4
04
B1
BE
55
5E
6E
3C
BE
C4
07
65
32
84
46
8A
59
09
A5
12
AB
BC
9C
7D
8B
A6
15
E3
15
78
D2
B0
E0
44
94
C4
CE
99
4E
8E
49
53
16
34
C5
AB
A0
08
5E
EB
E6
BB
F6
D8
C7
5B
90
A6
92
54
6F
8A
7D
F3
D4
4A
90
45
CF
5A
3D
42
66
9F
A2
39
B6
4F
03
0A
10
CC
BA
A5
DA
BA
00
DB
F3
9E
CF
26
FA
54
BF
23
C8
7D
40
2F
29
48
74
B2
C3
86
94
58
ED
EF
EC
69
6C
99
38
25
70
C6
84
25
10
90
AC
48
97
96
9E
C5
5B
13
54
34
E2
1C
5C
34
47
82
0E
41
89
20
66
3A
91
0C
0F
4D
F9
90
F2
A4
3B
57
73
E2
8B
26
AC
26
36
96
55
7C
F7
7C
58
BE
29
A2
3E
8E
DD
D8
1F
69
27
51
15
A4
3D
12
7E
C1
7E
6C
E9
EB
FF
AB
59
2C
4E
4F
E3
68
AD
81
C8
BA
42
94
CE
CF
13
C3
CC
A8
20
08
7B
D0
F4
24
5D
94
A9
C6
F1
98
6D
8E
B1
D8
3A
FE
AC
08
9F
9C
8C
C0
B4
8A
51
40
93
9E
D2
0C
FA
11
C2
10
DE
D8
2C
4F
1F
98
FE
D2
FE
01
CE
F4
20
B8
17
49
58
3F
B3
6B
3A
1E
75
F7
AD
10
38
7E
BC
37
53
91
8E
A0
14
4D
C5
FC
69
AC
56
99
CE
99
63
D2
2F
54
9D
F5
6E
95
01
20
91
31
68
C9
0E
EE
81
9E
7E
BB
79
39
6E
8D
5E
D2
E8
79
3F
F7
12
84
41
F0
E2
D9
C1
38
A5
C7
C8
2C
7F
D5
8E
8E
F0
8F
F9
9B
49
C9
E6
C7
93
E8
8E
F4
89
0E
A0
DC
A1
D7
6A
B2
3E
95
EC
8C
95
E7
7B
95
3C
52
5E
E4
72
AA
08
AD
D3
3A
4C
3A
D2
80
DA
9C
2B
EE
9B
25
38
2A
BB
C9
08
BC
5F
59
9C
93
9D
14
77
F5
38
26
21
01
8B
B7
57
DE
BC
BF
A5
F8
13
23
42
54
53
4D
D1
36
FA
F6
CA
79
E2
0E
F0
0B
73
06
BB
30
FA
09
66
89
E9
E7
0C
15
E9
B1
BC
46
74
DD
2D
A1
9F
A5
A1
83
3A
72
C0
48
8A
51
C7
20
AF
77
1C
4F
22
A2
03
15
2C
09
57
30
C6
58
F8
6D
7A
B0
DB
9F
20
45
AE
5E
DF
6E
DA
2B
B8
21
F2
35
03
77
75
8E
6A
84
FC
57
2B
3A
57
06
9F
1D
66
3F
8C
B3
4C
47
0C
39
96
26
A2
71
0A
78
53
18
BD
AF
26
EB
4D
F1
AE
96
DF
25
5D
73
68
26
6E
79
42
E3
3D
99
F4
0C
B0
84
56
AB
FA
3E
00
32
0E
84
9C
34
41
DB
18
E4
16
8F
EF
C3
F5
AA
9B
D1
D4
79
B6
5C
FA
0B
29
A6
3B
11
60
F3
FF
89
B0
C5
76
DF
DB
31
19
66
2F
78
DB
19
F9
36
95
33
4F
ED
1B
FB
E3
0F
69
EE
27
DB
F2
09
24
F8
6B
CA
F6
19
AF
92
2E
BC
BE
C6
A1
4F
3B
50
5C
0A
03
22
74
E7
DF
CD
C0
87
31
ED
77
86
AC
FF
4A
DB
3A
8C
2D
2F
69
E8
80
5C
B0
52
C3
4C
09
A3
F7
16
66
B4
51
AB
FD
BC
DB
14
72
EC
E0
79
2F
51
13
5A
68
B8
81
B2
5E
C3
D2
4E
9A
74
8B
01
60
F9
0E
37
CC
F9
F2
1A
72
ED
A6
C8
7E
5E
C1
D0
80
A7
80
E3
D1
1E
ED
09
7B
65
0F
3D
AF
21
98
C9
2F
6D
2B
24
A2
B1
22
45
8B
30
09
86
7A
2F
BB
8D
C9
62
79
77
18
A0
C0
B4
C3
CB
79
3D
31
53
48
1D
7E
AF
76
F6
FA
02
DD
39
B1
8E
30
2F
97
72
D5
60
3B
7A
EE
E7
14
2D
11
75
72
0B
5F
98
7F
13
93
BA
96
28
A8
D8
03
5E
72
EB
B8
D4
EA
C8
38
AC
7F
C0
4B
DD
A8
B1
5B
F7
01
78
47
B9
E6
0C
35
AD
73
7F
6E
07
2C
40
A8
80
B7
B4
44
19
C4
44
AC
A7
32
7F
5C
EF
91
5D
27
9E
44
61
62
BB
D8
91
84
3A
7E
F8
4F
F3
CD
2B
7C
1F
D3
54
82
20
D2
A9
EB
58
76
8C
2A
09
0A
F8
3A
42
E4
2A
42
70
03
C8
53
CA
5B
5D
AC
BB
3F
12
8C
53
1E
AD
68
01
58
B0
74
92
03
D1
B9
20
30
22
0F
11
6D
36
1D
A5
8F
28
7D
60
96
4C
7C
AC
CD
51
57
B9
E5
57
06
5C
BA
C0
29
74
FC
5E
96
C8
59
50
68
03
95
AA
17
10
6F
97
77
03
85
14
E0
BD
40
29
80
2F
96
B2
09
B3
9D
8B
FA
C2
8D
89
23
48
E3
5D
86
8B
E4
7C
4A
00
6F
7E
87
87
A0
7C
B0
7E
4E
A5
F3
B0
C0
50
DA
A1
8A
F3
51
E8
EB
62
01
F6
EB
27
D8
92
24
13
DD
30
60
CF
A6
D7
DF
DF
6C
C1
63
52
DF
A6
A0
8F
CA
B0
97
F4
13
02
37
13
41
ED
69
D2
2F
0F
52
7F
1C
38
97
C3
8A
EE
67
33
28
62
D5
40
EA
06
7E
E5
44
1A
5F
FA
36
A7
8D
37
A2
6A
5C
5C
4E
FF
7E
8F
5B
99
DC
FD
6E
75
20
9D
47
C9
4E
6C
F4
81
81
FF
1B
16
33
4C
EB
6C
F6
9B
CC
DD
01
96
9F
60
3A
F4
C3
02
69
5E
E1
31
C2
8F
40
DE
4B
15
CB
D0
97
8E
1F
FF
39
E7
7F
9F
E0
03
7F
43
F4
26
AA
ED
88
51
DC
98
7F
D5
FF
0F
4D
39
80
D1
C4
F4
34
A8
C4
4F
F1
70
B1
4A
E1
C3
64
DD
9C
2E
7A
3E
B8
92
60
FE
08
C0
9A
1A
7C
60
99
0B
FE
E1
72
6C
EC
12
5A
23
61
2C
CF
40
46
E4
57
F7
FA
50
06
5E
AD
7E
A5
29
4E
53
A8
85
F5
54
07
94
6E
58
CB
1B
D4
23
DF
40
58
C3
81
D5
C7
BB
EE
7F
10
B7
40
8B
6D
DD
C5
4D
54
66
12
A3
91
28
13
5F
EC
BA
04
C3
35
E4
DD
6C
AD
75
2A
63
6D
8D
29
23
E2
D7
9F
C0
AE
44
04
84
2F
0C
79
61
DD
87
82
16
FA
8A
FD
01
B7
0C
95
2F
2D
03
05
67
B9
49
52
A6
C4
F6
51
48
ED
8C
B5
F9
6F
8F
E9
2D
C6
01
52
16
70
77
75
E4
42
A5
94
E4
5A
1D
3C
C7
6F
11
FA
80
8F
FD
14
89
84
6D
51
2D
F6
86
74
63
F4
3B
FC
45
BF
0C
86
2D
B7
BE
3A
4C
E0
CC
31
15
BB
1C
70
E8
DA
03
63
74
79
07
7C
7E
3D
AC
CE
DC
3A
FC
60
5A
90
FB
03
AF
C6
ED
E5
75
88
5A
B5
DC
DB
B6
2B
33
FC
28
9A
47
AC
DB
89
E9
C2
16
EA
8F
EB
1E
5D
95
5F
58
ED
6C
72
20
38
83
94
27
C9
CD
47
10
41
EC
32
C9
B4
35
64
33
28
70
0B
AD
09
7C
EA
52
C3
B5
8C
35
66
AF
D1
A5
60
22
1F
64
3B
36
70
B4
25
D8
3B
8B
7F
8B
95
83
46
13
96
05
72
7F
97
86
6B
2E
B3
00
93
DC
99
3D
C1
6A
81
0D
70
A9
82
81
36
56
71
96
F0
2F
95
BC
8F
8E
F6
83
19
49
2E
1E
09
A7
86
69
7E
24
EE
6C
32
AD
3B
03
34
23
01
7F
78
29
4C
C4
6E
71
5D
19
96
AE
23
3F
C7
59
3D
BC
18
3E
C4
82
42
6A
51
20
3C
43
D0
CB
CC
0C
B6
DC
AF
72
6A
30
77
9E
5E
87
30
50
65
1A
F6
F0
34
3A
99
36
D3
78
65
FE
CA
D6
03
25
3F
40
BC
48
B1
76
8A
CC
81
51
4E
AB
14
F9
BA
EE
6D
39
11
E1
1B
15
1F
45
1A
B4
15
94
F8
6E
F0
41
54
07
88
27
4F
91
FD
81
C4
18
09
35
40
1D
35
FF
A6
FC
5E
B2
35
DF
7A
DA
57
37
62
EA
2A
2D
D8
21
76
E8
2F
1D
E8
C0
21
B6
70
92
2E
0C
93
B7
36
FA
EC
75
99
F3
BE
08
01
E1
10
EF
CD
92
B9
CB
93
45
77
60
1B
20
80
BC
BF
06
53
96
22
C7
7A
50
3D
CB
72
A5
3E
53
8F
F1
6C
D6
0B
F8
1E
47
75
16
3F
81
8B
34
05
3C
0B
EE
39
AB
97
9F
6A
CF
06
CF
6C
25
09
6C
08
C2
93
D0
0F
51
A1
9C
0A
CE
F7
70
DF
E9
CF
C5
E0
BF
2C
71
6F
96
93
1C
0B
ED
4B
64
0F
3C
5B
36
6E
CD
7B
E1
C7
EE
91
32
DE
9A
D8
A9
B4
CC
40
0F
B8
01
6E
39
31
AE
36
7E
7F
AB
A1
35
2F
A3
E4
79
9A
4D
14
0A
9F
A2
93
2E
F3
43
BE
6E
B3
CE
62
32
69
55
66
74
8E
04
4C
0D
17
D2
4D
0A
D0
D7
E3
DA
44
73
6A
24
B1
E2
93
65
69
24
2B
53
8E
C3
52
E8
AC
52
C1
D7
C1
10
47
7E
DA
5E
23
EB
1B
E8
23
49
AD
B4
92
D0
B0
3B
89
CD
70
F2
69
39
24
58
C5
63
9D
48
15
96
AA
CE
66
16
A3
E5
2C
3B
79
5E
E0
79
84
EB
BA
59
21
86
45
D0
77
CD
D2
58
0E
63
FF
40
12
61
E5
54
2B
C5
21
EA
7E
39
B9
A3
0A
F0
6F
98
AD
B5
1B
5D
38
35
CE
86
51
FF
34
44
32
E1
5F
C0
79
17
7E
6C
ED
21
29
B4
AD
D3
7F
51
50
39
64
83
AF
43
10
20
80
F7
2D
4D
08
EB
B5
DD
1B
34
BD
0A
33
56
CA
07
D6
CF
B2
BB
E8
FB
FD
15
AF
D0
73
8A
BC
6F
CB
48
0A
FF
92
C3
19
2E
74
DD
70
A4
31
36
6F
21
72
AB
FC
ED
BD
44
2C
1D
80
5D
B0
0A
14
20
3B
A2
9D
4E
BA
0F
27
CE
B0
62
CF
4F
A9
47
F1
47
75
F2
4E
45
BE
17
AA
95
AE
72
0D
02
6F
74
06
FB
D5
1A
2C
64
81
B4
0B
74
38
63
5B
4C
94
8C
47
68
8D
F0
98
EB
15
6F
4D
0F
99
6C
8D
9D
F9
77
1C
AF
CB
93
DF
DB
8B
7D
C7
99
21
EB
92
F2
0F
E2
22
F5
9A
30
EA
68
2F
BE
1A
64
D9
73
99
96
57
91
E1
5E
5C
E6
3C
EE
41
72
D3
F9
34
73
8E
45
E2
D8
FF
5A
90
C7
F3
B5
05
0F
A4
38
EC
D3
3F
F5
8D
E3
19
29
17
8C
84
6B
2B
6F
B1
9F
75
C2
50
D2
43
E2
C2
2C
7C
25
54
B0
0A
33
9D
D5
7B
7C
09
04
4D
74
E7
04
EB
86
3B
4C
AB
2A
26
E1
B6
78
2C
44
DB
18
60
72
61
2B
BC
9D
F1
69
73
C5
E9
21
CF
43
14
63
D0
04
F7
4C
95
CE
15
04
93
CC
AE
5B
09
A5
87
44
62
DB
97
30
F8
BF
4A
ED
8D
F1
07
4B
89
E8
BF
DD
FC
D7
BA
AC
0A
E2
9A
2F
19
53
E6
74
CC
00
9F
C2
61
BF
F5
C4
4F
B2
52
5C
C5
48
FB
1E
B7
4C
34
75
04
91
3A
A4
27
43
2E
9F
15
5C
0B
76
2F
69
55
BA
4B
A7
F6
26
BD
66
A0
8C
D6
09
9C
8B
37
44
CE
88
06
C7
5C
F4
76
EC
42
32
9A
B3
90
2D
59
DE
93
FE
C1
56
F7
05
F7
C0
93
E6
DC
8C
75
FD
79
CA
52
B9
32
50
AF
C7
45
91
8A
24
30
21
86
F0
CF
15
E0
54
AB
38
A8
62
B8
8B
BD
0C
B2
A7
54
91
55
EA
58
5D
37
84
BE
F7
D0
76
41
4A
3A
AD
66
D2
4C
AA
5B
D7
EC
58
B4
E1
19
78
0B
F2
F3
E2
AE
0D
93
6A
0C
16
11
33
61
91
05
86
6A
4C
03
4D
D1
02
04
CF
44
38
83
41
F3
C5
71
33
D9
E1
60
04
5A
87
0B
5E
B1
8D
53
24
3B
71
65
4F
EC
45
7B
BC
BF
3C
14
7F
DA
D6
3C
08
9D
E4
71
DA
94
75
67
A9
9F
B3
79
99
F7
82
90
17
EA
E3
35
7E
8B
B2
C1
3E
6A
3E
D8
17
E6
05
B8
D8
73
56
2C
AB
80
8D
91
E9
9F
CC
29
CC
51
70
A0
B3
16
5E
94
05
4A
4C
4F
21
9C
86
7B
A3
76
0F
B6
13
DB
8B
9A
9E
C8
7F
2E
05
1E
78
18
F2
64
93
ED
BF
F9
39
DE
33
01
7E
B2
E1
3C
D3
5B
52
B3
63
3A
F3
AC
86
B8
D9
DC
F2
41
4F
3F
D9
A9
8E
69
C7
EC
F8
0C
55
96
60
98
19
FA
E1
5B
05
59
77
B1
6F
90
DF
C1
D4
A9
30
4B
C9
80
26
17
34
91
E6
25
A9
47
10
B8
04
15
2E
01
E3
E8
D7
8D
AB
50
72
E0
39
4B
44
7D
16
5A
5E
60
31
28
D0
7A
39
31
CA
86
F8
E9
BE
D8
17
CE
CF
F7
2D
DB
9A
F9
94
13
C2
35
7E
75
45
D6
BF
42
99
35
C6
27
93
A2
AC
83
F7
69
4A
45
CD
34
9C
64
C3
03
1B
BD
29
34
36
E0
A9
DC
10
33
11
EF
47
7C
26
FE
FB
F5
EA
65
C0
DE
9E
55
C5
F9
62
80
4C
F3
63
18
32
AD
4F
58
F9
74
37
0B
9E
BE
17
9B
35
78
31
6E
6E
7F
64
CC
36
A0
00
FD
1F
42
23
8B
9E
B6
D9
2A
52
2B
9C
B5
52
52
9B
E0
5F
33
1E
7A
7B
46
91
7B
B6
0B
95
A9
71
B3
1A
41
42
FB
92
2B
28
CF
37
66
70
5A
26
5E
3A
73
0C
83
33
25
7B
FA
CB
52
EB
36
73
B3
6E
A2
40
35
4D
D3
77
FE
57
D8
CE
E5
95
2F
EF
96
36
12
91
99
77
A4
F8
29
16
55
AC
25
0B
8B
27
95
6A
C5
CD
44
6A
71
08
28
2E
B4
EB
7F
33
66
C8
6E
91
1C
2A
87
D9
9E
18
51
D8
0B
E1
77
1E
E4
92
E7
E5
09
5C
77
5B
FC
52
E2
04
82
78
38
7E
9A
B4
8D
5E
CE
B4
F4
84
B8
DE
D5
1A
6E
B9
28
C5
1D
F7
BF
18
EB
45
18
44
77
39
08
7D
15
7C
DD
E1
51
C2
DC
16
26
8C
DE
F7
F8
F3
E6
B7
1A
B2
9C
5F
D8
18
77
50
AA
A4
CF
20
25
9B
AE
8B
6C
FC
E5
3A
78
D3
FE
DA
26
6C
1F
BC
B8
57
D7
1C
53
9D
70
EE
13
E5
32
21
79
42
E5
E6
0A
25
A8
EB
E8
D8
7E
8D
69
51
8C
AF
EF
31
84
DF
00
BC
BE
DC
65
26
E6
EE
C0
71
D6
5D
16
6B
83
8F
9C
89
0A
37
58
1A
E6
F0
E2
B9
3C
26
FB
19
D1
3F
9C
6F
9D
69
F9
C8
9F
37
E7
8A
14
99
34
8F
67
62
11
E0
E1
9E
E8
0F
FA
98
63
F7
C0
F5
BC
BA
AE
97
D8
6C
02
86
A2
5F
57
9F
D7
9F
C4
E6
8E
35
B3
D1
8C
BF
73
BD
DB
98
E1
0C
3D
48
60
8F
78
3F
EB
6B
70
9D
A9
C1
6F
81
1A
1B
00
1F
92
89
AD
86
2E
FF
B8
4D
D3
55
7A
1D
E8
06
C6
F1
78
21
6D
02
1A
03
CA
FF
41
F3
00
21
A3
C9
A6
6C
09
D3
0D
CB
A8
19
11
B7
0F
59
4E
A2
48
F3
4E
89
61
56
B0
4A
B3
E2
1A
0A
2C
5B
71
6A
58
86
C4
97
70
40
6F
C3
AB
D8
79
4A
EA
8D
8A
D9
FE
D7
A1
78
E7
63
D8
EB
05
E6
B4
84
3E
DC
D2
85
AB
CA
00
D0
CD
A2
AB
90
76
9C
4E
A6
A3
4C
D6
12
10
78
82
82
C3
8A
10
EA
5A
24
73
FA
68
26
C1
C1
44
18
88
5A
4D
F2
98
3D
72
DB
72
F8
43
5D
8D
57
5A
58
BE
52
89
70
34
61
5E
44
1D
07
ED
7B
13
13
F6
A3
A4
D4
9E
15
49
B5
02
9A
3A
BE
E0
20
DE
15
6F
26
03
C3
3B
47
3B
7F
9B
3D
2F
22
B0
DF
D1
43
51
55
18
B6
43
D5
E2
B8
6A
46
33
72
F3
FD
C2
BD
25
4D
9A
31
F9
63
73
7E
4F
7D
D7
B7
06
F4
1B
AF
AD
A2
7A
EB
A5
55
9B
BA
97
E7
11
CE
B2
3E
A4
C0
27
2F
83
93
92
CE
12
BC
31
64
50
A7
04
58
62
77
B8
0E
68
F4
B9
CF
21
F7
A1
B5
E7
5D
C1
DE
CE
43
22
15
58
E7
54
DE
86
8A
D9
1C
AB
99
1B
52
87
76
43
1F
1F
09
8E
3B
18
90
F5
CC
36
F9
FA
F7
AD
A5
B8
A3
7C
E4
48
7A
F3
29
AF
42
4C
84
DA
F8
D9
20
28
29
7B
86
02
41
DF
A3
36
CA
8E
03
1E
CA
10
FA
91
37
5E
F7
D9
6E
E1
AC
60
D8
2C
0B
2A
9E
BB
8F
FF
FA
D1
AF
72
AD
A8
C9
76
F6
13
10
C2
D0
4A
A1
F0
57
E8
AB
1D
A6
AC
F0
91
F3
78
56
B2
74
29
DD
AB
74
9F
D8
C8
1D
94
60
64
60
4B
9A
B1
62
B6
E7
E4
2D
19
FD
51
19
81
09
ED
19
34
4D
0C
90
84
4E
DE
4B
CE
FE
5B
02
87
5C
AF
2A
CB
7C
B3
4B
1C
81
F7
81
0F
C8
35
61
84
28
32
81
DB
FB
09
80
C4
C3
02
0C
F1
06
0F
83
5E
6F
33
61
60
8C
B6
01
23
E4
00
BE
22
2D
40
2D
BE
8F
7C
C3
04
C8
B5
99
F1
48
BC
B9
06
B0
7D
94
9E
8E
76
A7
7A
33
28
9A
68
ED
2B
A8
AA
00
1B
A3
15
8E
7D
D8
33
70
23
33
90
84
2F
6A
05
E2
6F
7E
C2
5F
DA
3F
53
D9
43
FB
99
0F
CB
00
25
10
A4
A0
A6
23
15
EA
9B
39
DA
58
A6
F9
1A
FA
1B
AC
09
3E
3B
AF
2E
DE
68
CF
A8
3D
BD
C8
2E
4F
BF
10
5D
3D
01
37
D5
20
64
41
0D
66
6B
88
15
B6
ED
88
E8
8A
6F
08
8C
48
83
0A
3A
1E
71
0C
00
03
D4
12
BC
6B
40
BA
B0
14
CC
98
97
67
32
CF
A7
13
4E
74
9C
66
D8
F4
91
9F
87
B8
FB
C6
D1
65
09
12
5D
7E
FF
01
5A
AA
AB
B1
2B
E7
D9
03
A8
CA
D4
24
EE
B8
6E
B7
45
E7
14
75
68
E5
25
CD
D3
91
34
53
0D
9F
76
E0
98
E7
3F
96
9F
D2
01
47
21
AE
54
C9
13
60
64
48
BF
7D
ED
81
3B
78
22
EA
98
3C
75
D9
DC
0A
C5
12
36
23
0F
62
E8
27
74
67
D1
FE
92
BF
5A
3D
4A
67
F8
AE
2B
32
07
83
1A
CB
5A
79
34
AF
8F
35
C5
65
D0
F0
02
E0
35
66
E0
05
3F
A2
E3
61
C8
36
FA
09
A8
F0
52
CC
12
88
E3
89
10
67
D8
79
EF
B0
A3
8C
AB
DD
E4
32
39
8B
72
22
A5
2A
81
24
4F
55
6F
99
3F
EB
8D
B4
0A
EE
69
9F
B1
F9
FF
BB
02
48
45
AC
CF
DC
88
32
E5
A1
C9
28
5C
E1
E8
59
6D
6E
5F
09
B5
8E
ED
FD
80
14
9D
A0
EB
D0
92
F6
35
7B
77
26
86
67
AC
AD
9E
99
94
DF
DA
23
10
7C
2C
53
40
34
95
B3
AF
81
47
45
4E
F5
2C
D8
70
15
CE
3B
2C
39
42
D1
60
8D
82
4D
25
E7
04
5A
49
BE
92
EB
A3
C7
34
69
6F
C1
23
87
70
EC
BC
64
D3
1F
7F
5A
96
07
B8
B3
65
3B
32
3A
34
57
FE
FD
57
49
68
02
46
8A
8E
AB
F7
5A
24
63
BC
C8
A2
98
F3
08
03
7F
C6
7F
BA
5E
C5
AE
4D
2D
C5
B3
59
81
A6
63
C9
17
1A
95
86
8E
EC
AB
53
B3
F9
DD
73
B6
C4
80
5C
48
BA
2A
48
61
29
3E
29
78
3D
84
27
BC
AB
D7
13
AB
7E
C9
4A
BF
F9
0C
03
91
4C
C7
76
BF
58
9C
11
66
D2
CA
A0
A8
C3
83
AE
64
67
B0
3B
DE
FA
C6
16
F1
22
97
0E
7D
8F
F1
C6
C6
F6
FA
07
6F
2B
EB
71
93
5D
C5
14
D9
30
BE
BA
51
48
9E
70
EB
4E
DE
B0
FE
9C
1F
6B
6D
28
5F
04
F5
9F
C1
19
FC
5F
7A
2D
C7
55
6D
82
16
69
01
3E
52
A7
88
88
6C
6D
62
DA
AA
E3
CC
E3
F4
AD
75
D3
EA
5C
0F
3D
62
DB
06
A2
CE
C7
F6
96
D9
07
6D
5F
B9
97
28
70
A9
26
88
4B
5D
01
B4
BA
21
FF
F9
EB
FD
5B
8F
9F
51
01
19
88
B1
55
C6
21
19
EC
28
A8
79
67
80
68
88
FE
82
18
06
76
F9
2B
82
85
A4
6E
B2
D0
6C
F5
2A
3A
E4
28
0B
0B
41
A0
60
75
78
DF
40
E8
C6
C4
68
7F
7A
5A
70
8B
EC
95
4C
F4
EE
35
49
96
DB
27
CD
F6
84
4D
CB
81
21
14
82
FA
77
AA
E0
44
3A
FB
67
3C
3C
36
51
64
7E
4C
02
BF
3A
11
57
AD
B0
67
EE
7A
05
51
1A
20
C4
DA
65
05
5B
28
73
74
26
AD
92
4D
03
A4
20
18
EB
43
76
81
2E
33
94
D9
82
69
51
9E
AB
A7
0D
D8
26
35
34
A8
76
0F
F0
48
EA
C5
6F
4B
C3
9E
86
9E
B4
43
C0
09
33
51
0B
77
FB
F9
E7
7A
9E
1D
F2
A0
39
0B
14
3F
55
88
98
E7
9A
45
1B
3E
38
27
59
E6
78
FD
7B
60
F6
23
85
8E
56
16
89
1E
0B
06
96
A2
01
84
DC
1F
3B
2A
AD
D4
9D
23
00
F3
9F
A1
6B
C1
A3
77
28
C9
C4
B2
FE
52
B2
4D
40
C2
7B
97
0B
0C
A5
83
F2
39
F2
06
F4
B8
7C
B8
1B
62
93
B1
51
CB
06
B9
5C
74
71
CC
6F
4B
9D
EA
F5
05
A7
74
EA
B1
CF
C8
77
AE
8D
33
AD
0B
41
20
95
E3
31
C4
D0
2A
57
79
FF
06
B6
12
B9
EB
A9
1B
83
F4
D1
E0
34
89
34
17
DA
48
92
9F
F7
EC
2C
FF
81
82
24
E2
44
3E
E8
12
49
A1
57
67
DE
9C
9E
9A
69
E9
0E
17
8F
38
0F
78
87
F7
35
49
45
8B
58
89
49
52
58
52
5D
76
61
F8
4A
43
75
80
2F
A3
A6
9F
E2
DE
19
F0
9F
2B
1A
B3
79
E2
AE
ED
89
5D
EA
E7
08
A6
7B
BD
77
B4
05
9F
4F
9F
0B
A6
95
7B
06
6F
5C
E3
C8
8B
94
09
BF
AD
7F
BC
00
C3
06
CB
7C
A0
07
22
27
2B
14
73
FA
C6
E6
BF
C0
EE
68
56
05
76
39
B2
03
D8
56
04
5C
D0
B6
EC
26
E6
85
BC
21
1F
51
6F
17
90
0C
53
62
F2
F7
3B
2A
FF
B8
78
B3
A7
27
11
37
F7
22
7F
C0
FC
7D
4B
73
F9
24
98
91
19
BC
E8
09
EB
14
E7
47
82
CD
31
0E
CC
39
11
5C
FB
FB
D1
75
D0
6F
96
E5
80
49
4E
BE
13
8A
DB
76
7E
6F
F4
6E
86
30
83
30
ED
9E
0C
AA
5C
92
71
C3
94
B3
EA
39
1E
B0
91
7D
4F
43
AE
26
89
CC
4D
87
99
6C
B4
56
23
8F
87
3F
E4
6D
6F
0A
CE
D1
05
B4
72
4F
39
E7
57
EA
59
A7
69
B9
86
4F
0D
0C
6D
A9
19
0D
3A
1A
A5
7F
D1
9A
72
0D
E9
A9
EE
B7
13
1D
FD
BF
93
04
5F
BA
09
FC
CC
67
9F
A3
16
FB
F1
20
0D
B2
37
1B
94
9B
BB
77
38
D4
06
1E
C4
78
E5
30
83
65
75
F7
92
9D
C1
8D
D4
BC
55
67
57
16
18
F7
37
29
A8
33
7F
75
D8
93
B5
F0
1C
48
08
21
BF
8C
2F
35
C4
D2
0F
98
B4
D8
E3
C6
4A
EC
84
5B
37
B0
E3
E6
AE
21
7B
9B
4A
7B
D7
91
34
0C
75
2D
E1
E6
FF
73
20
BE
5C
3E
48
11
90
DC
EF
53
25
57
D2
B5
E1
36
63
BD
67
01
45
E6
F5
73
80
ED
5E
9C
B7
FD
7E
07
3B
3B
E8
23
B6
49
47
0A
FB
AC
9C
7B
E0
BB
2C
92
29
3B
43
8F
28
A1
F9
53
4D
BC
D9
2C
BF
F6
40
CE
74
A9
70
82
8B
9F
E0
EF
26
3F
70
50
B0
6E
B5
54
02
FF
90
E5
D4
EA
F4
FC
04
5D
DE
1A
87
ED
CB
D7
15
2F
0D
DD
17
83
3D
1D
8E
BB
6B
5E
C7
DA
A1
6B
E1
A4
4E
F6
03
12
13
F3
28
87
62
C8
CF
A4
39
2B
97
E0
6E
BF
B1
E9
79
51
C8
02
26
21
FD
69
A5
A2
09
8B
6B
8C
F6
F0
5B
4A
9F
0A
52
BF
32
56
AF
D8
71
4C
AA
F0
1F
10
84
68
D7
47
CD
F7
A8
69
B0
0F
36
D7
1C
CC
55
A1
6A
7C
48
8A
86
F1
0C
9B
A1
E7
E3
10
6A
47
7F
D2
44
46
2E
64
B6
20
2C
2C
31
93
00
83
57
46
7E
26
8D
37
05
85
20
25
FC
46
30
FD
74
91
60
42
60
86
CD
27
DE
94
39
76
54
F7
5B
97
F8
3A
2B
EB
FD
38
FB
A7
48
E3
C0
3A
C1
94
EA
82
95
85
45
40
33
A5
E7
EC
B1
86
59
A9
83
8C
7F
1F
53
58
49
82
12
A5
83
0F
9C
16
1C
AB
49
DB
36
18
E4
99
C0
2E
99
EC
B8
6E
5C
D8
08
19
46
26
A1
9C
1F
FA
F0
1D
D1
CD
D2
02
B6
02
B0
0B
F8
14
6A
D7
E2
06
46
FC
92
9C
A8
38
82
C0
AB
B3
60
AF
98
6B
D9
64
53
37
45
1F
78
DC
C7
47
31
DD
A6
D7
56
91
E6
2E
8F
C7
B4
E7
89
4E
A4
38
C9
6E
D0
40
DD
AD
A6
0B
41
B0
D1
C9
40
A8
58
41
A6
80
1A
4A
35
6E
C9
3F
44
CA
D6
B1
6C
E1
A3
85
95
C1
B3
79
7E
18
E8
50
8C
17
7E
75
9C
4F
B6
CA
A6
83
55
75
B5
88
D2
8D
25
81
AB
8B
6E
DE
E9
07
2D
0B
8F
A0
EE
0D
E7
FC
A4
23
96
A1
FC
80
85
8B
21
D7
AB
F0
09
CC
05
9F
97
6C
A3
A9
4A
6D
02
C6
A2
4E
96
F8
1B
1D
CB
62
96
81
9E
77
89
00
AA
EB
9B
5A
9E
1B
8A
95
B9
AA
F1
A6
14
C7
2E
91
80
DF
30
95
A0
8C
2E
B3
48
3D
64
C5
A3
B5
63
B9
C8
D0
4E
FB
70
22
67
B0
1D
D2
9A
26
36
BB
90
BF
CD
42
AE
55
46
59
55
C6
DD
DC
1E
1F
8C
CA
A7
53
AA
16
2D
59
80
28
CB
D9
51
52
20
EC
0B
E0
DC
B2
DB
F7
A5
78
B8
65
97
4F
20
54
C5
51
C4
F4
0E
03
9B
56
26
6E
F0
44
6B
F6
FD
62
69
AC
5B
2B
A3
01
FA
7C
0D
1E
90
67
A4
E1
D3
F9
CF
EB
9F
51
46
8E
2C
AD
24
13
B2
06
A3
2C
5F
5E
0E
E9
17
DD
6B
5D
22
F0
E5
8C
00
D5
89
D4
00
17
7D
4A
F8
20
6F
C4
CE
1B
BE
1C
32
44
91
01
F6
2A
12
3D
F0
E5
9F
3A
4F
43
54
37
20
71
B8
B5
5F
EC
9C
C8
E9
32
82
47
E8
E5
5D
7A
AE
0C
84
61
81
02
47
DF
93
F6
98
62
33
03
79
E7
FB
04
C8
D7
31
1A
CE
01
33
E4
0D
96
FF
9C
E9
23
D2
81
6E
2A
FE
0D
4D
90
02
55
FE
D3
6C
4A
39
C5
26
C3
DF
05
8E
D1
D2
27
9A
35
93
2B
27
02
26
2A
48
25
E4
6D
FD
53
56
4B
32
9E
C0
55
C1
1A
76
9A
9B
DC
68
8F
B1
D5
7F
20
03
F1
81
55
88
E1
F7
A0
F9
3F
00
66
80
E3
15
D5
F6
68
85
F3
EC
C4
03
E2
DC
A1
64
F7
76
1C
25
DF
EB
FE
07
EB
CC
A5
8F
6B
4C
BF
C1
2B
3F
4B
E8
03
91
74
6C
66
7A
7D
1C
66
04
69
D4
15
88
56
80
F8
88
F0
D4
0F
2D
FC
53
DD
98
D9
78
BC
D4
EA
4A
77
69
94
B4
BC
82
05
7F
71
C3
4D
74
6E
33
E8
1B
F4
5E
37
10
F0
E9
70
F7
88
A7
77
0A
C2
F4
92
A8
6F
E3
33
C0
EF
94
60
B6
6D
CA
A2
8F
F5
24
0C
4B
01
CB
B0
BC
33
A2
1A
9A
AF
70
DA
BD
4D
C3
44
69
AF
9E
D6
AD
39
AE
7B
AA
C1
B8
99
27
71
DC
69
55
48
56
B7
5A
EE
0A
8A
A0
BE
DA
82
40
FB
B2
9F
61
2A
9C
AE
4F
93
EC
17
B1
68
59
CB
61
89
5B
DE
20
23
24
CF
65
B8
B9
76
DC
C0
8D
24
BE
EA
32
36
7D
C3
79
F7
84
BE
EA
9C
7E
36
B0
C4
E7
0E
72
E1
83
09
BC
D3
D8
E6
68
06
64
0F
06
7B
1B
B7
FD
41
0A
B5
6A
A2
A5
F4
E1
8F
00
EB
1C
DB
25
CF
74
A2
92
4B
81
E7
E4
EA
D3
67
60
33
D6
BB
6D
B7
76
23
FD
4E
2B
40
44
5D
D5
46
99
A1
40
5C
5E
AB
37
54
BC
CF
0E
3C
33
C3
94
C2
66
24
80
3D
57
7F
69
01
F7
43
AB
58
26
52
77
78
B4
90
E8
E8
9D
87
23
A2
F4
2F
BC
71
51
D7
61
C7
25
B8
99
23
62
A1
12
52
79
64
B5
30
48
00
1D
0B
F4
29
36
4F
91
78
A8
D3
75
95
A3
3F
68
BF
C5
30
19
24
87
44
C9
0F
15
11
44
6D
9A
B0
FB
ED
3F
D3
30
3D
9C
6B
2D
4E
19
88
0A
D4
64
11
CB
76
CF
6B
D8
D9
50
82
62
28
F4
F3
91
3B
89
43
EE
DA
BA
E2
C6
C7
17
F6
05
15
3D
D8
FD
0A
17
B1
82
A1
07
77
B6
71
E5
12
F7
26
64
1F
94
1F
D4
4F
44
F3
43
83
1E
40
FB
51
94
9F
12
66
03
71
6C
8F
0B
21
0A
AE
81
FA
1F
AF
D5
7B
38
C6
CA
46
93
A2
56
F8
8A
47
6F
6E
9E
1C
DE
EA
AC
7C
FA
1C
FE
16
E2
65
C9
FB
32
B2
D4
DD
C6
10
F3
96
BF
22
FF
4E
05
13
F3
F2
20
9F
B1
58
8D
63
9C
F0
27
9C
00
24
17
09
36
9E
2A
16
DC
B7
8E
01
90
D7
9F
C0
8F
F9
60
27
C5
82
40
86
90
17
FA
DA
62
43
8C
B6
BF
2F
8E
E4
D0
37
9A
D6
86
17
ED
9E
33
25
46
EB
1A
42
90
65
9D
AC
C0
95
7F
2C
DB
D3
A6
5B
0B
DD
68
6C
3B
D9
39
1E
5F
B3
4E
20
2B
27
99
29
51
E7
9D
FD
F0
F8
82
E7
99
5B
97
20
74
9B
17
9D
D2
07
F9
DA
41
2B
22
03
1F
7B
56
32
28
D6
E7
26
0B
07
CB
B2
CC
61
F3
95
9A
C1
6B
03
AD
09
08
5D
98
80
BD
C5
A2
5F
D8
61
66
BD
9C
51
53
D8
54
B8
1C
35
39
F2
E5
99
BA
14
59
26
AC
69
64
98
D6
49
3F
DE
AF
41
F0
75
AC
FA
B5
43
61
AF
B0
4D
73
99
7D
E3
9D
84
8D
FA
6D
A9
64
73
44
E9
D3
D2
5A
16
B8
70
55
1E
45
AA
64
39
68
3D
C0
AC
53
7E
5E
8B
13
0E
A1
01
EB
D3
DD
77
C8
D9
07
7F
73
73
56
54
D2
AA
A8
1D
FE
2F
E9
D7
7E
0C
C0
84
1D
79
22
38
CA
01
4D
F0
B0
51
80
18
15
4F
A7
FF
DE
B0
12
87
0A
77
21
5F
F7
87
61
40
57
B6
AC
A0
62
4A
A2
87
B9
1B
F3
99
2E
2E
B8
92
3A
79
0A
D4
55
2B
0F
E5
0B
56
29
32
D6
D6
9F
47
5C
DC
E2
B3
DB
18
2A
59
20
50
E6
38
23
7B
7A
A2
09
E5
9E
BA
76
9B
19
13
DF
9F
A1
87
0D
2B
CC
0D
FD
57
9E
1F
2B
B9
79
D6
30
86
8A
C1
EE
2C
BD
86
56
20
87
9D
E1
7D
1D
E0
0B
49
B9
3F
13
F3
01
FB
DA
BE
1B
EE
84
FE
2A
D0
80
69
33
20
8F
92
8B
04
6C
CA
57
3E
65
77
78
6D
99
38
65
24
92
49
60
5B
E8
81
E0
80
EB
BA
00
5E
7C
7F
4A
70
2B
7F
61
16
AF
52
67
E2
F7
07
11
52
B2
A7
BE
2D
2D
08
44
0A
64
49
C8
33
02
2B
13
E3
F0
D5
45
0E
9A
F9
A0
82
94
38
4D
9B
D8
B2
F8
7D
68
70
38
C0
9C
AC
67
70
64
6F
D3
F1
A2
6F
64
A8
94
16
45
34
58
2A
03
8C
7D
C8
57
E7
E2
23
D5
F7
19
D3
F2
2B
2A
23
F1
69
3F
80
A5
72
FF
54
E7
4C
A9
A6
35
45
3C
82
06
D8
40
59
FE
54
20
F7
B2
A3
00
DF
78
B0
74
DC
81
52
93
DA
8C
10
DB
77
10
E8
52
CB
6B
BC
7E
A6
14
D8
E8
49
9F
80
53
26
6B
75
60
FA
45
8A
38
8C
78
D1
29
CA
7F
68
AB
FE
6D
AE
2E
FD
03
A2
7A
6B
34
03
64
B5
42
93
45
E6
70
2C
14
E6
03
F0
27
1F
C0
A0
0A
21
E1
3F
8D
99
4F
74
AA
79
2F
68
00
CF
D1
B9
6C
E3
32
BC
B9
A1
44
2B
4F
A5
89
DC
56
C9
BA
21
70
2E
15
7A
91
14
DE
44
AE
76
04
1F
55
8D
74
6D
E2
CE
C8
37
BD
EF
4F
14
79
9B
99
E9
32
7B
C5
88
AD
62
AD
0B
EF
58
E7
BD
93
A9
5C
CC
51
BB
C3
AE
56
81
98
9E
FF
25
FE
1B
33
81
AA
0E
A9
8E
24
48
5C
18
1F
8A
F6
0F
88
D1
72
51
04
3C
A6
20
85
7A
D3
9F
49
58
4E
36
5A
3F
A8
34
2B
9D
CE
70
4B
C2
94
F6
E0
00
36
B7
F7
0F
BB
5F
DD
A7
8D
41
99
7B
9B
4F
F0
24
7C
16
E0
B7
C9
41
55
43
63
EA
AD
05
4C
E0
FB
C3
32
0F
45
3A
82
4A
A1
26
46
68
04
A0
DF
DD
1F
F2
8A
28
24
E3
59
78
7E
F5
0D
BF
87
06
B3
B7
16
37
D8
E7
5B
7E
38
95
72
1E
AD
35
48
A4
AE
FE
DA
32
F5
54
32
BB
6D
36
05
92
16
BE
94
C0
CA
AA
18
FB
3A
5A
CF
02
54
1B
8C
F4
A8
6A
7A
47
58
C3
04
DC
17
19
0C
1D
A9
D7
D3
D3
BC
2D
E3
24
48
63
64
9E
C2
2C
4C
4B
03
3D
03
E0
AC
A4
AD
CB
3A
37
24
A6
2E
3D
DF
F1
05
FD
22
2B
CB
06
79
2A
72
84
47
F6
98
33
1A
F0
5A
F2
15
71
A8
49
84
57
A5
6F
86
97
51
C8
39
2D
AA
8D
9B
42
27
3A
A8
02
C5
D6
04
AD
85
B0
34
65
F9
CC
51
EF
F4
8B
6A
41
DB
D6
8D
42
18
68
4A
76
06
88
8A
C1
E2
81
09
C6
BE
8E
F2
29
5C
2D
97
D3
AE
CC
C9
A8
31
36
09
C2
31
49
22
82
22
B1
9A
18
02
4B
9F
F9
77
EB
D8
44
51
26
3C
BE
38
DA
DB
95
E2
3D
40
B0
44
17
6D
4C
A2
EE
1B
E5
79
4E
B1
33
E8
60
CC
BF
FF
0A
D4
AB
3B
5E
16
3B
DA
47
BC
BE
27
DF
70
F5
AB
65
D6
88
B5
7F
9C
18
83
6F
0A
58
A2
7F
B2
33
BC
45
4C
8E
6B
8E
10
E9
63
A8
19
8A
E9
E9
72
92
4B
6B
51
40
CF
A6
C8
CD
86
E0
2B
1D
4B
91
49
39
A2
7D
AC
27
DA
22
E5
BD
2A
F0
CC
41
2B
68
85
DB
EA
CF
FB
87
C9
F2
83
73
43
28
FD
CE
47
F4
3E
0F
17
9C
6F
EC
DB
0E
86
4A
C5
13
04
F2
30
6A
40
89
A6
A9
6C
73
B0
0A
66
8E
F6
10
D9
8A
20
29
B5
B5
5D
A5
13
08
3F
1D
B5
74
95
15
1B
8F
F4
28
7F
15
B5
8C
32
87
B5
49
FF
D0
CE
90
5E
DD
A7
2A
5E
34
E4
34
FE
3A
65
01
47
97
9B
EC
90
0C
8F
D1
55
B5
57
81
2D
EB
CF
16
A7
58
12
8E
0B
AC
56
CE
C3
94
EB
F9
1E
12
4D
93
6C
C4
AA
A8
C8
72
9B
10
4F
C1
09
2C
F7
5C
45
99
63
67
F4
FB
44
5E
73
84
9C
9D
A7
94
B2
96
4F
2B
E1
0E
B3
D3
50
81
C3
8D
88
E3
16
65
13
E3
18
69
82
66
9A
CB
10
63
B3
39
83
27
F5
F4
2D
C9
58
9C
B7
35
C2
5D
58
CF
48
94
F4
40
A2
80
16
DB
07
52
BC
9A
1D
DE
3D
56
4B
B8
A1
95
E7
75
0D
A3
21
70
4F
DD
C4
73
62
25
79
BA
6B
31
E6
D3
BB
9D
DE
4E
28
3E
C4
D2
ED
1D
85
7D
23
AF
96
9B
8A
44
AB
87
F5
28
78
64
53
1B
7F
DF
2C
D4
29
E0
6C
A3
DA
08
1D
A9
0E
B5
B4
8C
D7
5B
A4
CA
00
70
EF
9E
47
1E
23
8C
B8
07
2C
F0
63
49
D9
22
F9
4C
A7
EE
9D
B6
3E
2A
2D
9B
6D
A0
AB
03
A6
DC
8A
4F
8D
49
6C
9B
D9
C3
BF
CC
51
DB
9B
D4
A1
A1
B1
3F
05
17
F0
A4
71
BB
43
40
97
56
AC
2D
FA
BD
03
F0
CE
BB
08
B6
02
06
64
09
15
4F
0D
62
B7
55
F8
DA
DC
86
D9
8D
A8
A5
89
F0
9D
2B
2F
EA
A4
85
C4
72
80
46
1A
53
9B
53
C8
AF
5E
D9
B1
EB
85
AC
8A
C9
BF
33
CC
DA
4F
CF
72
84
77
4F
69
ED
16
42
BC
7B
13
D6
03
1F
01
69
0D
08
D8
58
9D
A1
72
25
3E
E9
DC
CB
E1
BC
89
17
45
2A
C1
B2
DF
76
98
08
9F
3F
27
93
47
5A
2B
DD
DA
97
2B
58
91
51
37
94
1E
41
48
27
89
4C
06
06
9E
40
3F
FF
60
32
60
D6
67
9D
E9
24
9A
53
C3
2D
4F
30
AF
B1
2B
A5
FA
22
22
D4
56
A0
FD
B8
84
19
D4
D1
F0
0D
87
5B
E8
51
DF
03
71
05
BE
FA
72
B7
6C
FF
E8
EF
8F
89
C2
33
5C
34
5F
07
EF
43
F3
5A
21
B3
05
D7
14
77
30
16
35
CA
BE
CE
DA
41
25
45
B0
2B
27
49
37
02
F1
48
11
0F
57
1B
87
9F
7E
D3
B9
28
BE
08
04
2D
01
56
04
93
24
A9
E9
82
24
73
EE
3B
C5
AE
00
5A
CA
9C
B4
9D
36
14
F9
BC
9F
F5
F2
AF
85
C3
B0
74
25
70
16
4E
9C
8F
40
FC
F3
A4
04
9E
AD
A0
06
A0
EC
82
7F
BD
D4
18
F5
67
BD
13
CE
76
C6
6A
32
C4
FC
D7
77
5E
A1
6F
02
85
89
64
4A
56
99
7E
2F
86
22
2C
4C
3F
70
82
19
CC
50
61
DC
77
40
54
2E
3A
09
5C
47
27
DA
4C
B9
09
F8
30
BF
8E
ED
C1
D5
E2
3A
23
F0
B1
3B
B5
2C
40
42
5B
9E
D4
7B
DC
80
DE
33
6A
A3
62
C3
B1
71
15
3C
AC
CB
82
6D
3C
BA
6F
EE
50
6C
D0
5E
81
53
41
2C
4E
52
70
A4
C5
B1
15
48
6E
93
E5
61
A5
99
69
95
92
C5
47
C7
C1
60
4F
2D
0C
C0
61
CC
3D
B3
F1
7F
3B
37
20
FA
E0
51
EE
3E
F9
50
40
73
D8
B1
6B
C8
68
30
87
ED
A7
C6
6D
12
74
A7
47
11
BF
06
E8
20
A6
BE
BD
90
28
F0
42
36
F0
F8
AB
88
F6
D4
2D
66
1A
A2
BD
BC
CD
27
E8
D3
78
5F
AF
DE
8C
EC
1E
9D
D8
6F
71
35
4A
A6
43
5B
06
07
74
8E
1A
74
B4
79
FD
7F
53
61
D3
76
0D
70
B0
32
95
BD
BD
B4
0D
EC
77
52
1A
0F
53
A5
03
5A
95
CA
3E
63
5A
0F
58
24
33
95
35
12
52
23
04
23
CB
F3
23
56
52
5A
03
64
23
EF
04
16
95
F3
42
02
F3
1C
E7
64
CF
97
1B
59
65
94
BE
DF
38
2E
26
94
AC
30
69
B7
8A
A4
C6
88
0A
A1
FD
02
76
07
23
23
2E
05
D0
43
E7
76
A6
3A
8A
A4
CC
77
B2
7A
53
9F
B3
76
69
5D
02
00
4B
EC
95
6A
83
BA
0B
0D
86
BA
8B
D5
DD
89
9A
54
0A
B2
F4
83
D9
48
2F
1C
51
85
68
8E
AB
38
15
54
1D
FD
C9
88
54
3D
2E
E2
C0
1F
17
62
73
66
AC
25
36
5B
09
DA
EE
DD
E5
85
CD
EC
40
55
8D
19
04
8B
FE
43
0A
88
C2
BB
48
CA
F3
1E
3A
6F
57
9A
11
8C
37
EF
E1
2B
47
0A
35
69
57
5B
05
3F
45
1D
D6
5A
29
70
7E
97
DE
6A
E0
12
FC
3A
13
FA
0B
85
FB
34
3A
CD
04
46
4C
3B
6D
35
BC
13
3A
04
D1
21
EB
94
F7
B1
07
97
2D
8D
CE
50
38
4D
4F
01
2F
4E
27
1C
FB
6F
FC
3A
0A
CC
2A
76
0A
93
DF
15
1B
18
5C
0D
0A
80
8A
8C
0C
BB
E6
02
94
E6
A4
4B
3A
95
E8
DC
15
2C
76
91
E4
59
59
A0
27
7D
99
7A
93
D8
BB
7B
47
74
7F
C6
15
E2
B7
80
36
4B
A0
2D
E4
C3
77
DB
55
3E
0E
73
A0
CC
04
4F
FC
A2
11
2A
9F
78
30
93
37
09
DB
B0
6B
40
86
2D
CA
73
89
F6
50
29
14
24
D7
37
BA
DF
47
14
62
56
B4
B0
D4
3B
5F
19
A7
28
49
44
F5
A4
C4
7B
73
C3
54
D0
29
49
DC
2D
33
9C
13
70
9A
F7
27
89
A5
C7
CA
11
A1
5A
85
95
2D
13
33
02
39
2F
9A
39
3F
92
28
E4
47
E2
7B
6D
C1
B6
11
24
9F
B9
7F
44
42
60
68
F7
B9
18
D5
DD
3D
AE
1B
C0
5F
D6
F5
B9
5B
97
FA
6C
85
59
B8
0F
FD
3E
25
78
2B
D2
B6
6B
92
05
6B
1D
D3
B9
1B
86
D8
C0
AC
B0
69
6E
AE
B2
FF
5F
F6
8D
72
26
FF
D8
CF
FB
7B
E5
5B
37
06
A7
FB
DC
46
8D
82
BB
EB
B2
A9
E9
7C
7C
2B
5F
7E
C1
54
D9
72
F1
B8
83
65
B9
59
E3
DD
58
6D
7A
13
74
C6
41
73
FA
46
88
9D
44
0D
39
6E
7A
72
55
F8
12
72
73
E5
02
62
54
1E
C5
2F
36
47
7E
36
52
23
68
0E
4D
A7
CC
F8
39
A0
96
71
CB
62
46
75
EB
64
24
72
71
17
A6
59
07
43
A1
99
B8
78
F9
01
8C
65
C4
08
83
B6
15
CF
9C
F3
57
43
7D
9B
B5
02
27
84
F2
EC
A2
64
EF
7C
45
B9
15
87
97
7E
3C
6E
DC
6A
15
F8
CC
E5
EF
3E
52
D6
6A
7B
E5
96
4C
4F
6C
DC
96
2F
B7
D1
CD
F0
00
C1
98
CE
A9
34
7E
17
36
09
94
56
EA
BF
5D
C4
F0
59
3E
E2
A0
94
B5
7D
BB
A6
B3
23
78
46
53
04
C5
B0
ED
71
A0
5A
BE
AB
14
A8
03
D5
AA
D6
30
AC
5B
64
0A
05
91
F8
F4
24
A5
4E
AA
99
A6
BA
A4
B6
A9
43
18
0A
A1
22
B0
44
57
95
12
A3
29
EA
6D
74
BE
21
88
92
78
AB
9B
D0
DA
E1
18
B5
8A
02
BC
BB
0C
98
FE
A3
75
44
53
35
D2
AC
97
F2
48
84
22
1E
62
97
13
71
AE
74
E9
D8
82
73
33
9D
83
9F
B5
7F
21
43
DA
C6
E5
88
49
9D
86
11
EF
35
9B
D2
0E
91
9F
E4
C7
38
25
7E
F0
05
C7
20
B3
42
C7
65
43
79
C8
CA
25
8D
EA
CE
9A
60
DE
AC
72
72
3C
38
AD
0D
52
1F
FE
21
EC
0E
55
4D
BE
12
C7
63
03
6D
AE
5D
F0
F9
16
80
19
ED
75
5E
8C
47
CB
43
45
73
31
79
C5
81
A0
44
F6
3E
2E
20
98
BC
E4
31
04
7D
B1
9D
0D
40
D5
5C
A2
8C
FC
DE
4F
4E
BE
FB
FD
0C
BD
3F
0C
F9
AA
34
1F
F1
2B
19
52
D4
40
58
4C
9C
96
AB
2E
F5
D1
72
70
EB
F9
7F
37
D2
BA
1A
7E
D2
25
C2
0D
3C
23
08
31
C3
5D
4A
BB
B1
E6
FE
3A
26
9A
C4
18
07
5D
3C
CE
44
E8
56
E3
9F
B3
C8
D9
4E
64
C2
A7
3E
1A
41
61
29
E0
4E
65
3E
14
48
66
D4
2F
71
A2
9E
EE
38
01
21
4E
D7
A5
94
A3
8C
2F
95
A4
46
10
D4
3C
11
7A
69
EF
5A
C1
9D
46
45
7C
FA
4F
38
C4
A4
62
27
E9
22
F7
35
7E
86
54
BE
98
BE
DA
4D
80
71
5B
C1
D5
DE
84
BA
6A
42
4A
6C
4C
1F
4C
8D
1C
8D
54
47
BC
E5
27
F4
54
B1
74
9E
C9
2A
16
90
C5
65
31
36
8F
00
F5
50
EA
81
63
CD
DF
72
6E
53
A3
17
F9
20
88
67
3E
2B
48
5E
3B
19
24
C8
E0
B7
72
75
DB
A4
15
06
16
BB
BB
67
A1
3C
F6
73
6C
69
64
3D
A7
DB
CF
F6
CE
D5
E2
51
2F
B8
5F
33
21
8F
4C
53
EE
AA
67
A5
57
66
98
CD
97
EE
01
05
4D
87
B0
1B
5F
C9
A8
A9
3F
E5
EA
F5
A6
9B
B2
D3
E7
F9
93
98
88
9E
87
A6
7C
D4
CB
42
EA
16
10
74
30
E8
73
53
AC
F7
BA
35
E4
44
0C
CB
A7
4E
F1
46
30
33
E8
E6
25
4E
50
9F
20
C2
FE
C0
26
A6
70
EB
F1
96
AC
0C
EB
2B
76
40
88
9D
E0
7A
CA
9A
A4
1D
08
F6
BD
00
84
5C
38
40
C2
5C
62
C6
BC
5E
E3
9F
A4
6C
33
37
71
1E
20
5D
8C
DC
36
EC
F2
EB
B8
1D
C9
D9
CA
AE
05
82
E4
09
F5
B6
49
D7
8E
9A
A5
43
9D
15
FD
E4
AD
96
4F
F8
62
C2
A3
81
10
51
D9
48
FC
30
78
45
BF
5B
61
0B
76
F0
ED
44
8D
D3
EE
FF
D0
79
49
7E
1E
1C
DA
14
DD
07
A3
8B
0F
8F
0F
91
AE
9C
B0
58
3A
E4
0A
99
50
6E
11
CD
DA
D9
B5
73
34
11
BC
51
7D
1E
9F
AA
CF
57
6D
7C
5E
3B
20
82
6B
7C
71
6E
6E
AE
E9
C9
C1
2D
C0
4F
B0
61
3A
76
58
25
47
00
3F
D2
75
B4
75
39
D8
45
AC
99
CD
C4
2C
4D
B5
29
4C
98
78
47
B6
B7
A7
51
B7
72
8F
F9
DE
EC
62
8E
4F
D6
80
5E
79
AB
9F
AF
6F
D4
7A
A8
FC
E8
D8
73
81
5E
3B
DB
27
B8
5E
26
D0
67
BC
A8
B0
F8
4B
4C
9F
83
0A
A8
FB
FB
35
E1
C7
FB
D2
27
57
E4
90
BB
75
DE
18
A4
63
C2
B1
04
9B
3A
23
6F
C6
E9
40
F1
14
C4
63
13
E0
60
36
BB
7B
51
85
B1
07
FF
8D
0B
83
5D
DA
F3
FA
8C
9A
EA
2E
E0
C6
0D
BF
9D
C3
09
79
EA
05
8D
8C
AE
78
B4
22
4A
6D
A4
8C
5A
F5
5F
9E
ED
82
D1
6C
1E
25
75
DF
1C
F2
13
0A
74
AB
13
E1
3E
BF
7E
F6
B3
71
D7
FA
3B
09
E9
F8
31
A8
A7
7E
C4
E7
19
D7
BB
93
AC
7E
2A
A2
B3
2A
CC
79
97
B0
02
32
01
FF
0F
CC
63
B7
35
26
2E
8D
BE
53
3E
0C
AC
2B
E6
70
E2
4E
1D
E1
65
D3
39
35
56
47
25
D7
EA
35
56
41
5C
63
DF
74
00
89
D9
03
B9
A2
70
00
6C
11
33
DF
7E
6D
3A
38
65
2C
AB
4E
9D
63
3C
21
D5
82
0F
CD
8E
11
6B
B0
D1
D8
C1
A9
6A
A2
98
8A
9E
14
EF
55
FB
E1
C0
47
5C
6B
BF
F8
E4
50
05
9D
E4
10
8F
26
D8
17
90
EC
AB
EA
74
92
27
D1
9A
A7
24
A7
20
E5
E8
E3
19
92
17
14
26
4A
3A
BD
A5
1F
C5
62
41
B3
55
CE
DA
75
95
68
FE
D2
09
46
4F
83
9D
4C
1A
35
CB
CD
77
43
0E
DC
BC
ED
D5
38
54
A5
55
48
99
E3
B8
D3
F0
3E
D8
99
35
F4
59
F8
A3
96
C5
98
B3
EA
0C
78
CE
C2
39
59
F3
68
39
DC
8E
66
8F
F1
C3
E0
2E
52
7F
70
8E
28
53
87
B0
E4
26
A5
EE
97
35
B0
23
15
B2
17
72
D6
CE
1B
EA
13
92
A2
1A
6C
50
A0
9E
37
B8
87
95
D6
B3
27
27
47
AB
70
25
0C
65
27
79
B4
5B
0E
50
24
28
AB
4A
D7
28
7A
7B
5A
C7
AC
99
E0
F8
C6
9E
21
12
32
7F
74
49
03
B6
01
63
34
E1
64
48
E5
2C
67
9D
71
2F
29
1E
EA
88
AB
CD
3A
2A
D9
8B
51
5A
78
BA
0A
17
DB
3F
30
3E
8F
8B
56
FF
47
BD
D6
AF
81
DC
BA
06
B2
AC
28
38
39
CC
26
3B
EB
78
E1
AD
90
AB
49
40
24
A7
28
E5
9C
09
9D
AD
E9
6C
D7
7C
8E
0D
88
0D
D7
C5
16
27
FD
35
A3
D1
C1
18
77
BA
01
00
EF
1E
52
49
3D
7F
10
EC
C8
7F
84
39
16
BF
88
62
44
5B
4A
1D
FA
ED
A2
20
7E
C4
12
46
C5
D8
62
9F
9B
DC
95
17
11
1D
A4
1A
E5
FA
6F
03
EC
82
30
6E
3F
76
BC
20
15
CE
71
5D
06
09
B3
78
02
3A
BD
A6
17
ED
31
97
1F
53
B1
84
11
D5
13
24
3B
0B
14
77
BA
72
DC
5B
76
7D
81
B0
11
55
08
B4
48
69
EC
15
2C
4E
42
78
AF
1F
50
58
1A
74
C7
9D
49
D4
6D
B0
9B
FF
4B
41
69
DA
82
BC
61
DD
47
AD
AA
8A
2A
05
70
84
13
43
71
E3
94
DC
C1
2D
84
DC
CE
34
EB
57
9C
25
5B
77
A3
5E
C0
5C
3A
9E
05
61
BF
59
F5
51
2B
35
1B
10
A4
64
FF
DE
E1
D1
D1
F3
FB
7A
74
4F
F1
93
17
FE
22
A8
82
F1
82
BA
FC
39
71
CE
94
0B
79
42
05
FB
09
C0
47
1B
F4
D2
97
49
82
AA
EB
0E
B2
B6
6A
4D
A1
D6
04
AF
56
1F
A0
3E
F8
43
35
B7
8C
4F
E3
3B
77
B9
69
13
B9
8E
9A
52
00
0E
EF
2B
77
FF
45
E5
7E
74
B6
4C
7E
0F
19
FD
91
F5
6F
AF
45
A6
3D
B5
9D
CB
6A
9E
15
6C
C9
1B
F0
04
45
F6
B2
F4
DC
CF
FD
0C
A7
BF
84
50
EF
77
CC
36
21
E1
38
ED
48
DA
B5
55
82
86
38
D2
E0
5D
8F
89
9E
56
21
6D
66
92
1D
85
D3
BB
E0
94
CC
BB
4F
D1
08
D2
73
E4
BD
9D
31
1E
B6
B6
0C
05
D6
F3
3D
8B
F9
AA
B9
0C
1B
11
9E
14
23
95
0F
4D
EB
56
22
1E
75
AB
92
A9
B6
4C
70
BC
BC
C9
B5
F0
5B
9A
A2
82
99
0A
0C
AB
31
96
6E
3F
C0
81
A1
1D
5B
2D
61
5A
8F
43
1E
54
86
1B
F7
38
39
70
7C
32
A5
CB
E0
60
6E
B8
47
B8
C7
78
BE
6A
AE
29
F2
08
F1
8B
5B
08
35
24
C8
DF
8D
6F
AF
29
C9
06
DE
E3
21
1A
DD
AE
58
23
7A
15
5B
4C
E0
8C
E0
14
18
C5
89
A4
0B
50
79
E0
F5
FB
F3
A2
BD
6F
E9
27
84
82
1B
16
E7
0E
89
62
41
A6
8A
8E
6B
E2
80
2F
0B
AF
B3
09
09
1E
B6
E0
81
6C
A3
54
D1
2F
4D
06
AB
C2
3B
10
F3
56
F5
61
29
4E
B4
8F
4B
3E
94
0B
34
4B
F7
30
29
21
B8
77
42
B1
B4
F1
3D
B3
ED
60
27
32
47
17
2C
2B
9F
F8
96
B0
7A
CF
29
64
A5
55
EB
D2
8A
CE
1A
18
9E
5C
69
BD
75
39
21
09
DF
EA
9B
3E
1B
B4
39
4E
53
18
79
58
F3
CA
05
45
C5
1F
2D
B2
2E
14
0E
CF
F4
36
AC
FD
77
B7
B1
6F
F9
75
C0
08
B5
68
8A
1F
07
DB
A4
42
63
93
C7
0F
B4
07
11
38
A2
67
03
AF
6D
A5
B9
87
92
EC
66
63
3E
D2
6D
E9
45
F2
AA
8C
6D
45
12
5C
E2
4A
0E
20
2D
D8
C0
98
97
04
61
A6
1E
2F
F1
60
F7
36
80
EB
90
9C
24
1B
1F
60
1F
CB
78
4A
07
0E
53
93
FF
47
C7
E1
71
F0
B7
11
85
98
80
C7
F3
BD
98
40
BE
19
DE
80
5F
FE
06
67
6F
D9
20
41
56
34
A4
A1
2B
6F
F5
B3
43
9D
8C
8C
9C
8E
3A
A8
78
11
D0
E8
62
E3
3C
55
F0
8F
70
3A
EB
C8
CB
78
A7
1E
F4
63
C3
E3
6C
33
8C
0F
9B
8D
54
15
C2
AF
09
31
04
D3
11
71
6E
04
A1
BB
85
53
1D
7A
A6
9E
93
7E
62
4D
DF
CF
73
BA
6E
18
68
C5
83
9A
21
50
88
CB
14
80
8B
66
4E
3A
25
58
AA
A9
33
77
49
37
55
94
8F
AC
D3
80
0A
40
0F
4D
B6
9E
7D
FD
53
63
7D
F6
41
00
73
0C
76
EB
4E
7A
0F
25
14
35
20
A7
86
24
52
2F
21
E5
5A
D3
CE
08
86
38
1E
9E
E1
8A
0F
4D
B6
65
7B
83
75
4C
CA
1D
87
52
A1
22
EC
DA
BC
A6
E9
76
47
C0
67
5E
A7
62
84
1E
EC
93
84
CB
CE
5A
66
89
80
19
A0
37
4F
9E
DF
EE
5C
EF
8D
76
1B
E1
F6
4B
29
53
DC
2D
9E
FB
0E
7A
C9
B6
A0
E1
BE
0F
C5
15
D6
85
FA
17
3B
92
31
E4
7C
54
7F
7A
1E
A7
73
FF
BB
5D
7A
0B
82
D0
33
D3
D6
2D
C1
EB
70
F4
56
75
10
F6
D4
41
F6
91
DB
B8
42
D2
EC
FE
6F
52
2B
92
BC
EB
59
DD
E7
06
AA
3C
3C
FE
ED
D4
5A
97
AA
56
74
AB
61
15
66
DA
1E
79
5A
CB
20
BE
1E
33
C4
E6
00
F7
59
CB
4F
4D
C4
A8
F4
AD
3F
29
73
4D
44
A6
AD
B6
7F
B4
2D
26
63
8C
73
3C
00
9D
51
5F
88
A7
F9
24
CB
94
1E
6E
8F
B0
88
15
17
9C
13
7F
63
BB
7A
BC
F0
AD
14
8D
A8
23
BE
68
2C
A3
57
0B
3C
F4
1A
93
B7
54
6B
D4
CE
7D
ED
D6
DA
DC
5A
CC
5B
7B
25
0A
AD
33
BB
D5
CB
14
2D
B4
89
05
35
6A
92
2F
A8
28
B6
DD
6F
F3
D5
1C
9E
D3
AA
CD
80
26
FB
9E
FF
0F
DC
76
D7
C3
F4
B5
03
C3
39
DE
CF
70
8E
E7
04
ED
7F
F2
DF
C1
D6
A1
61
A8
42
F0
81
F8
71
47
A8
BF
03
8A
69
BE
FF
A8
95
8B
3C
17
DF
61
AC
E2
22
B8
56
21
2F
43
25
B9
7D
47
5A
38
E2
B9
18
48
72
05
53
46
2D
0D
69
A2
B0
52
06
30
AB
73
FF
6B
9C
0A
CB
D5
3D
16
28
C1
44
62
85
20
FE
90
AE
A5
5E
E8
98
68
E7
77
6F
0C
3E
6D
FD
0F
AE
D5
69
1B
2F
2E
AC
2F
EA
A8
F2
1E
7D
D8
62
B9
60
5F
B4
18
45
52
11
80
4E
76
59
D6
C7
48
27
22
F6
E2
CB
2B
60
75
06
D4
3E
6F
DD
C5
4D
C8
3B
71
2A
32
8B
07
F5
D1
15
9B
29
13
13
5E
D2
32
17
7C
66
42
7F
49
70
53
AA
0F
37
AF
E9
60
65
38
8C
48
54
69
66
FC
D0
C9
F5
8A
8D
56
3B
A9
10
10
16
9A
96
7D
BF
34
0E
84
B5
AC
1D
46
3E
F4
DB
00
71
42
84
CA
0E
67
9A
4F
7C
FF
A9
01
2D
49
0B
71
3B
C6
7A
2C
49
C2
AB
06
CC
43
6F
8C
BE
BF
DD
07
86
17
00
B6
73
3A
4C
BB
69
16
84
F3
15
CF
38
86
9D
B8
D9
20
6C
59
8A
40
E1
77
FB
54
0B
1E
EF
79
B6
C6
84
F3
B6
EF
32
B7
54
96
FA
E4
39
EB
D0
D3
42
1D
B4
BC
B3
12
1B
5A
43
69
C7
91
8E
A8
F3
5E
7E
1F
A2
13
CE
2B
09
95
57
63
01
9F
E0
1C
E0
AB
8A
AE
A3
98
10
05
A3
36
BD
CB
83
35
E2
6D
96
DA
69
AE
A5
A7
0A
5F
BE
D5
19
57
D1
5C
2A
D3
32
D0
D9
E6
B6
BF
98
53
DE
6F
C1
FE
F9
47
81
48
11
7A
19
79
48
A0
7C
58
78
26
46
CC
C5
4C
0A
47
4C
17
1B
83
1B
0B
1F
2B
5C
5A
F9
00
0F
70
B8
24
19
9C
CF
D8
FD
9C
94
2D
D5
D6
71
6B
D6
E4
5B
AF
BB
C2
D4
8D
EE
90
F6
11
67
86
3F
FB
CE
31
72
1F
2E
0A
DF
C3
C2
99
9C
19
40
0E
A0
D3
45
E1
D3
43
47
00
81
12
77
BE
F5
AD
91
35
B0
DF
F7
BD
C9
4C
F3
7B
F2
50
C0
8C
98
68
3C
EA
69
53
05
C9
57
59
7C
49
1B
F8
6A
61
B9
C3
C0
EF
6C
E2
FA
F9
06
B0
01
CE
9F
DD
EB
DD
48
73
51
3E
6A
EA
A8
E6
69
A6
C0
10
73
03
DC
37
45
82
42
06
BA
5D
A9
BA
78
97
71
58
13
3B
89
90
21
B6
C1
70
47
5E
85
FF
BE
86
06
BE
A7
A9
B0
C1
7E
7B
A3
FA
85
17
10
BD
13
B8
CB
49
AB
7C
CC
72
76
3F
4C
B8
C7
9A
78
51
A1
C1
EA
38
21
6A
14
1B
BA
73
76
9D
7C
1E
50
94
60
65
77
98
C6
88
56
06
74
13
C3
1C
64
A5
E6
18
12
2D
18
E3
86
25
1A
AF
2D
38
F6
54
17
C8
74
41
D0
6E
91
3E
9A
74
B5
12
1A
15
B8
F4
F3
C9
EB
B1
99
6A
6A
92
1F
50
33
EE
02
5C
84
56
B4
94
C1
4B
29
8F
79
25
4B
68
6E
12
34
23
AC
88
D1
92
AD
32
77
64
10
1D
DB
7B
29
9D
8D
CD
FD
F9
72
94
E4
D8
4A
5C
35
CA
81
50
05
52
0E
72
69
4D
85
1C
03
6A
A4
0C
6D
55
2A
6D
E3
44
0C
85
BA
6B
62
25
F9
BE
E6
8A
19
56
0C
3C
3B
28
32
49
18
75
44
71
47
A3
4D
B8
19
D0
05
43
D1
48
99
31
43
25
2E
F7
B1
07
D8
FC
B0
B4
63
E5
9C
75
B1
8D
D4
E9
EB
11
73
CC
F8
2B
C1
6B
80
24
2D
D3
C5
92
40
0B
8E
1A
89
D6
F4
65
2E
70
55
A8
B0
68
3C
55
D4
D5
75
9F
15
45
86
2F
3A
DD
15
1F
02
19
56
D0
9E
08
91
2F
53
32
E8
55
42
84
9C
74
A5
22
74
64
E9
68
90
2C
F1
AD
6F
FC
94
C2
3B
DC
03
88
C4
EA
A5
A5
B9
35
BD
11
09
9E
C3
90
99
B6
56
C6
44
AB
71
1A
8C
B1
D9
BE
C4
38
49
9A
3B
29
C4
50
70
DD
BF
60
65
92
1B
DA
42
46
14
00
F1
74
E7
4C
D1
B3
2E
E2
A4
F2
4F
57
45
C4
B6
EF
D0
36
C3
12
45
BB
BE
3C
DC
54
28
9C
13
1C
E4
07
30
3A
C4
E4
AB
0F
DA
DF
6B
11
2D
BD
74
24
D0
66
FB
15
33
90
C2
7D
C3
13
38
81
92
97
46
DB
D8
A8
88
CA
39
44
71
13
2F
6B
2C
35
B4
B6
A4
40
CF
EA
E4
B9
3C
66
8A
B0
29
DB
18
40
AE
54
09
FF
3D
CD
81
06
35
37
16
82
2A
24
C9
EC
10
70
01
9F
5E
94
1F
67
9C
3F
6E
EC
50
00
96
44
9B
3E
69
17
FC
1B
55
DB
10
C1
6A
7E
F0
67
BF
56
DB
D3
C5
86
E1
46
AD
C4
AE
6B
E5
F8
DB
D3
77
9B
85
C6
01
11
90
EF
C0
15
D1
41
2E
16
04
9B
47
A3
76
BC
0D
6B
8C
E7
0A
28
D7
93
1F
54
E1
48
36
84
69
00
F6
AD
16
8E
A9
8D
F9
72
92
7C
1D
F9
4D
C3
1A
95
03
33
51
79
2F
EC
47
DB
4A
A5
D3
72
54
A9
6F
CA
85
ED
2D
73
37
8D
45
5C
52
5C
69
C2
93
83
DA
B1
B8
4B
B1
A3
64
06
21
D5
23
17
7F
36
75
D6
51
1F
7B
55
D2
5A
F3
7A
5A
25
71
06
09
6E
AF
B0
EC
66
CC
4A
E4
74
FC
EF
C5
84
B5
59
FF
03
99
7B
B9
EB
D2
20
E7
DE
D0
5C
D5
E1
69
5C
01
69
6E
E8
73
2C
ED
9A
52
D1
C8
E1
29
6A
23
45
A6
05
F2
8B
B0
1C
95
59
18
AA
D4
BC
62
A3
E2
B5
D2
C3
61
09
6D
9A
CC
ED
2F
60
D2
06
CF
B9
7E
04
C1
F7
FD
02
B6
2B
93
72
59
70
C4
33
A8
14
24
B8
70
41
51
00
CC
72
83
02
6D
1A
96
DB
01
88
B4
C8
AD
0C
55
84
A8
F7
A0
26
8D
2F
DD
1A
7A
4D
F4
DD
3F
7D
9F
D9
FD
C4
D6
9E
7D
8B
85
F3
91
A4
6E
47
B8
C7
00
48
65
57
D4
EA
B2
F7
80
45
98
CF
7E
A2
B3
0E
22
90
16
08
EA
07
BD
2B
02
25
F1
4F
75
F1
80
C2
FE
2F
7E
9F
FC
CD
C2
0B
7C
A7
62
FD
1F
9F
4D
0B
64
F6
AE
40
06
06
D7
77
D3
17
26
B2
76
83
99
E6
79
A0
82
6A
2E
9C
35
B2
AC
65
07
68
83
AB
CD
CC
B8
A9
FF
49
BA
A8
CD
96
A6
4C
5C
05
8A
2D
3E
D6
E9
48
B2
86
0F
4A
18
E5
62
7E
82
D0
F6
C9
FA
D7
12
F7
39
9B
B4
EF
E6
9A
91
07
05
C6
8C
9D
31
7D
5C
80
AF
2A
65
CE
F6
93
92
4E
B2
56
F8
F4
88
94
06
28
66
A1
CF
91
09
B8
44
15
FE
19
99
6F
6B
44
A5
0D
0F
BC
0C
D9
D1
DF
2D
0E
3A
EB
25
78
6F
84
81
9E
03
DF
30
FD
99
E1
38
92
98
47
DC
8C
FF
02
5E
E9
9C
A2
0C
18
4E
9F
CD
5A
40
A2
91
52
83
CA
CB
89
E9
9D
4C
AA
BB
52
F4
A6
11
41
7E
81
C2
79
15
83
21
07
46
AB
55
1C
FF
80
F5
26
F6
9B
34
C5
F3
CF
BA
D8
AC
20
CF
18
C4
82
E0
2B
36
7A
24
6F
D6
AD
28
84
13
1D
68
84
14
FE
29
29
C0
81
E1
2C
14
96
47
D9
FA
53
38
CC
12
77
2F
16
38
5F
FA
F8
E5
88
46
FA
CB
CB
6E
AA
51
A0
93
1B
99
E9
86
B0
E6
8E
05
85
F1
E3
2C
9B
3B
39
7F
D2
0D
89
17
08
1F
2B
9E
55
8B
18
57
1A
30
31
FD
77
C7
A3
61
A0
BF
8C
3D
2F
1B
0A
CB
1A
8B
7A
3E
0B
EB
CF
4A
20
B8
66
61
CF
46
04
54
BF
6B
BD
75
7E
C9
74
9D
C0
81
C6
14
8D
D7
88
D0
17
29
4C
0A
91
88
56
2B
46
E5
85
3A
C3
60
4D
FA
83
FE
0B
41
97
D1
CC
1C
8C
A4
5C
9F
2B
56
21
B5
B2
AA
63
8B
8E
1C
95
47
12
1E
06
54
01
85
40
83
56
7D
A9
DD
99
57
0B
37
A8
09
EF
21
2A
B0
07
1C
59
BA
ED
DB
A7
42
F0
75
12
B1
18
6F
14
8F
AD
35
29
56
B4
4E
7E
FD
B6
01
13
BC
E0
C6
DD
96
B9
6E
5C
70
89
BC
E3
F5
81
E5
96
A8
55
1D
9B
7D
53
E8
55
89
F3
09
14
2E
65
D0
19
47
7C
56
0E
3D
97
71
0A
84
91
B7
C8
BD
16
BD
76
45
25
3D
9C
A7
1B
15
43
F9
A8
9D
5C
7B
EE
87
C8
96
50
5F
31
4E
19
F5
C2
E4
19
30
3D
20
99
D3
14
FE
51
17
35
89
72
31
55
FB
8B
35
78
7C
4A
73
50
37
BF
8F
D2
6B
AD
D5
28
F0
E9
14
AD
03
8A
23
80
90
3E
92
4C
BF
92
51
FE
3E
27
9E
F9
34
5E
1A
A7
D0
D9
38
9D
2D
03
54
84
09
C7
B9
56
6D
A8
40
B4
B6
6E
2B
47
42
25
F0
E6
66
95
7B
BB
97
5C
C9
46
09
B3
7E
71
FC
AA
22
EE
06
EE
64
6F
CE
70
7D
EF
1B
27
CA
10
D8
3D
7F
A9
18
D7
D5
FC
A5
AA
2C
2D
8E
FB
87
CB
C3
EB
37
43
4C
EE
DF
0D
B3
FF
DF
CE
62
7F
E9
9E
EB
B5
17
35
DE
2D
04
34
B9
8D
FF
2C
77
EF
D8
9A
41
5A
D3
79
23
BC
7D
BF
3F
CE
02
F3
F0
24
BF
7D
42
50
BD
63
7F
9C
80
1B
0A
0E
B8
44
63
3F
B6
7E
9E
F4
36
5C
F9
C1
82
D5
81
9A
5D
CF
EC
0D
1E
86
85
2E
E6
FD
65
22
E6
BA
BC
41
0A
91
B5
92
58
A3
69
9F
91
C5
CC
59
51
F0
A4
C7
BE
C1
49
59
AE
15
C8
4A
00
82
09
05
DB
9B
69
CC
C5
0B
CA
F8
88
79
C4
7E
DD
B0
12
1B
3E
E5
F8
BC
AA
17
3C
66
6B
3F
4D
17
28
8E
AD
1E
01
8A
85
5A
0E
F4
21
00
5D
1C
53
97
9A
94
75
3B
5A
0C
C1
9F
16
44
33
85
17
B5
4F
0D
38
93
71
FF
11
C4
8C
50
C9
D1
B8
35
38
B4
8C
D4
F3
C9
3D
07
4B
A4
3A
D0
AA
0B
A4
96
36
4D
2D
23
16
C8
27
E1
A6
D9
39
D3
95
B0
0F
B5
E4
EE
78
9E
1A
BB
A8
ED
8E
C3
49
24
31
D6
12
D7
FC
2F
52
1D
44
47
41
5F
FC
E3
2F
5A
59
35
EA
7E
7E
B7
4B
A6
47
7B
B7
C2
F8
C6
42
DA
8D
E5
3C
28
D9
69
E8
8D
E1
BA
56
E7
55
D2
02
DB
8F
1B
0E
19
DA
AC
98
53
B1
2D
DA
B8
05
D8
9E
25
A4
C0
86
70
0E
98
FF
F1
AB
F5
8E
53
01
F9
AD
BA
14
C4
E3
2C
64
3D
B4
2A
1E
AE
D9
3F
24
62
14
A6
D8
35
BA
EA
AE
70
DF
A2
73
9F
3C
0E
6E
54
78
72
A5
CB
2F
13
F5
84
14
50
98
28
3C
F8
0C
81
01
09
D3
FB
C1
41
75
50
63
E1
2E
B1
5E
41
0B
DE
5C
4E
D9
3C
AE
FC
C6
01
C4
03
98
77
58
5D
30
A3
B0
EF
30
45
BB
93
ED
50
AD
18
04
8E
81
27
95
5E
51
3D
15
79
65
7F
EB
B5
14
86
42
CB
9E
34
94
C3
B3
74
DA
87
9B
59
BA
92
37
D5
40
6D
AA
E5
F7
71
39
12
81
F4
05
6A
A8
36
04
06
32
A2
89
1B
D6
73
8F
B3
E4
A9
24
97
BD
28
B7
D8
88
7C
2F
51
A4
52
76
23
18
FD
EF
9F
CC
DB
F4
3B
08
C9
71
EA
53
47
A4
03
35
4F
F7
B8
A8
A9
CC
B8
BB
DE
84
08
8E
B3
66
66
E1
65
00
BA
BD
8F
19
83
31
A1
74
FE
55
FE
5F
7C
59
55
A1
11
69
F2
2A
7D
03
76
11
71
7E
38
90
E5
38
A7
14
11
10
2F
40
B9
70
9E
3B
73
C9
86
4E
81
5E
58
BF
65
2C
D7
B9
93
39
25
4B
E4
78
8A
E7
88
FB
53
B5
52
1C
42
1E
8A
A4
E1
7A
B8
9D
32
D1
51
06
DD
FD
18
A2
64
6D
D1
48
ED
5B
8D
65
5D
7D
07
F2
00
01
A8
01
23
88
69
1E
91
1F
E7
92
9F
22
85
1D
62
AC
83
C6
4A
4A
18
52
88
27
71
B2
82
D3
FC
56
28
A9
F4
BB
AF
99
D1
D0
49
6D
0A
9A
D0
13
27
5F
A9
4B
CC
78
31
42
01
10
1A
AD
B9
50
7A
65
41
F5
C2
50
4D
54
0E
0D
E3
31
63
09
ED
61
38
93
95
73
B9
59
9E
CB
37
61
78
88
C9
C9
02
27
59
5D
88
13
8D
44
F7
7E
24
A7
66
44
2C
60
D5
1F
42
91
81
50
D1
50
F7
C7
DE
8B
B2
03
E9
A1
29
1C
69
F2
C7
85
0A
7A
C7
CE
1C
7D
34
C1
C1
5B
3E
F5
9E
A0
67
D4
7F
10
AA
07
D7
86
3D
36
FE
F0
08
7C
A4
DE
61
47
96
88
B2
83
8E
5C
81
FD
A1
CE
B9
9B
51
74
7D
0D
07
86
7D
6F
6E
A2
45
AE
DF
26
09
D2
9B
B4
E4
CD
74
62
C3
EC
AA
A0
90
0B
34
50
C2
95
07
FC
50
CA
6A
CC
88
B3
DB
D9
1B
12
F5
8C
C5
A9
7B
D5
67
8D
B7
AD
F6
3A
B5
70
94
5B
B6
55
FD
23
E1
04
43
6E
0B
4F
28
7D
14
23
51
A4
5C
9F
4B
56
C2
A6
39
8C
D3
08
DE
62
26
FF
42
1B
B7
3A
70
E5
27
00
88
98
50
B5
A7
26
AD
7C
41
A2
9D
FC
AF
38
A0
EA
48
92
6C
2F
CA
01
78
2C
EE
AD
EC
91
47
54
EF
05
9A
AA
74
56
BA
28
6B
E8
57
CF
09
6F
FA
C0
3B
7D
68
40
1A
A2
04
04
93
33
E0
0F
E4
DB
11
68
C3
AC
68
DA
FF
FC
56
95
8D
CC
01
53
F6
A2
9F
93
61
C3
68
50
0C
58
DE
41
02
33
14
CD
2B
DA
87
33
E6
D8
DF
15
53
A3
D6
34
2E
76
CE
B7
47
4F
A5
31
46
7F
5E
7B
F9
E5
9B
E4
6D
C3
20
62
2D
79
B9
11
56
B5
78
88
29
F0
0C
4C
6E
16
AC
57
82
61
84
CC
A8
3F
FC
6B
81
3F
90
0C
9B
78
DB
F6
C4
43
0A
19
A2
1F
2C
AD
F5
45
B8
4D
48
6A
63
C0
91
F1
C6
41
60
46
66
66
58
EE
5E
28
2C
97
27
FE
B2
44
C3
BC
F2
04
97
13
E5
15
36
5E
F7
F8
7F
3F
E1
60
5C
23
DC
C7
60
58
87
F0
42
FF
19
67
A2
DC
C2
97
29
29
5A
0C
F7
E5
0E
C3
12
09
45
97
33
CF
D2
DD
84
BE
B9
BE
A9
18
4B
46
7D
C4
CA
18
50
A5
A0
12
29
39
B1
DB
01
60
2D
FD
5A
A6
48
21
43
A2
2A
8C
E6
1E
B7
EC
9B
EE
1B
9D
08
33
5E
4F
D7
BF
3A
F1
C4
18
D6
8F
FB
62
74
DC
9B
EE
2B
A9
1B
AD
03
63
7E
7F
C0
AB
8E
03
FA
DD
2A
3B
5F
D5
F1
63
1D
3F
1D
EE
D2
FB
67
3B
9A
AD
C6
3E
B4
95
42
E2
8F
17
10
44
F1
43
6A
E9
2B
E1
71
B8
D4
1A
6B
DE
60
30
2D
3A
1B
DC
BE
62
71
81
30
0E
DA
74
93
91
3D
BF
99
3A
C9
E2
3E
2C
49
32
2D
F0
D1
0D
73
4D
1B
A0
A7
FF
C4
23
77
D6
43
7B
04
15
23
9F
3D
2D
B8
BE
86
B1
09
B9
1C
88
55
4E
75
4F
3A
CC
03
B9
91
5E
B5
F0
C7
9C
34
33
8F
0B
98
53
5C
03
82
44
CA
06
74
B9
86
57
A5
30
AB
D5
4C
36
D8
8F
FC
85
F6
CE
79
7A
2F
BA
24
35
E0
16
B7
48
3D
90
73
E5
F9
5A
FA
F5
98
23
40
79
A9
B4
2B
20
42
B3
4B
BA
9E
85
05
78
E9
B2
E7
42
22
6B
41
D6
32
12
CC
F7
95
ED
36
53
25
A2
91
2B
FD
9C
24
62
F1
00
A4
C3
3B
9B
C2
F8
3D
99
A2
D3
AA
B3
E3
52
1D
C2
C9
7B
85
6D
52
81
34
12
BB
77
FE
43
19
9E
A6
AA
11
8E
EC
82
0C
C2
84
24
39
41
AE
6D
B4
77
32
DB
74
E2
FE
34
59
78
94
C8
3E
67
65
3C
A8
B9
9C
69
FD
B1
8A
CC
15
A3
69
68
A4
61
DF
0D
36
24
FD
98
92
3A
E1
AB
0D
0D
FC
34
56
10
03
AB
8E
DD
CE
C7
0F
84
21
96
75
FC
33
75
D0
20
67
7A
26
AA
F3
25
C2
81
AC
19
56
33
B7
54
AD
CB
C1
00
4A
4C
34
36
DB
D3
23
0C
65
43
C6
FC
81
1A
EE
C8
1C
86
1C
20
34
9B
A3
D3
1A
61
CA
CD
50
67
01
E8
C4
71
4C
89
A0
44
55
06
E4
8E
F6
F3
EC
D1
98
51
D9
E2
AD
12
F7
63
B2
E2
C6
66
06
80
31
3A
E5
0B
9D
F6
A1
41
86
5E
DD
50
15
67
CA
70
9C
F1
FA
C7
95
B8
AC
AF
C9
09
C4
37
75
CD
98
98
01
F7
90
5D
BC
26
3C
5C
B2
B1
41
83
B4
18
B2
96
99
EB
F2
EA
E4
CF
DF
45
FC
50
85
67
47
6E
A8
01
C2
2C
07
D4
CD
20
A9
48
6C
BE
88
62
F6
8A
FF
1B
C4
7E
C0
C7
8D
E8
23
B8
29
C5
B4
31
A7
FB
65
71
55
64
11
73
8E
73
92
E1
7A
0C
EF
8B
F5
CC
16
84
10
E7
40
75
B7
27
19
CC
D1
41
D7
C3
53
53
45
0F
2B
D9
00
51
7F
EC
DA
AE
06
36
DD
C7
09
EE
94
7A
F6
CE
9A
C6
11
91
79
BF
8A
AA
0B
0F
E6
07
7D
E8
64
ED
6F
F1
24
31
33
D3
2A
4A
D5
1F
EB
EC
69
6E
73
63
7A
18
A7
A6
FA
BC
02
DD
77
BE
17
15
B6
C6
F4
C3
5D
77
E6
BF
2B
D3
CE
D7
C6
40
D6
2E
DE
6F
7D
F0
7B
B1
C5
8B
13
7A
9A
53
87
1B
36
B9
1F
AE
C2
0E
C3
31
00
01
F4
D0
4F
6E
92
78
F8
BD
F8
02
2F
87
DF
E6
FB
C7
07
1C
A2
25
0E
79
CE
84
47
69
B0
E8
F4
AC
9B
FA
A4
41
9C
C1
57
DF
5A
01
59
14
E9
15
FA
B5
E0
AF
0A
C8
6E
56
B6
18
7D
65
8D
63
09
E6
97
AA
26
AD
30
C5
1A
D3
FE
DB
7A
32
87
8E
47
07
12
1F
40
38
A5
12
17
B0
54
AD
95
02
24
F6
DF
83
A2
26
FE
6A
70
4E
11
1F
A1
60
02
C4
19
51
D8
71
71
02
29
D4
0D
98
D4
1A
DF
01
84
11
8C
74
6B
73
E1
4E
D6
68
30
30
E8
2D
C1
E3
8F
18
BE
4B
FE
86
17
A7
A3
3B
82
E5
E7
4E
C0
1C
8D
D9
EE
AB
82
47
66
8E
98
17
0B
9E
70
16
96
83
DC
69
D1
AB
AC
25
31
EE
94
8E
CC
F4
1F
A8
77
7D
0A
8C
56
1C
6E
F9
57
EF
A8
6C
82
C8
65
7B
F9
70
86
2F
20
7C
92
BE
5D
BB
FA
66
BE
8C
CB
8B
7A
74
E0
1F
05
90
DF
4C
47
0A
CB
37
FB
B5
17
AC
97
1C
87
2F
A9
AF
6F
BB
41
7B
C7
D6
67
65
99
97
73
2F
24
C7
9F
16
E6
DD
82
28
4B
77
11
D7
CC
2A
17
A2
8A
3A
A2
F4
91
34
5A
87
82
F6
F7
85
06
D3
A8
05
CE
43
13
9E
3B
8B
1B
8C
13
AB
2C
40
55
8F
3F
50
DF
AC
3D
C3
FA
60
C6
47
7C
7B
10
52
85
BD
3E
C6
71
37
94
37
E1
7B
0D
E7
23
A8
8B
46
70
A2
F1
5E
27
70
38
17
46
E9
A4
21
64
AC
5F
CD
0D
D8
17
38
6E
FD
DD
F1
A9
86
23
A3
C0
7A
39
32
21
6B
F3
78
A8
4A
C5
AA
AB
5D
74
D5
0E
41
91
D0
19
40
A4
41
5C
55
1E
9C
1E
57
A0
92
32
95
79
FD
90
48
60
05
8F
29
F3
F2
AD
B0
B0
66
79
46
EC
BC
B9
28
57
25
6C
A6
83
94
39
C5
D3
5F
A6
C1
82
03
14
5B
94
0F
12
94
1E
50
A1
CB
44
E9
54
AF
E9
3E
62
2A
FA
C2
30
EB
08
D6
C6
01
30
C2
C5
8D
7B
23
27
CC
2D
7D
AD
05
7C
B7
16
43
5C
27
42
94
D2
71
A3
24
89
23
62
77
B6
D7
58
DF
DC
A9
C2
20
CD
24
28
AF
95
61
AA
E0
1C
03
E1
1C
1C
D6
60
1D
26
E6
22
D4
2A
4B
AE
EC
9A
14
22
49
D1
08
A5
C7
0D
6B
B1
47
19
9A
F1
D0
F9
51
00
62
E7
0C
8C
DF
F2
E2
0C
4C
0C
DA
F5
5D
BD
0A
13
B8
B5
54
78
5A
81
D4
A9
BC
F5
3D
CD
62
7C
51
20
EE
7A
3D
42
09
A1
5A
B6
0A
7D
8B
DE
5C
CE
09
3F
18
05
91
30
16
7A
C1
D4
CD
F5
B0
93
25
6E
51
0F
9C
96
0B
C6
F8
2F
E9
93
55
E7
26
2A
74
F0
A3
ED
27
2D
4F
44
F6
BB
D2
D8
2C
EE
B4
F2
E0
A9
E1
FF
E1
5E
2A
74
AC
87
0A
D3
60
49
71
71
0F
A5
80
2B
36
FF
D0
CB
0B
FE
EA
A6
BF
7A
D4
6E
8C
97
AF
62
05
4F
EF
97
18
F1
D0
F7
AC
2A
80
AE
A2
C8
6E
58
57
B4
81
AD
8C
9E
3C
B8
26
73
6E
1F
4E
2F
9B
3C
08
04
54
23
2E
01
43
FA
7D
66
A3
A5
82
39
00
6C
A0
3E
97
43
E1
59
4E
8C
2A
67
A5
94
BC
1E
58
66
50
27
51
41
90
98
C0
E4
7D
72
D6
2B
14
D2
22
B3
FD
D0
FD
D7
AB
62
59
6C
9F
E3
13
1C
FF
D8
F5
66
2D
16
A6
88
D7
6E
B4
69
DA
D1
FB
54
49
7F
EE
5C
47
43
30
A1
42
B7
A9
A8
B0
55
18
32
BB
9E
03
2E
72
8A
1C
60
CC
67
45
8E
9D
A0
B6
30
7F
C9
1F
C3
FA
7C
2F
22
06
23
8B
3B
1C
6E
C6
F3
9C
68
9C
DC
53
AF
DD
79
8A
13
A4
B5
3B
E1
AC
C4
E4
A9
72
FD
7A
46
64
CC
0E
D2
4B
7D
FA
17
DD
73
EE
27
33
1D
1F
E1
8E
EA
8D
58
C6
AF
74
E6
8F
62
CC
16
BB
BF
AD
57
A5
5A
AC
B1
67
09
5F
7E
AB
C1
4A
73
95
8C
AB
36
5E
AA
0C
C7
65
1D
B2
0A
0B
9F
3A
7A
D1
58
A4
17
03
E6
FA
78
00
6B
A3
74
0B
DB
FF
42
C1
29
57
BE
02
FF
AF
97
A4
33
DD
9C
73
1D
BE
2A
78
95
ED
E3
27
04
DC
B7
AF
F1
E2
E6
69
CD
F0
63
56
59
5A
54
A7
F2
3E
35
2F
47
C7
21
25
73
70
5A
07
64
48
7F
7D
30
7D
5A
A5
21
5B
58
58
30
55
F5
E1
69
68
28
C5
60
D3
13
70
52
D3
E5
C7
ED
72
67
B0
15
11
D5
9C
7D
6D
0E
E6
DD
68
59
FC
C8
D2
97
9D
1D
78
91
11
8B
48
37
DE
2B
35
A6
85
D7
21
99
38
C5
86
9E
56
0F
91
55
0B
C5
F1
A3
A4
26
DE
C3
55
D0
FA
20
C8
91
D8
6D
2B
73
9D
1F
9B
67
29
30
25
5F
CF
73
50
BE
F8
77
0D
54
DB
DF
9D
57
5F
B9
68
9D
C3
53
B4
EC
6D
1A
6E
E7
D3
B6
B9
27
EC
F8
D8
EF
76
99
EF
4D
D0
64
22
AB
8F
5F
6B
60
CD
75
81
71
63
2B
DC
DA
3A
B2
2C
38
68
7B
F1
5E
54
EB
0A
9C
DC
C2
0A
E9
03
DA
4B
D8
AA
2F
10
44
D9
43
51
6C
BC
78
75
01
98
35
EA
98
02
C0
6D
90
60
05
47
A6
77
48
E1
40
01
AC
86
9B
1F
AF
39
3E
2E
90
CC
CB
71
E8
D9
96
96
17
66
28
85
C7
88
A7
41
5E
74
AD
08
5A
5E
37
C5
9B
00
2E
56
01
FB
51
48
52
A1
32
93
E9
B1
11
57
54
B7
39
70
AD
DA
B8
51
56
03
C4
A2
01
F3
DA
74
54
78
04
A8
24
FB
37
21
60
7B
C3
85
13
F2
E8
99
92
7F
E4
D0
AC
63
F0
AD
83
38
F5
84
4B
C9
E0
9E
5F
68
4C
2A
97
7E
92
40
05
3A
D5
B3
0E
E3
7D
E4
77
A0
C6
9F
16
CF
24
36
97
B6
9D
5A
1A
AA
2D
2C
75
03
CD
FE
D7
21
0E
37
CA
F2
34
D6
A1
A3
86
60
0B
8F
D4
C4
6B
81
32
A3
01
EA
C7
FF
15
5C
81
94
EC
02
F1
12
36
D3
14
82
1F
DA
26
22
C4
00
A9
B1
F1
54
E1
78
94
4B
2C
5A
78
54
59
64
A1
DF
34
0B
C3
67
E6
C7
EF
4F
5F
BA
8F
13
23
6A
21
CD
BB
38
B4
AA
67
EE
FD
58
F7
F9
5E
4B
F8
47
43
23
AF
A4
8C
96
82
5D
32
B4
A7
86
B3
C2
92
2E
4D
5D
A4
E8
D4
BD
6C
3C
ED
A5
D5
1C
FD
44
24
D7
2E
E3
B9
4C
F8
C0
C4
2D
5F
D7
EB
87
DC
6E
74
B0
0A
9F
22
C0
87
F2
78
1E
F9
F8
E7
FF
96
3C
69
AF
24
E3
3E
77
2A
E9
E9
DA
9B
89
CB
12
66
CE
F2
7E
F0
29
AD
06
87
77
C1
53
4C
C2
DE
24
6F
2C
10
DD
AD
87
94
4C
C0
1A
44
F6
BF
6A
C6
32
7E
23
5C
C2
63
4D
A9
DB
81
E0
C7
1F
07
55
1C
19
4F
F0
A9
00
25
54
94
76
82
61
FF
E5
61
13
51
AF
2D
69
DD
FD
44
B5
C1
BC
85
51
49
A4
15
6D
DE
A1
AA
D0
7C
85
76
04
F0
3C
74
0C
03
C0
A4
5C
E2
84
98
00
39
D1
8A
BB
F0
11
4A
58
1C
42
CF
AE
D6
A8
C5
21
23
D5
6A
7F
86
E3
57
45
B9
4F
27
00
73
F2
C6
1E
98
D4
34
1F
44
CB
0E
64
5A
1C
76
B0
63
B8
3B
01
4F
47
5A
C6
64
D2
50
AF
67
22
0B
FC
B9
D5
27
58
98
F9
13
1C
CA
7C
31
F4
A2
9D
CB
63
C2
ED
0E
24
85
A8
2C
66
D7
5E
CE
58
E9
64
FC
72
16
C8
8D
82
35
32
41
66
C1
8B
6F
E3
25
CF
D6
00
44
65
08
08
94
C1
60
81
FA
E6
C4
DC
00
91
36
86
01
FD
60
C1
C7
80
F0
93
1A
DD
C4
C5
E9
3E
7D
88
43
A9
3E
34
A5
42
B1
77
A4
B5
BB
B9
44
10
81
DE
4E
86
CB
73
F3
CC
2C
90
EF
E9
C3
FE
45
28
0A
1A
CF
40
BD
F9
48
4A
FB
D6
00
24
23
DD
95
73
4D
44
E0
D2
D2
8C
80
07
F6
03
7E
A9
73
5A
81
B7
12
43
A1
30
B3
9A
4A
9F
B1
63
6E
F1
92
71
5A
63
6F
BF
C2
8B
1B
43
9B
85
C5
37
4A
38
98
0B
F1
1D
A5
2E
58
4C
A5
29
4D
9E
12
86
9B
14
D2
85
BA
7B
D0
D7
E6
12
E2
F3
9D
EA
77
EF
0C
9B
26
3C
EB
C4
B1
99
CE
C5
15
09
D1
7A
D4
07
18
A0
80
D5
45
33
81
F6
85
5D
77
FA
89
2C
F6
85
BA
96
1B
9A
6C
A7
17
B4
B7
8D
16
DF
4B
6D
2F
96
A5
74
FF
48
30
60
77
60
EB
9A
EB
CE
32
19
94
59
37
61
D2
3C
FD
A2
BB
A7
AB
D1
A6
0F
94
2A
7B
9F
79
36
64
5C
01
75
46
8E
04
63
D0
14
40
58
EE
C7
F2
7E
C1
FE
A0
FA
89
C5
2C
7D
73
33
F3
6A
1E
0F
6F
E1
35
37
1F
48
89
92
AA
9C
81
EC
63
B5
A9
5B
01
73
4A
66
D4
DB
38
51
A9
C2
FA
78
A4
C8
6E
E8
ED
15
CF
67
AF
45
FF
CF
78
8C
C6
5E
14
08
07
8F
39
78
28
B2
F8
7C
E9
A9
3B
EB
BC
94
8F
E6
06
FC
B0
5F
E5
13
B7
CC
D5
C5
66
12
74
FD
79
06
4C
AF
89
B7
F6
D0
FF
ED
61
AE
31
11
D0
ED
09
C0
ED
EA
40
AA
7F
E1
5D
89
40
C4
6B
74
40
E8
51
3C
2D
68
A3
7B
1A
16
F2
B6
E0
E0
B2
BA
B3
10
C5
23
B5
DB
93
70
F4
56
C9
8B
5C
95
0F
CF
D5
A0
EE
CC
EB
E4
3F
B2
2F
D6
7E
BF
AD
A8
1B
A2
B5
C8
87
4F
23
37
2E
94
6D
D0
06
D2
83
63
96
73
65
ED
2A
F5
43
D4
86
BF
B3
DD
81
F7
CA
B6
CD
8F
DF
A9
3C
6C
C3
63
21
63
D9
88
1C
F1
F8
06
A9
DE
50
05
4F
99
96
88
C0
DF
E1
D8
9A
59
6D
98
CA
52
3A
38
46
3C
D2
5D
83
1F
EB
B8
62
4C
94
AA
5E
7B
00
40
17
AC
F6
92
13
F7
7F
A8
81
31
6F
2D
2B
BD
BF
8F
D7
C9
67
DA
3B
96
88
18
F3
E4
FA
6F
95
B1
EB
5A
81
EF
30
F8
46
5E
CE
39
96
ED
1D
C6
0D
DF
19
B1
15
88
AF
5D
E4
9F
69
AB
8F
23
3A
F0
3C
93
CC
ED
3A
57
53
37
E4
32
BF
6C
BB
F6
32
2D
0D
84
8A
93
90
9F
7A
BD
9A
0B
74
0D
1B
AA
F0
D5
3B
2A
7D
0E
2F
67
2E
DD
C4
18
B7
E2
A8
3E
BA
7E
33
98
B1
55
98
4A
B6
6E
C3
DD
6A
86
8B
C6
A0
06
4C
4B
16
12
54
2A
F8
49
A3
3E
84
E1
AE
1C
56
1B
1E
26
F4
BB
4B
3D
69
0E
E9
FD
7D
02
68
10
7A
FD
A8
76
31
D6
16
2F
06
54
13
78
5D
33
A0
0B
CC
92
AB
27
B3
51
34
E9
75
E0
DC
2A
B4
40
F4
40
8B
B8
66
70
14
81
34
26
6D
91
B5
B9
22
33
A1
0A
56
22
11
95
1E
87
78
F9
63
49
3E
73
D6
A9
AF
B3
2D
EE
7C
3B
F8
1E
2C
73
27
48
0E
5A
9D
FC
1F
1B
7B
13
B9
7D
46
7F
F4
BC
24
52
89
AD
9D
03
DE
2A
5C
9B
FB
70
8E
DA
E4
1A
BA
5E
D6
07
16
68
81
CD
FA
5C
BE
EB
D1
4D
7B
0D
FC
9D
69
EE
4F
3D
C8
A6
75
67
CD
61
0D
0D
E8
96
40
12
B1
63
12
C1
12
EB
6F
A5
5F
67
16
9C
EF
D0
2C
8F
CA
35
29
68
33
6C
75
4D
E3
6B
6D
7E
4E
03
B6
CC
C1
CB
70
A9
E1
B3
8A
B8
6E
CB
EE
63
29
3C
A6
D2
0B
58
A7
43
6F
0E
E3
51
FB
FC
FB
24
EE
51
CF
33
98
2B
76
2C
45
B7
8C
4D
42
8F
20
A4
3C
A8
6A
34
AE
E9
0F
2A
6B
14
73
6F
60
30
F1
D7
79
EB
D6
E3
2A
37
37
BF
D9
B0
EB
B8
F9
7D
4E
D0
0C
99
CD
13
48
8D
E8
46
A8
22
68
D3
E7
52
CE
7A
14
19
EC
DA
39
12
31
4A
CE
FC
25
4D
BF
4A
99
ED
9B
0D
61
A3
A2
8B
61
03
66
E8
44
60
0B
CD
C0
0E
86
D4
02
4F
7E
30
4B
FC
90
EC
BE
07
DF
2A
78
7B
1B
B7
E7
7F
34
98
BE
00
6E
28
B8
CE
A2
5B
41
C8
01
8B
C5
93
D3
AB
9D
55
1F
A5
80
22
1A
A6
CE
6A
E9
A0
7D
BA
B8
3A
BB
BB
4F
9B
1B
72
18
6A
FB
4B
F0
BB
E5
FA
EB
85
6C
E8
3E
CA
97
24
1F
0F
E2
4A
9C
AB
B4
CD
F8
78
52
13
01
32
9C
D6
20
E2
4A
26
E3
CC
FF
8E
78
76
30
79
9A
B7
92
91
2E
DB
40
47
EA
89
B3
C3
9F
0B
44
21
CD
36
80
C9
31
BF
69
8D
CC
6D
AC
0A
E1
A1
DB
A0
0B
2A
2F
16
8C
66
2E
25
A9
B9
2D
10
AA
7E
DC
F7
0A
8B
E7
89
DF
8C
94
49
57
92
89
EA
57
B3
55
59
D0
9A
F5
F0
68
66
E1
F5
B1
14
BA
6D
E8
74
1A
7A
8B
7C
46
72
B3
E4
97
72
E4
FA
85
F5
7F
65
EB
34
9B
DF
E2
B3
4C
5C
FF
C5
07
9B
56
FA
74
E7
27
A9
99
90
10
BB
CE
26
F5
BB
64
38
3C
3F
9F
25
FD
3C
7E
9B
84
54
B3
FA
4D
6D
9D
7E
C0
4E
4D
A4
03
64
16
F5
53
43
2E
80
EB
0C
94
46
18
56
4E
FA
FE
54
63
D9
5D
DC
46
2A
62
B6
80
1B
70
B8
7E
59
23
8D
A3
AB
DE
BB
FF
60
A3
82
B2
B0
0E
8B
6D
AC
00
55
10
1E
53
3A
87
BC
6C
45
CC
3D
09
89
7E
80
C5
39
D1
00
3A
DE
30
41
8C
49
16
D0
9D
1B
07
F4
D2
31
08
B9
CD
66
C8
D0
BA
4E
D6
70
9C
16
45
A2
80
C4
5D
14
8C
3D
A8
B1
E6
F2
63
B6
3D
DF
36
AD
45
23
6A
41
38
AF
32
44
A3
3E
BF
F2
A8
42
E0
7F
0E
E0
C2
81
4A
83
A3
6E
3E
66
5E
32
19
D5
B3
CD
C6
91
49
DA
6D
AD
C4
B9
B3
D3
8E
45
1E
08
CC
49
D3
DB
67
0D
2A
CC
77
1E
FB
6D
0C
15
4C
4F
42
BB
DD
3C
C2
44
08
61
5B
7C
FB
91
BF
64
EF
5A
A1
5E
4D
83
DD
E4
27
2B
ED
71
C2
3E
96
68
0E
0D
FB
BA
60
20
B5
ED
93
37
9D
53
63
83
3D
BE
5B
47
69
FC
5D
59
E6
72
7F
A7
0C
1C
B9
E6
94
FF
49
8A
E4
F2
94
19
9D
E6
24
88
0F
D3
20
F0
50
E0
03
47
84
F7
D2
2F
DD
8F
0C
67
AC
3D
FD
89
FB
27
FD
A2
C2
20
6B
B1
83
06
C0
54
88
B2
F1
50
A4
28
15
F2
0B
CB
C1
9F
E2
B9
46
9C
60
A7
BC
A6
A3
38
A1
0F
45
B8
32
11
CD
A5
F9
E3
C4
40
A9
F8
60
7D
70
10
BE
7F
CF
90
3D
BF
46
78
29
BF
6C
83
8E
38
D8
EC
EC
3C
1C
52
A6
03
8D
A3
FA
8B
60
53
03
B0
ED
8A
85
A8
10
78
61
35
6D
51
CE
E6
63
AE
D1
D2
10
F8
95
A4
1A
7A
6E
FC
70
67
DD
19
E7
AC
A2
C2
E0
11
B5
E6
F2
64
3F
2C
77
78
97
44
59
88
47
F7
9A
64
83
F0
2E
44
F4
AF
8B
B8
94
4B
10
41
A7
AD
95
C2
F0
B3
29
7E
AF
CF
0E
2E
23
2A
70
5E
63
8E
93
B6
DA
73
D3
1D
F8
EF
2E
9E
04
2E
FC
2B
A7
AB
AC
70
EA
29
AE
C2
28
F7
B7
F7
0D
BF
C9
17
5C
63
71
6A
4A
E9
55
50
43
F0
F1
AF
18
D7
F7
FE
39
BD
BE
3F
14
1E
9F
59
F2
4C
D6
46
D7
2C
60
F3
BF
14
8B
6E
AE
BD
03
13
E0
A8
90
7F
2B
EF
FC
AA
4F
89
C7
56
C5
39
FA
67
FA
2C
DF
CC
EF
03
4A
8E
A0
82
76
2C
24
91
F2
3B
2C
E0
B5
B9
AB
47
7F
37
75
E1
12
E7
AB
10
AA
74
5D
6D
52
D3
81
10
48
A8
05
C3
68
11
71
70
70
1F
CC
EB
4B
4E
A4
0A
58
C7
D4
30
F2
7B
1B
BE
A5
F8
E7
9E
7B
49
B2
6E
2E
F9
44
4E
98
89
38
56
47
C9
73
00
B5
30
92
AE
6A
5D
40
4C
13
7D
9C
97
D0
E9
A7
D0
EF
9B
02
5D
D4
A6
D2
6D
0A
DF
91
8B
9A
70
FC
9F
0A
E6
1A
C1
D6
17
F8
75
8B
6B
FA
49
21
94
97
54
04
EF
7E
2C
60
99
15
0E
F1
0C
A9
65
98
89
AF
42
F2
FF
B6
41
62
EB
44
32
72
B5
D2
70
2C
43
99
0E
A9
9E
D8
79
3E
B1
26
29
20
C3
D8
30
6F
DB
C3
0A
D1
8F
50
59
46
4E
52
A6
3B
43
09
0C
DD
3C
F4
24
C6
FB
69
D3
09
1C
12
B4
A1
BB
E6
0C
CD
E1
06
56
F1
7F
6F
E8
EC
1B
0A
A1
01
FF
06
31
CD
77
62
E0
2F
79
51
4F
35
E4
6E
6B
A6
29
ED
D2
A0
7A
8F
F2
59
99
A9
2E
EA
2B
93
AB
C7
0F
C3
1D
13
D7
49
DE
91
68
03
FA
33
9D
5D
9E
17
56
49
2A
02
89
BE
39
B7
45
10
5B
77
5B
B3
08
22
93
6D
99
14
E9
C4
72
78
BD
47
8F
B5
94
B6
7C
EE
C6
59
B7
FF
13
E1
EB
4D
3D
30
A9
22
6B
63
46
E4
77
F7
8C
D1
2B
08
F4
0E
4D
08
24
AB
25
2C
15
C3
2D
8A
8E
24
44
25
0B
72
3F
88
75
7E
11
A4
FE
7D
7D
73
29
BE
B4
25
B8
E3
F8
F0
94
63
C4
C2
2F
80
37
D9
58
6A
39
55
D6
78
0F
A8
AE
00
CF
1A
AA
47
9D
1A
FF
A0
7B
81
EF
C6
82
0A
34
F0
85
F5
D8
45
DA
21
3D
ED
0C
10
29
52
7F
2F
36
81
06
91
2E
22
4F
8C
98
F5
32
AA
0A
E8
77
B1
61
68
CD
B1
02
F0
94
93
CA
65
C4
1B
64
32
A4
EB
EB
89
41
70
91
42
5A
63
8D
82
BB
94
CA
60
53
E0
BB
F1
F6
AF
20
E8
07
63
55
BB
B9
59
9C
29
24
DF
93
BE
36
19
F6
45
6C
3A
FB
58
E7
A8
B3
25
BE
3D
27
81
AC
E3
3E
50
30
8B
72
03
B2
57
1B
3C
1B
13
F0
C9
CC
C3
23
ED
AA
15
32
98
E4
9B
FB
52
CE
96
A8
EB
AC
F3
0F
A0
1F
C9
E2
2E
06
D1
CD
62
F3
BC
66
0D
DF
59
68
06
4C
18
03
4C
8A
D0
4D
3D
DB
C7
12
16
2D
6D
F4
12
36
8F
C8
47
3C
30
0E
20
EE
3A
48
96
55
FC
9C
8F
AD
84
C4
4E
77
89
43
54
9F
B6
F9
B1
F5
D3
D8
5D
09
2E
DF
0D
B1
42
0F
91
6A
4D
F5
D6
11
5D
00
D4
CE
E7
50
4E
99
9D
06
12
D3
7B
78
0B
19
93
DF
C2
A4
93
5D
C0
3D
DC
4B
80
C0
48
44
3B
0F
ED
41
3D
48
10
E2
3A
4B
94
EE
1D
CA
16
0F
67
6B
4A
82
CD
BD
F5
69
F5
64
A2
41
6D
47
C3
CF
B9
5F
98
FA
BD
76
36
87
25
6A
BB
B8
F4
54
8B
52
5E
57
65
35
DB
3F
78
FB
15
D6
DD
27
47
23
FD
DC
4D
CE
F5
17
15
F8
10
F3
8B
23
A5
F0
CD
A4
E3
13
97
38
62
52
71
A5
0C
01
6B
93
DE
CD
8D
29
42
55
19
06
D9
78
EA
E0
1B
45
D4
D2
83
5A
A7
C0
C4
CF
AC
A8
BC
23
39
F0
5F
EE
74
86
A3
15
33
5F
23
58
A0
03
12
CB
8E
50
25
5F
96
F8
D7
8C
E6
FD
18
9C
24
AD
A8
16
F1
31
28
93
6D
BE
09
AE
CB
1E
E7
5E
E4
71
6C
B2
44
4E
BC
45
D6
C1
19
05
D6
D1
71
53
DE
76
A1
BB
F9
85
82
00
17
3C
00
DB
01
22
D9
C5
8E
53
96
62
13
19
90
4D
07
5D
C2
9F
DE
8C
37
75
7B
9F
8E
7F
E5
54
F6
89
01
F7
C8
80
FA
01
47
D8
B3
6E
80
94
8B
75
F9
CB
71
B6
61
42
DC
28
B4
58
17
E6
99
E5
2C
CB
98
10
B6
5D
E7
FB
F8
E7
CA
F1
52
B3
61
E4
68
4D
8B
B8
5A
12
66
3D
82
30
F2
F0
80
76
46
8F
CA
D8
2B
30
4E
77
06
D2
CC
15
A2
DE
AD
83
17
85
A2
86
4F
7B
C1
BA
C3
D9
86
B0
13
30
49
A1
47
33
50
B7
D6
28
14
B3
98
1F
5D
AC
41
29
56
DE
9C
D3
53
7E
20
23
70
F4
07
85
A7
CE
7B
0F
E6
8B
07
DE
CA
98
D7
D3
0D
3C
94
4A
13
8E
61
4E
EA
6C
FB
4B
1B
55
8F
F5
5D
53
0E
64
F9
15
A6
AA
41
9B
71
FB
23
E4
4C
E9
03
4D
81
B6
38
5A
80
12
B2
CE
A9
AA
F8
37
3D
31
4A
D4
59
A0
FA
8F
CD
9F
4D
97
D3
F2
41
59
BD
56
4D
06
6B
77
B2
52
0D
26
B9
AB
24
3A
8F
38
AB
A6
D9
62
F3
BE
22
3A
5D
03
61
83
C5
DF
30
8D
C8
AA
BC
B6
93
BC
5B
BE
45
38
92
B5
F5
2E
80
19
37
F2
E2
31
E4
D1
60
AE
75
34
4F
E8
E0
A9
7A
85
38
0A
95
DB
3D
D9
30
5C
0F
2B
AE
46
78
96
65
1D
89
93
09
B1
0F
CC
58
82
2E
BE
85
9B
8D
9B
EC
DA
EF
89
B1
00
09
2D
9E
1D
3D
EE
CE
9A
98
B2
2D
FC
29
DC
1A
77
8B
74
D4
CD
02
94
52
5B
98
8A
52
67
60
F9
E3
CA
C7
B1
7A
ED
97
CA
0A
BB
D0
0F
79
12
49
35
16
5C
CC
B5
31
FD
4F
23
1D
B7
53
4E
C6
EF
30
AD
43
DC
39
E7
45
97
03
A3
E6
1A
EB
E2
3B
04
B8
9D
80
23
4F
B3
24
60
CF
FF
61
C2
28
D8
1D
3F
B5
DC
DD
09
F1
10
5F
BB
F2
03
44
EF
E3
F6
CA
04
91
E8
81
46
31
CC
06
89
3F
AC
84
C2
54
C9
90
F6
8E
FE
28
A8
D5
3A
1A
B5
3A
D6
60
00
F5
CF
EB
D6
D0
44
84
7B
D4
94
0F
47
A3
AA
B6
CD
D5
E8
E3
2E
F8
1C
D7
09
91
58
73
7A
48
E1
4A
30
75
2C
CD
19
C5
5F
5C
3E
71
1D
C2
F6
FF
A5
E4
70
A6
1F
50
8F
80
48
07
E2
6B
9D
D4
FA
86
CE
90
0D
7E
19
EC
36
30
47
DD
F7
AD
D8
4C
FA
93
4B
50
83
EF
06
67
64
3A
AB
76
B8
7C
41
3A
8E
BB
CB
43
B8
5C
E6
AD
97
0E
C0
FA
6D
0A
1B
E3
03
40
4E
8C
FD
7A
20
CB
CA
E6
53
76
CF
51
00
E9
48
CA
25
DE
AA
47
77
C0
6D
8E
73
5C
74
5D
D1
20
76
D3
BD
9C
34
5E
54
72
53
3F
B1
77
C2
E9
04
B4
DB
F7
10
75
FB
88
FD
A0
43
BE
33
D7
D6
44
0D
C3
66
0D
DC
1D
CA
71
2F
04
A2
13
4C
55
F0
40
48
E1
D3
97
F5
CF
86
EE
AA
63
50
9B
2E
45
D3
5D
33
0C
5A
1A
95
AF
DD
37
93
3A
57
7E
11
A2
05
8D
EC
B3
FF
AB
D2
99
62
45
C2
74
54
5B
A1
FC
07
E9
A6
80
05
AD
A1
1E
CF
66
C4
58
41
10
64
C2
93
C5
31
60
7A
CC
28
20
68
4B
94
3D
C7
F3
14
6C
C4
38
DA
2F
1E
69
49
FA
D3
C4
C4
8F
59
8B
15
78
10
1F
A0
95
05
5F
36
F7
89
3A
87
FE
CE
4D
B7
B8
96
F9
03
0E
CD
E1
E4
E9
BA
29
65
D6
84
F0
CA
2C
6C
39
D7
46
27
F6
8E
BB
A7
79
A8
F4
B1
38
54
69
C0
CF
0A
37
EF
20
61
C6
41
B3
83
7E
D6
21
99
1A
9B
37
70
AD
E4
70
FD
5F
3C
19
02
9D
58
9A
04
F3
4E
9F
B9
A5
FA
4B
D3
DA
80
3B
3C
1E
93
D1
8E
C7
4B
95
2D
1B
9B
DE
7E
BD
08
24
23
82
31
07
4F
AA
A9
F6
19
AA
2F
26
67
23
77
8E
85
B6
25
A3
DB
96
4A
DA
8A
B9
66
97
38
97
71
9D
94
1F
8A
08
DA
6B
71
99
F4
D3
A0
54
48
9E
6A
C1
40
2C
54
6E
CF
47
C1
89
2E
E9
87
90
D4
DE
04
E0
33
0E
21
02
26
81
75
A3
3F
77
A0
41
C3
A4
E2
A7
27
66
3B
9B
0C
21
58
34
D3
10
5A
F3
F2
94
33
FB
54
67
94
9B
4E
53
7B
8B
79
A5
69
C1
4B
2F
46
3D
A1
6F
60
F9
1C
83
DF
31
B5
35
BC
DC
9B
B2
EC
DD
1E
69
AE
CA
CD
BA
C5
78
36
14
5B
FF
C2
E5
A8
BF
D0
2A
DC
C4
EE
7D
8A
ED
23
D5
92
8F
BE
4E
BE
59
82
BB
D6
1C
E0
AB
95
05
B2
16
B5
21
BA
A5
44
F0
14
16
01
BF
8E
CA
DD
D3
18
F6
80
0E
E3
3A
63
AF
E3
08
EB
5C
8D
73
7F
43
96
C8
18
80
25
89
2B
4B
29
15
2D
84
CA
CD
9B
87
3B
DA
21
ED
D1
41
CA
EB
17
21
CB
28
B1
46
20
71
84
B9
7F
97
F4
00
6D
3A
2C
CF
9C
62
DE
D2
35
FD
D0
68
60
16
E5
41
34
4A
81
85
BE
35
F1
9F
77
A0
AC
5E
31
F5
8B
E4
8C
E6
DD
EC
93
46
3A
24
56
5E
39
24
85
0D
64
79
6F
06
61
BE
43
40
AE
C2
2B
7B
D2
45
38
64
F5
BE
FD
AC
60
C5
6E
7B
41
D8
BB
6C
1E
00
60
8D
CC
0B
5E
2A
A4
C9
86
80
9F
F5
8F
BF
DF
12
D9
82
E1
1F
24
3F
84
63
27
F0
A4
BE
66
01
CB
44
78
45
5E
B0
10
36
C3
83
DC
43
A8
22
26
C7
E7
62
C3
CA
8E
0E
4B
DB
02
7D
97
83
D6
07
F9
EE
E3
7C
82
DF
EC
DC
0A
88
02
70
57
90
2F
06
4F
72
DB
14
DB
BE
D1
30
18
D5
C5
4D
F2
98
F9
AE
6A
F0
1F
31
20
34
BD
40
43
CA
84
C2
1E
FE
A0
A3
48
6A
B4
9F
2A
23
DF
AE
17
04
ED
AD
F0
1B
3B
41
03
47
79
6D
6E
83
6A
EF
CC
54
55
73
65
35
82
14
B0
DE
47
AF
F7
AD
83
74
2B
17
D9
F9
C1
F2
6F
B6
03
41
3C
4A
17
29
37
6D
B9
DC
9B
6D
6E
8C
8A
16
FF
45
74
EE
0E
7A
B4
51
B5
17
89
15
E9
30
6A
67
9C
74
45
A2
93
A9
36
2E
08
63
C9
1F
4D
D0
B5
66
A0
69
A4
D6
01
15
D8
83
EA
BB
6E
AC
35
23
3D
32
10
A7
CE
49
CA
13
D3
4B
49
B9
59
C9
4A
07
EA
1A
56
14
76
3E
65
4B
3E
5D
59
1B
91
41
59
3A
25
85
EB
CA
37
58
D5
6B
EE
05
DA
85
9A
97
96
B4
7B
F0
EF
21
BA
CF
07
29
70
5E
7D
BA
9C
86
F1
71
F0
18
AC
FA
39
FA
07
7D
C5
2D
02
40
D3
0F
47
D6
87
10
6E
DD
C0
06
2E
71
A7
E8
92
EA
2A
1E
8B
B5
C6
39
1D
10
42
74
63
65
EE
2B
C0
3F
34
6D
56
A1
67
33
50
0F
73
6E
DD
E5
8A
5F
98
44
F1
C7
78
60
AD
3A
A1
DE
29
89
CC
72
05
D7
36
95
56
B8
84
8E
B3
1E
97
C7
39
7C
27
A1
FE
EF
22
E1
C2
EB
40
C8
94
F0
CD
A7
FD
18
79
59
C8
77
D5
85
F4
79
58
69
8F
42
68
D4
0E
83
46
4F
78
43
93
BC
72
8A
01
D6
E1
CC
24
B3
4B
CE
74
3A
62
4A
4A
59
AB
88
26
5E
13
C2
18
C9
25
09
47
AC
ED
3B
5F
64
92
3B
30
46
7F
BE
B4
30
C5
DC
86
77
80
47
5B
AB
9F
C8
3A
F3
96
70
D7
B3
7E
44
87
EB
07
7F
5B
09
F3
79
97
64
E6
47
DB
2B
18
DD
D6
E9
E4
D5
8B
DC
11
A6
56
D2
83
6D
16
08
91
D1
07
28
E4
EB
7D
E6
66
8A
25
2B
B8
28
FC
1D
5E
55
FA
3F
E1
32
BA
0D
69
CA
A4
44
BE
4D
4C
8C
12
CC
D7
20
39
8F
66
4B
2C
56
2F
B9
78
08
CF
78
68
29
30
6A
91
39
FC
1A
A2
B5
8C
5F
8F
79
1F
03
77
D2
C7
2A
98
8B
DD
6A
25
2A
E2
6C
FC
B0
FF
E0
22
F7
F6
D9
9E
A2
D0
2D
C8
36
D6
2F
7B
E7
5D
C0
F3
51
58
14
45
44
B2
D3
58
4E
6B
58
F1
EF
22
8F
07
54
A7
22
FA
69
CD
2F
AF
34
C2
E0
18
AB
77
CF
43
D8
A3
57
DD
54
E8
19
7B
24
59
34
23
FC
70
69
58
F4
25
4E
FE
67
83
62
F3
F6
AE
13
02
6C
5C
D5
7B
E2
3F
EA
8F
34
8B
E2
CB
FB
BE
83
3C
10
64
06
16
01
93
8C
F2
9E
F5
75
58
EB
BB
47
87
DD
5E
08
36
31
28
DC
A2
43
2D
E9
47
FB
65
B9
E0
42
09
2F
F4
71
D9
37
2F
3F
40
2A
95
F0
29
69
CD
1D
0D
B6
02
8E
23
E9
4B
28
89
F4
23
29
E0
24
B1
D2
C6
0F
DB
4C
67
06
A2
3F
5D
A4
DE
73
D3
5E
78
2F
15
0A
8D
86
7C
98
B6
F1
A1
48
0B
17
D1
01
06
F6
7C
AA
29
4B
25
2B
48
D8
F4
C2
96
57
DF
BB
A7
CF
F1
5F
C5
87
33
4E
D3
5A
5B
36
1D
AF
1B
21
55
A5
F6
0C
53
46
9B
CD
A4
9D
04
92
40
A0
61
38
24
50
97
D0
61
21
DD
D6
2F
8D
D5
D8
AD
AF
26
FA
FE
94
5A
2C
BF
5D
35
16
39
0B
0C
ED
A8
8D
D4
45
A9
5F
6A
26
49
06
5D
D7
BD
2C
90
E6
A5
97
F9
DF
E8
13
B9
CA
86
F6
ED
27
1D
5E
C1
F6
8D
39
60
CB
71
2F
8A
B9
4A
1F
CA
DD
C9
F1
32
14
E8
D7
7D
03
8A
F1
10
FC
9F
4C
EC
DB
A4
CC
47
A1
05
14
78
AB
89
1A
25
5F
EB
EE
7C
F6
E4
17
89
69
B6
02
F2
B3
7F
CD
44
A7
81
F1
78
38
5B
AB
44
13
D5
37
8C
11
EA
E4
63
45
0F
24
73
A2
E6
8A
E1
9E
5C
02
61
D1
19
73
82
BF
5E
88
1D
EF
8D
0B
F0
EA
4B
C1
7C
00
31
38
85
22
7C
D1
F0
B2
EE
56
C4
69
6F
9F
8B
C7
35
24
79
BC
D9
99
95
BF
C0
92
89
6D
3E
C4
A0
42
6A
DE
DB
47
8F
D0
B3
24
D9
D7
9A
E1
98
AF
23
24
55
F0
B0
48
D3
25
B5
0C
9B
1A
FE
2E
D2
94
B6
B6
7B
F7
93
86
4B
C4
5F
D2
C3
3A
08
07
3B
3C
64
B4
DF
71
41
E6
3C
E7
62
9A
FA
3C
08
E0
7A
A8
F6
90
64
54
A1
5E
E6
D3
F9
48
DE
AE
0B
D2
A3
37
F7
56
6E
92
5C
FC
5E
92
C6
32
B8
D8
E1
CF
39
77
57
F1
3E
4D
00
E5
A3
EA
E7
CE
4E
E2
83
49
60
99
14
90
1B
BF
D2
DA
AA
8C
12
B1
AA
31
16
13
8B
FF
25
0A
97
0C
F8
67
D1
8F
B9
42
47
20
1E
D6
A5
DA
4E
59
93
96
47
91
9A
79
22
71
2C
6F
08
85
2F
85
17
F1
74
F7
46
5E
4D
0F
DB
EB
76
1F
2D
EE
7E
6D
6F
99
81
BA
0C
28
2F
66
A0
2B
4C
ED
2B
3F
3D
1D
74
F5
60
8B
5F
D9
CD
47
1B
E3
DA
C3
B3
A9
2B
55
D6
79
88
E9
E2
F9
AD
72
B4
35
55
E5
63
E4
DF
FD
C9
97
9D
05
D9
82
BD
5C
C6
33
6E
45
4A
B2
0F
B4
D9
0D
55
7A
4B
8A
4C
2A
0D
12
8D
1A
8A
5D
7C
F6
14
CF
0A
FF
83
6C
A7
17
A6
BE
02
15
ED
F5
D4
36
B6
E6
D7
64
9D
2A
9F
15
B7
29
52
CD
B8
16
40
EC
E8
52
4D
F5
CF
9C
B5
81
7C
58
06
E6
93
04
CC
F5
9B
89
0B
E7
87
0D
D2
13
9D
0F
00
FD
1C
20
F0
C7
28
D9
73
FC
72
7E
12
96
31
F2
D4
FC
0E
23
90
7A
EC
0F
FF
51
EA
D7
4B
C7
E2
D0
69
0E
24
27
81
DB
48
9A
22
FB
A0
86
5A
12
15
99
8F
0A
2C
3B
E8
5A
C6
CA
96
AB
25
D6
3D
39
E3
97
EB
A1
B0
7A
8F
91
E2
A6
8A
23
EE
56
54
0A
DB
67
BC
8B
A8
9F
6D
D4
61
DA
7C
CE
11
58
55
72
A0
67
D6
9D
0E
47
A8
E2
B1
B6
9C
12
60
DF
AE
54
EC
ED
EA
C7
19
7A
8D
04
CA
AE
89
C8
54
53
76
B4
D2
5B
F0
0D
95
C5
C8
45
33
AF
1B
F2
17
A3
51
DF
EF
0A
3A
B4
76
E5
D1
F7
1F
D1
95
C5
C3
63
D5
47
E0
A2
79
7E
BD
55
71
48
77
13
B1
25
93
1C
BC
F3
63
C3
E6
A4
C9
6D
21
21
ED
A9
72
96
7E
3F
89
3A
4F
85
BE
2C
9B
54
19
2D
F1
C9
9F
EC
95
82
90
61
BD
78
26
D9
73
2C
95
C1
51
57
44
E5
9B
DF
33
4B
80
B8
E2
6A
12
34
B2
C7
2F
73
07
90
98
D9
A7
61
33
19
42
5E
40
9D
B7
4B
E3
B4
AC
8D
56
B2
7C
D2
DD
80
3A
3D
75
DF
83
1B
91
86
0B
B4
97
AE
47
5F
82
95
7B
39
2D
7B
FE
A2
B2
07
30
62
27
5C
B0
42
0D
DC
0D
44
E8
1E
E7
00
CD
7A
14
B9
6C
97
1E
14
48
2B
83
CA
37
B8
16
A0
AF
09
E3
77
3C
EA
C5
0B
D4
EC
09
6C
7F
F4
6B
44
70
67
2B
B9
DA
C5
14
EE
11
53
64
A5
E0
FD
9C
65
36
B8
FD
D2
6D
32
BA
05
65
11
C4
17
05
89
9E
6D
4E
5E
E5
03
DB
35
90
6B
F3
A0
C3
07
09
6C
4E
60
F0
F7
2C
73
25
A8
F8
2A
08
E6
51
17
CC
8D
CB
E8
38
86
39
0B
10
8C
94
EE
EC
69
B4
6C
4F
E0
4B
14
88
E6
08
4C
A8
C8
BD
E5
D0
E3
88
EC
A4
47
6A
B7
C6
D5
E1
74
BF
2E
F6
04
98
87
A3
9D
85
4B
2F
A3
EC
44
5B
A5
FA
3E
CC
8C
65
B6
E9
36
97
34
CB
BA
C1
39
97
9B
E7
C7
DF
84
D1
1B
AA
2D
07
48
41
6A
84
80
8A
B9
42
98
E5
E1
EC
D2
61
11
88
82
35
F2
5F
ED
47
66
F0
D4
1B
0B
FA
4B
34
03
28
57
B2
95
46
1F
E2
91
E4
C5
4C
0B
15
69
83
68
C0
C2
09
EF
8E
B3
E0
60
1D
15
3E
D2
84
BB
47
16
78
37
06
3F
53
CD
B9
DC
8C
9B
47
CF
A8
EF
1C
0D
ED
BD
3A
29
09
30
73
8B
B0
70
BF
B8
CA
66
E1
5D
FE
89
B4
35
8A
61
0E
78
EF
9F
33
F7
B9
78
4D
D3
07
87
B7
A0
02
80
4D
CE
E1
4B
FF
44
D6
16
19
DE
6C
6A
F8
6E
54
53
B4
33
2C
A2
C6
77
EE
17
E2
58
46
C4
CA
27
B7
A5
F3
7A
1B
64
A2
11
6F
91
48
0A
6B
75
46
DB
71
18
CE
D0
9D
D1
C1
05
CA
C9
7E
86
28
B7
D6
0D
5E
C1
10
F4
BB
E4
A3
B7
86
D1
70
CE
C0
0B
8F
77
08
33
16
55
90
AB
52
28
55
14
15
81
46
61
4A
BD
0E
09
70
B9
01
D6
10
EB
16
DF
DE
A1
03
D5
A6
96
E2
0D
5D
CB
BA
79
07
42
00
A0
00
CF
88
53
F5
9F
38
86
12
8B
09
75
74
91
9F
E9
AA
37
DB
80
1F
82
0F
86
EE
F0
2C
6C
29
51
E6
F3
4F
05
C8
06
5C
5F
65
BC
7C
E8
D3
D0
D6
A2
BA
FB
51
54
D8
3B
6C
B6
F2
E2
4C
6E
59
F2
8F
7C
22
95
40
CB
1B
47
61
61
7D
AF
5B
4D
40
44
D7
A7
E0
C8
45
BB
EA
70
C6
0E
A1
E1
D7
36
CF
D9
E6
7D
A9
1B
15
D6
C1
37
77
D5
14
C6
E7
EE
48
AC
BC
45
42
51
EF
33
A2
F1
FB
13
B9
1A
13
45
1B
99
2C
44
F7
05
17
70
11
36
EC
9A
46
B6
71
D2
75
B6
05
15
0F
07
ED
01
20
A7
74
79
D6
39
DA
83
22
58
EF
2D
33
C1
C2
2C
15
81
DB
60
62
1A
33
8A
83
28
6D
70
E3
65
63
A5
FE
F9
22
15
04
D0
B2
3F
87
2A
CC
89
E0
59
B4
D1
B0
F6
8F
FE
A9
0F
81
26
F9
B2
BE
89
84
1E
E5
E9
F4
93
BD
E8
E3
E9
99
6C
13
48
B5
1A
E5
6D
80
47
18
1A
52
83
AB
11
05
C6
F4
1A
DD
91
54
2F
66
60
44
8A
CA
DD
C7
DB
39
46
42
BB
BB
EF
F7
96
82
4E
D9
9F
A6
04
37
8D
8E
D3
EA
45
37
3C
D4
F4
9C
82
4C
17
FF
B3
4B
C3
DC
67
18
68
97
16
54
0F
3B
7E
22
F5
94
5F
58
05
C1
1A
31
4E
4C
F4
90
D7
22
AD
D5
8B
32
12
72
6C
0B
6A
C5
C5
B3
1D
AA
8F
89
5B
75
B7
9E
27
40
3D
1B
CD
F8
C7
18
2D
80
3C
6E
AC
00
BA
81
5B
FD
F0
1B
0F
B0
C5
A6
6C
86
D0
53
9F
F4
F3
F7
2B
5A
25
20
D8
50
74
C4
A0
97
4A
42
4C
4D
CC
27
F4
06
70
BA
E2
8D
16
EE
6E
6D
0A
A7
B9
FC
54
16
53
CF
92
6C
F1
18
1D
F7
A3
D4
29
BD
88
16
83
D2
A8
F1
40
42
C1
B4
05
73
45
44
5F
26
99
43
54
2D
2B
80
7A
06
71
81
C0
D8
53
8F
88
CD
4E
57
0E
19
B9
18
8B
2A
63
15
2A
2D
53
E4
D8
42
EB
00
99
71
3F
6F
7B
3A
45
A8
22
C0
C7
3C
4E
22
26
95
DD
C0
A4
D4
72
D7
91
1D
01
45
10
52
01
C5
1D
70
8E
88
FF
A9
B0
D4
45
DF
3D
91
88
AE
19
F3
B5
55
17
BE
D6
DC
9C
78
5A
8B
61
17
57
87
B4
40
DB
BD
B2
6F
69
BA
9A
5E
90
34
8D
DA
9E
3F
9F
EB
A3
DA
BC
44
37
C2
91
A7
3B
1F
5A
8F
36
44
7E
99
80
BB
3F
6A
08
2E
98
CF
80
BE
19
96
13
B1
D7
B0
FF
F7
6D
84
E8
CB
C4
13
16
C6
38
B3
EC
95
36
30
BD
9C
F9
B2
A7
0F
79
48
B6
12
3F
88
85
6A
91
06
87
E8
7B
59
0E
13
0E
9C
3A
6B
87
3F
E5
82
44
64
F0
1A
33
08
38
26
6E
91
72
97
14
3E
B7
A9
40
88
39
9C
37
29
A7
61
1F
23
80
18
AA
EF
AA
41
91
51
23
64
28
38
C6
3D
8D
13
D9
B6
3B
C3
3A
9D
4E
D6
93
34
45
2D
7A
D4
52
DC
A8
69
F5
F0
92
46
93
C6
0E
EA
E0
0E
CF
9D
C3
FA
F7
2C
95
36
02
91
50
00
58
7E
A0
BE
6B
74
48
9C
50
48
00
02
C9
06
1F
38
E3
9B
FC
92
5E
38
54
8B
9D
B2
25
BA
06
D5
F9
1A
F0
BB
73
56
94
4B
97
B5
84
8F
74
2E
99
38
99
C7
86
EA
95
C9
6C
6C
7A
99
AE
97
A6
D5
B2
D4
BB
D0
E1
07
BB
DC
2F
FB
C5
11
01
B0
4D
3B
5E
0A
37
C8
AD
4A
95
34
4E
8F
D8
46
13
4F
14
0A
B7
BF
FC
3F
73
22
E5
6C
C9
20
E7
4D
0A
58
76
65
E7
72
13
84
A6
F6
87
D0
5C
C9
86
B7
0D
17
96
74
F9
56
C9
08
BB
75
C7
50
C9
0E
AC
A9
AD
35
F8
6D
45
1C
88
8E
3C
3A
75
FA
B7
40
75
91
E7
19
60
C8
55
ED
34
6A
F4
BB
8A
B8
D6
55
5B
09
EC
3E
7B
7B
09
A4
1A
19
47
67
02
A6
07
3F
E4
ED
BE
03
E6
2C
10
BB
80
38
C5
17
8C
B8
03
23
4F
85
EB
D9
00
44
EB
9D
40
5F
51
86
96
5C
3B
11
CD
C8
C6
34
CE
94
F0
AE
9D
59
30
34
03
5D
0C
93
3F
5F
F6
1D
0E
D6
82
17
F0
8C
15
45
CB
56
FE
98
89
D1
66
6D
A3
C2
6F
0A
13
F8
E6
EE
ED
D8
86
37
4C
6A
AB
66
C4
F9
D3
01
34
24
20
CE
ED
2E
A7
A8
9B
ED
46
CA
D6
4A
07
22
F4
9C
C0
64
30
39
31
84
6A
FB
6A
A5
26
2E
24
08
ED
5B
61
54
D8
1F
3F
83
E2
2A
09
94
9B
1A
B6
09
07
8B
4C
89
E3
1C
EB
75
AD
B4
C2
6C
6A
41
54
C3
A5
00
6C
00
1D
70
3C
33
21
73
08
92
7C
FC
47
43
47
2D
FA
2C
44
39
5A
B0
25
90
A1
53
8E
F4
86
83
BB
D7
2F
B5
B3
C7
60
6E
11
FA
C7
CD
2F
3A
FA
94
C8
99
07
0E
E8
1A
E0
00
94
EA
53
47
D3
5C
E8
56
D2
94
9A
F5
F8
C2
ED
FB
C8
C5
33
41
E8
CC
D3
3F
39
A4
22
6D
C5
A1
5A
66
07
81
36
2D
E6
9E
42
05
BF
63
83
C9
24
8A
0A
97
A8
26
A5
53
EC
00
69
53
40
DC
13
EF
A2
D0
60
5A
C1
1C
30
11
19
22
2D
49
C8
0E
89
DD
15
71
FB
04
B9
4D
AC
B2
18
47
2C
F9
7E
B0
C9
72
B1
BC
B2
67
A3
66
27
50
C8
32
43
5B
71
7B
E3
86
6F
58
CA
51
7C
04
89
6D
A3
22
C8
55
B8
D2
F3
34
18
28
28
B0
E0
96
90
1F
7C
E4
D2
85
DC
55
DA
FF
88
78
B5
D1
7A
93
F6
4E
43
06
E0
72
9D
C4
F0
67
F6
DD
FE
51
D5
05
F3
F1
82
A1
0A
F5
CC
85
CA
8D
8F
ED
22
7F
B3
84
AF
9E
3C
F7
79
C8
05
7C
0B
F6
D7
1C
67
46
5B
CB
E6
F4
7E
BB
0A
E1
B6
AD
8D
D8
8A
5F
B4
49
73
24
8A
98
6C
76
08
58
43
B3
A8
01
DC
A6
13
82
7E
94
BE
7A
85
48
52
41
09
FD
7A
06
BF
6F
FD
02
4E
DD
C2
12
5B
B6
57
50
13
FD
72
14
0A
63
E3
3E
FE
79
A0
F3
90
06
A8
E5
76
E3
E9
CB
22
58
23
8D
47
CD
DB
42
D6
41
74
D3
91
70
BB
D0
63
A9
1A
AE
CA
F9
F8
14
6D
59
B8
D2
29
12
5A
B8
AF
09
5A
B6
84
76
8E
F1
E7
BE
85
95
9C
A3
24
90
27
03
59
3D
15
A8
79
D2
B4
00
66
FC
0B
E2
FF
E2
BE
84
67
CA
8B
13
A4
D6
AD
85
5B
60
40
38
5D
5B
50
F1
62
DD
D9
E5
35
C5
E0
FC
E0
35
B8
67
F4
81
EB
09
29
74
98
6B
53
A0
FB
0E
BF
C9
DB
30
E3
EC
8F
0F
A6
DB
FE
FB
5E
99
97
60
2D
94
9E
F6
DF
99
A0
AA
89
1B
8C
ED
18
7A
EB
22
8F
8D
19
EA
57
FA
C6
A9
1F
C2
79
F3
FA
4E
A7
32
0A
12
BC
05
46
7D
21
15
53
D3
D1
7A
10
39
0A
15
30
69
1A
93
E9
BA
F2
46
90
57
3A
14
D6
2A
0C
AD
60
0C
3B
CE
64
85
33
92
DE
B4
11
A1
76
5D
07
78
7E
B9
56
49
65
E7
15
3B
1E
75
24
FB
B5
12
19
D2
06
80
BB
16
C0
C5
F0
34
A4
B5
BE
DE
C0
BD
29
6A
EF
06
92
A4
9A
F8
14
95
B0
CE
5D
CB
B5
7F
6D
16
B0
79
C7
0A
6D
24
69
38
A3
BF
59
FB
E5
F8
A0
66
CB
43
7B
92
C3
D7
1B
A5
9B
5B
D9
C6
8C
31
19
14
C2
0A
F7
B7
0D
1C
0D
28
36
96
B0
99
F1
E4
2C
AB
6D
B3
49
A4
10
10
ED
44
F9
67
3D
26
DA
11
CD
C1
FC
AB
8D
C8
E2
6F
0A
A5
51
FB
E5
11
88
82
95
A7
67
3F
A8
1D
A4
97
F0
DD
77
E0
CC
38
5F
F1
E8
A5
FA
F4
AA
7C
A6
1D
11
4F
18
66
3E
54
AE
DB
54
62
BE
D5
03
C1
B1
4A
3B
98
1C
94
11
BD
01
9B
0F
A1
EE
AD
E7
9B
EF
04
42
B2
13
8A
2A
FF
9C
CA
08
30
88
21
24
AF
42
76
15
AE
58
D3
0D
8E
59
42
5F
71
0B
88
C7
EC
FB
B4
46
14
A2
24
98
2E
99
A6
58
7F
4C
7B
2D
FC
2C
47
2B
F5
04
F0
8E
C7
61
DC
80
A6
E7
B0
33
38
9E
A5
1D
58
09
A0
A2
ED
31
20
59
FA
C9
CD
AE
09
E1
47
99
10
E2
2C
17
2F
1A
20
E0
CC
04
47
57
50
1A
A5
D8
99
60
56
1F
14
26
D6
A7
5E
1B
A2
18
C3
8F
ED
20
FB
E6
EC
21
94
30
FE
65
DD
24
77
41
29
CB
A9
CF
48
9C
1C
00
AA
AB
FE
AD
96
8C
0C
92
D8
EA
CC
70
68
DC
B9
B4
8D
62
35
41
62
D6
14
86
E1
F2
ED
40
F2
E7
DB
77
A6
91
74
BC
C3
5D
99
B0
77
2B
CF
74
25
2A
E6
ED
70
D1
32
8D
8E
31
91
8A
B2
24
B1
09
D4
B5
E0
B4
48
E3
D0
90
FE
90
24
04
C3
2B
A2
C7
90
92
96
58
D6
55
F7
3D
44
A8
B0
D8
B2
42
F4
FD
5C
37
78
0C
B6
28
94
8E
C3
ED
0F
29
DB
24
39
E7
F2
47
D1
55
0B
B1
F4
94
BA
AA
14
51
87
7B
4A
23
F4
AB
1B
C1
B6
56
B2
B6
5B
55
DA
63
0D
78
72
D3
DC
67
F2
E9
71
0F
48
1F
80
BF
F2
17
94
FD
33
2F
A0
7B
DD
C0
7D
98
BF
C1
3C
25
F7
52
50
0C
C6
87
0A
53
B2
89
3F
33
1E
72
98
23
43
46
DF
A6
8F
3E
A5
7F
FD
05
52
49
42
37
32
A6
28
F5
8C
B9
B1
6B
BD
3D
E1
18
2E
74
DE
9E
91
92
3E
C9
59
88
B8
19
DC
24
11
B6
A9
F8
09
AD
88
47
B1
B4
61
44
7D
7F
46
CA
1D
72
A6
1D
A6
F1
4B
DF
7E
28
37
63
A7
DD
32
B6
14
8B
46
17
2D
64
A2
8E
0A
78
9F
FE
E9
EE
7D
59
49
01
D0
4E
7F
50
D9
09
7A
03
CE
69
A2
4F
C4
E7
27
42
F5
B3
2C
92
92
16
86
F8
99
57
DF
34
3E
A6
FD
32
14
61
A7
E2
68
37
B7
80
57
16
36
DC
9D
97
E5
63
13
75
9D
FF
15
A8
70
72
75
DD
B5
4F
62
D1
51
E1
6B
BB
F8
1D
1F
05
97
2F
F4
6D
28
F0
70
F1
C0
8E
51
61
C3
48
7C
FC
07
2A
AD
2C
22
08
95
66
29
49
D5
E4
42
59
06
C8
26
6B
10
90
B6
57
CC
FA
CE
4B
BE
EE
C3
54
FA
A6
9C
F5
22
9A
15
DB
7E
B4
7F
9C
C1
5E
2E
A5
E1
86
24
97
E4
76
4A
51
D5
3C
44
1E
0C
BF
2F
52
2C
46
4A
97
EF
1C
7A
FA
62
67
11
7D
3F
A3
E6
DD
06
A3
24
A7
D1
E8
33
9C
C2
C9
35
5E
04
CD
91
87
31
D4
1D
4E
43
14
E1
7E
0F
C4
83
CE
2F
C6
53
FF
AF
BA
0F
53
3B
C1
12
F0
6A
F6
B4
E7
6D
24
08
66
08
0B
46
4F
66
D5
56
F7
74
D2
60
4C
9A
E6
A3
89
CC
F1
E1
14
79
D7
29
45
F2
15
C6
A7
63
19
3E
1B
72
EF
9A
BA
CD
40
4D
72
EE
39
68
47
C8
03
8B
90
9B
33
3B
0A
5D
75
BB
3A
5A
64
46
F9
31
57
78
41
7D
57
08
6F
D8
2C
30
7B
F9
04
35
87
18
C1
5D
92
EA
5A
B4
4C
69
64
EB
B3
A3
EC
08
54
21
D3
19
81
7C
2C
98
A7
A8
C5
E6
1E
7A
45
92
34
A7
15
9F
17
B4
48
4E
57
70
EC
B9
B6
21
70
9E
54
63
AA
EA
E5
75
B0
F7
F7
26
19
50
41
6D
00
43
19
8A
99
DD
BF
6D
49
6B
54
40
18
F8
74
03
99
7B
30
45
83
36
5F
B9
05
17
0D
72
B0
2F
E3
4A
1E
F3
F1
68
18
1F
B3
E5
60
B5
11
E1
77
A4
F9
6E
E4
F3
1A
08
7D
1B
38
7F
89
A2
2F
74
D0
30
C6
03
3F
BD
B1
2E
A5
FA
DB
AA
F3
F5
59
BD
56
0B
E7
B5
8B
9C
EF
EB
CB
8C
D9
41
3C
33
61
69
FF
11
91
E1
65
1B
2F
1E
C2
27
D1
1C
DE
5F
FB
1B
1D
FF
8E
54
ED
3F
77
0E
BF
56
8F
50
ED
C3
26
43
CB
7C
2F
E9
3C
A6
5E
75
44
0A
AE
35
D2
DB
EB
24
18
B8
F4
CF
52
AA
85
62
60
BD
7A
6C
D6
76
BA
C8
E4
E6
3B
82
8E
3E
19
2C
8D
31
90
F8
C4
C4
74
0B
8B
E5
29
8A
78
64
6A
81
51
A3
97
DB
45
A0
F3
BA
CD
CC
49
C4
A3
5D
29
3A
FF
32
89
56
27
D9
F4
97
2B
D0
F5
91
41
5C
36
A4
7A
A1
5A
77
16
B8
F0
F5
0A
48
E7
64
26
B9
01
EF
F7
67
77
8C
3F
C9
85
01
02
DF
97
97
3C
26
36
75
63
E7
39
80
A8
09
52
66
F1
4A
2A
C1
00
26
54
CA
14
5C
B5
DD
F1
5A
F0
9B
5B
8E
E2
CD
2A
F4
FF
50
BD
B3
F6
B8
DA
90
75
AD
C3
C3
56
39
06
35
33
98
6E
36
D2
3F
AE
12
D6
2D
E4
FC
26
07
CA
F2
71
07
B2
42
26
6F
49
AD
D9
5D
FA
0A
18
2C
24
AB
02
1E
61
7E
12
DB
52
E4
F2
66
29
F7
A5
DC
AE
2E
8A
82
D3
A0
6F
32
FA
4D
B4
63
DB
46
DD
11
C7
1D
AF
A8
93
C5
55
29
C3
40
51
74
7B
D6
37
41
AA
E5
00
37
25
CA
16
6A
2F
10
36
E3
9E
8E
B6
02
B4
C0
C5
78
3C
79
A2
5F
03
DE
CB
A7
91
FA
C2
CD
F2
7C
B5
16
06
74
D3
81
25
C3
E0
DA
35
FD
8C
F7
E7
AD
35
AA
32
2D
6D
10
57
EE
0C
4B
E5
00
02
92
AE
4C
38
97
6E
F8
2C
AB
E4
4D
AE
32
7D
68
94
21
08
76
E3
ED
91
4C
AE
7A
5E
BE
3A
EC
4B
4B
E0
C3
01
4C
DE
6A
F6
65
13
E8
BC
3A
57
DF
70
EA
09
0C
33
38
51
CC
50
C3
2D
6D
94
63
4B
2A
1E
68
E2
01
39
F2
97
A4
C9
69
22
3C
A8
23
00
73
62
29
66
12
48
A4
D8
A8
9E
5D
50
D3
13
4A
26
EE
BE
FF
A0
A2
68
45
A1
D4
2F
7F
F4
27
1A
5D
E4
F5
71
B0
38
EE
27
F9
1C
76
A5
04
D4
F6
33
57
56
8A
A7
D5
A8
19
FD
1D
1B
B3
F8
C6
2A
F6
FB
CC
EC
DE
06
D6
42
B2
70
54
B8
58
5F
F5
E0
32
45
2D
09
2C
16
73
8F
93
5A
40
AC
F3
70
88
4D
6A
24
BC
20
60
71
AD
04
25
28
68
45
7E
5A
62
33
DA
4E
89
F5
B3
27
95
4B
A9
11
9D
36
C1
1A
D7
D3
06
42
1A
F2
2C
20
30
52
48
2C
B8
D5
E6
6C
E6
CB
4F
DB
C8
53
75
DE
A3
9E
08
8E
1B
EB
11
A8
A4
34
F2
7B
0A
44
A6
41
64
85
7C
C1
C0
01
94
13
D7
D7
0D
73
A0
7A
12
72
39
E6
D8
2F
EA
AC
6C
6D
D4
A7
C1
79
C6
5E
D9
12
35
9B
C5
77
F5
65
7D
99
0F
0A
EC
C1
9A
9C
B4
4D
A6
EE
3E
6E
68
A1
46
DB
BE
37
5E
C6
54
38
92
36
89
E6
F5
A5
B9
06
26
13
E5
A9
2D
B9
71
0E
EB
7C
85
54
3F
CF
98
1A
A9
7B
B6
7C
1C
9E
5B
6A
19
1A
7A
49
C7
57
7D
79
16
82
7E
BF
22
4B
D0
8B
5E
EC
40
6D
F4
3D
11
C2
BD
49
AA
0C
ED
36
96
2C
3B
5C
9C
3C
79
FF
67
B4
38
A8
B0
EC
68
0A
AD
5A
22
5C
F9
4E
4C
EC
DB
59
3C
07
A7
3E
39
8E
93
30
10
C2
89
17
75
07
D1
1B
52
88
B5
F3
D0
13
74
68
5B
B9
D8
53
D2
CB
BD
03
DD
12
8D
DE
24
FE
F4
6D
0F
0F
23
9F
8B
5A
EB
FB
85
74
C9
14
59
DE
83
2B
9A
54
E3
D4
0B
E7
C1
5C
1F
47
71
14
F3
40
DE
30
59
97
EC
B6
46
2D
1A
56
CC
C9
44
D8
E6
4E
98
8B
41
FC
25
76
28
B8
9F
A9
E3
90
EB
FD
CD
FB
C2
D5
E0
FA
72
B1
DD
65
12
6E
EF
5D
EF
70
8A
6D
21
C7
DC
03
0A
52
6D
75
AD
8B
67
B3
EC
00
6C
03
01
09
DA
59
3A
C2
83
91
D4
FD
BE
BE
07
3E
49
AD
BE
18
FD
8D
6A
28
A4
B3
D8
45
72
65
25
0F
0C
E0
B5
38
7A
CC
46
B3
D5
9A
00
F4
F8
B2
9C
B0
5B
37
86
22
95
E2
94
3A
58
33
74
8B
BE
3D
A5
59
A2
5B
AB
10
D9
E4
FA
E8
AE
9E
2A
A3
5D
62
C2
43
DA
47
1A
10
70
03
5D
BA
89
F7
C1
1C
50
25
05
C5
8E
36
19
A1
F6
E3
D6
BF
09
76
E9
01
46
A4
71
6C
BA
3A
9C
FE
B6
8C
17
97
27
13
59
E6
F3
7F
A7
16
70
F5
49
D6
CE
66
73
E6
A8
85
07
78
C9
6B
79
57
07
50
69
2B
69
6F
72
A9
FF
B7
EA
D4
A3
2B
7F
6D
25
CB
21
EE
8E
CA
62
8B
A9
5B
20
98
02
30
07
BA
9F
F9
A1
29
D0
B7
67
15
03
65
93
56
4B
96
2A
43
FA
52
9A
DF
9C
28
54
5A
20
88
67
4C
90
BD
CE
00
02
88
BE
BA
F6
72
0F
77
12
D9
58
42
02
EE
B0
8F
2D
7C
2B
D1
80
1E
BE
D2
87
1E
49
B7
6C
AF
78
09
92
C7
7E
C4
7E
34
C7
D8
39
BD
78
8E
3D
3E
C4
AC
F6
46
4B
93
A3
5D
CE
A1
91
9C
8B
B0
2B
40
D4
A9
F8
0A
DD
56
E5
95
93
C9
0B
83
8E
42
63
83
F7
72
08
AB
F7
D2
4A
04
51
20
E6
4F
D4
E2
C0
2A
CA
0F
AA
2C
2F
A4
0C
EF
AA
F7
A1
A7
02
91
DC
D7
DE
05
26
40
AF
84
04
9D
1B
95
24
F6
EB
6A
F6
C0
E7
E8
22
8F
4A
E9
10
45
94
5D
02
BD
A7
68
CD
91
87
20
E3
2D
CF
6F
AD
90
16
2D
21
87
0F
96
12
F5
DA
79
22
18
45
FF
9F
4C
66
65
F9
CC
C4
3C
A1
CD
C8
39
79
6F
5E
BA
57
69
D0
FA
56
2C
D7
D1
7C
81
2B
7D
3A
4F
D8
F7
96
13
DE
4D
FC
AD
74
3D
A5
63
1D
65
FD
2C
04
1B
3C
42
67
BC
40
D5
20
7D
F3
C2
2E
72
B3
DA
74
51
87
45
58
2B
93
34
AD
60
6A
CA
7B
2E
B7
C6
B3
30
F5
D3
29
67
F5
78
A0
78
CB
FF
10
E0
E4
CA
96
AD
6B
4D
3C
67
2E
43
9D
5D
C1
37
BE
F7
C0
B0
BA
A2
A5
31
34
CA
6C
E8
42
EF
B7
21
DA
F0
F7
EA
93
2D
C1
D4
B9
92
3B
E2
85
2C
E7
9C
49
2B
F5
F3
E8
1B
11
BD
CA
68
1F
02
59
AE
54
90
B8
83
64
29
1E
8E
08
86
44
88
C4
EC
D5
FD
91
62
C3
8F
79
73
BC
28
B9
20
AD
A2
C1
84
27
3C
37
E8
E1
FE
EC
B6
7A
3B
B5
7C
FF
4A
D0
28
92
A2
E5
C5
CE
7A
67
19
FD
8F
47
4B
22
39
5F
5D
21
B6
C7
9A
E3
D9
AE
2F
30
49
EA
2F
FE
31
EC
26
04
AB
1A
A8
80
60
B9
4D
94
CF
85
0A
84
3B
C8
B8
DC
3F
2D
03
36
45
BA
91
F9
30
40
65
F1
24
32
7D
DE
BE
BD
B2
C5
7E
EC
6F
F4
ED
C6
33
8E
05
DB
EB
F2
BD
6E
74
5F
1A
86
DE
2F
6D
A0
C9
F8
C1
8D
8B
C6
AB
14
A0
27
D7
79
34
3E
6A
19
E1
50
B4
9C
9C
45
D5
12
5F
8A
42
2E
75
0C
E6
38
C3
A2
B0
6D
B5
BA
E8
F1
12
99
E2
D7
15
12
F7
9F
25
D2
1A
2A
89
89
AF
9E
D1
00
ED
BF
89
07
9D
04
F8
72
99
09
CF
45
35
51
9C
BE
B3
D5
EB
69
B5
01
C7
89
9B
4A
5A
8C
49
F6
CC
FD
C1
02
2D
2E
C1
EF
41
32
AC
B3
05
B8
F3
56
41
A9
67
16
92
1D
DC
28
9D
E6
16
F7
D9
0D
38
E7
19
3F
E2
84
72
DA
C4
D4
87
50
CC
3B
8D
6D
21
BF
CD
38
77
97
CA
8D
E3
32
EA
FD
7C
9A
BF
0A
14
89
2E
D1
6D
F5
BE
D8
C8
8D
98
4F
CC
F3
B2
9D
22
66
50
5E
87
20
4E
80
D9
4A
C7
94
22
6A
F5
67
5D
99
72
E7
E2
8F
12
75
6F
87
34
8B
11
36
C8
21
E8
14
98
80
A7
53
84
BF
3A
D5
AC
C8
83
F5
59
8D
ED
4A
9C
71
77
07
36
3B
3D
13
B0
C4
DA
D0
E3
25
05
54
B8
F4
DA
A1
E5
49
01
81
6D
B9
9D
15
F0
B7
F6
54
C0
26
F4
8B
AF
7C
C7
61
32
97
4F
51
63
D1
3A
10
E2
96
B5
B9
2A
EE
28
35
DB
23
53
8A
82
94
8E
36
4E
04
0E
7F
A3
F4
30
6A
A5
A7
7A
C2
4B
67
7C
A1
91
24
A7
81
64
88
15
E4
16
FF
78
5D
03
E2
D9
0F
99
E8
C1
C8
64
22
A4
35
A7
5A
97
80
E8
2A
4E
AC
5A
78
88
5E
1A
02
E3
FE
16
74
1E
70
53
E3
60
2B
EA
7C
2D
AB
00
9E
6E
D7
91
06
B5
F1
1E
3B
08
E0
26
34
0C
39
E1
56
3D
42
B2
40
0F
05
6B
00
C1
FA
B0
1F
08
39
C2
21
F9
C6
0F
AF
1B
34
28
58
18
A6
68
74
57
57
26
3C
B8
7E
24
8D
5C
25
9C
A1
6F
7B
C5
24
E5
31
76
AE
D9
8E
95
D6
44
B4
6A
EA
F2
ED
AC
DE
25
01
42
05
09
10
57
B4
1C
43
D3
4A
E5
9A
DA
0F
0E
97
70
44
ED
83
D5
DD
55
57
B4
A1
2C
62
44
B9
7B
B6
25
EA
A2
18
A1
E9
AC
C9
38
1D
BF
27
8B
EC
01
48
ED
A5
17
95
EA
03
2E
3E
19
44
50
CE
3E
06
7A
C7
62
0D
6D
E6
16
B5
B2
E2
67
33
64
3E
A8
67
2C
58
02
0C
E4
87
2B
AC
27
46
E7
8B
83
19
4B
EB
FE
70
5C
BC
71
88
51
0E
35
2E
BA
6E
8F
F4
BB
B8
10
C1
7C
43
72
0A
2B
A9
3B
79
D0
56
3F
D3
82
DB
30
81
A7
84
CE
BE
B9
48
D2
49
4D
F3
C2
89
42
DC
8E
BF
DA
72
30
75
76
61
0E
1A
6F
E9
DA
3D
AC
91
D4
D5
F8
54
41
28
DE
E4
0C
97
FA
B6
C9
D9
57
31
5D
DC
56
AE
37
1B
11
16
82
99
48
83
A8
FB
56
5A
42
0B
9D
EA
48
A7
99
B2
F1
2C
7C
30
E5
AD
AE
C5
11
4C
1A
63
1F
D1
0C
E2
95
40
B0
96
D6
81
7C
CD
5C
58
FD
0C
DF
15
ED
92
0D
8A
F6
57
BF
2B
2B
BE
A8
03
D9
96
A1
BD
79
BE
F3
82
7E
22
0B
10
DC
73
7F
1F
B8
7E
AE
52
27
A4
1F
62
F9
B6
AD
28
60
46
EC
AD
58
C4
7F
1D
87
98
3B
C2
CF
64
56
64
93
BF
30
B0
4A
93
6A
C6
0D
D1
4B
FB
53
76
0D
